{
  "version": "1.0",
  "truncation": null,
  "padding": null,
  "added_tokens": [
    {
      "id": 0,
      "content": "<|begin_of_text|>",
      "single_word": false,
      "lstrip": false,
      "rstrip": false,
      "normalized": false,
      "special": true
    },
    {
      "id": 1,
      "content": "<|end_of_text|>",
      "single_word": false,
      "lstrip": false,
      "rstrip": false,
      "normalized": false,
      "special": true
    },
    {
      "id": 2,
      "content": "<|reserved_special_token_0|>",
      "single_word": false,
      "lstrip": false,
      "rstrip": false,
      "normalized": false,
      "special": true
    },
    {
      "id": 3,
      "content": "<|reserved_special_token_1|>",
      "single_word": false,
      "lstrip": false,
      "rstrip": false,
      "normalized": false,
      "special": true
    },
    {
      "id": 4,
      "content": "<|reserved_special_token_2|>",
      "single_word": false,
      "lstrip": false,
      "rstrip": false,
      "normalized": false,
      "special": true
    },
    {
      "id": 5,
      "content": "<|reserved_special_token_3|>",
      "single_word": false,
      "lstrip": false,
      "rstrip": false,
      "normalized": false,
      "special": true
    },
    {
      "id": 6,
      "content": "<|start_header_id|>",
      "single_word": false,
      "lstrip": false,
      "rstrip": false,
      "normalized": false,
      "special": true
    },
    {
      "id": 7,
      "content": "<|end_header_id|>",
      "single_word": false,
      "lstrip": false,
      "rstrip": false,
      "normalized": false,
      "special": true
    },
    {
      "id": 8,
      "content": "<|reserved_special_token_4|>",
      "single_word": false,
      "lstrip": false,
      "rstrip": false,
      "normalized": false,
      "special": true
    },
    {
      "id": 9,
      "content": "<|eot_id|>",
      "single_word": false,
      "lstrip": false,
      "rstrip": false,
      "normalized": false,
      "special": true
    },
    {
      "id": 10,
      "content": "<|reserved_special_token_5|>",
      "single_word": false,
      "lstrip": false,
      "rstrip": false,
      "normalized": false,
      "special": true
    },
    {
      "id": 11,
      "content": "<|reserved_special_token_6|>",
      "single_word": false,
      "lstrip": false,
      "rstrip": false,
      "normalized": false,
      "special": true
    },
    {
      "id": 12,
      "content": "<|reserved_special_token_7|>",
      "single_word": false,
      "lstrip": false,
      "rstrip": false,
      "normalized": false,
      "special": true
    },
    {
      "id": 13,
      "content": "<|reserved_special_token_8|>",
      "single_word": false,
      "lstrip": false,
      "rstrip": false,
      "normalized": false,
      "special": true
    },
    {
      "id": 14,
      "content": "<|reserved_special_token_9|>",
      "single_word": false,
      "lstrip": false,
      "rstrip": false,
      "normalized": false,
      "special": true
    },
    {
      "id": 15,
      "content": "<|reserved_special_token_10|>",
      "single_word": false,
      "lstrip": false,
      "rstrip": false,
      "normalized": false,
      "special": true
    },
    {
      "id": 16,
      "content": "<|reserved_special_token_11|>",
      "single_word": false,
      "lstrip": false,
      "rstrip": false,
      "normalized": false,
      "special": true
    },
    {
      "id": 17,
      "content": "<|reserved_special_token_12|>",
      "single_word": false,
      "lstrip": false,
      "rstrip": false,
      "normalized": false,
      "special": true
    },
    {
      "id": 18,
      "content": "<|reserved_special_token_13|>",
      "single_word": false,
      "lstrip": false,
      "rstrip": false,
      "normalized": false,
      "special": true
    },
    {
      "id": 19,
      "content": "<|reserved_special_token_14|>",
      "single_word": false,
      "lstrip": false,
      "rstrip": false,
      "normalized": false,
      "special": true
    },
    {
      "id": 20,
      "content": "<|reserved_special_token_15|>",
      "single_word": false,
      "lstrip": false,
      "rstrip": false,
      "normalized": false,
      "special": true
    },
    {
      "id": 21,
      "content": "<|reserved_special_token_16|>",
      "single_word": false,
      "lstrip": false,
      "rstrip": false,
      "normalized": false,
      "special": true
    },
    {
      "id": 22,
      "content": "<|reserved_special_token_17|>",
      "single_word": false,
      "lstrip": false,
      "rstrip": false,
      "normalized": false,
      "special": true
    },
    {
      "id": 23,
      "content": "<|reserved_special_token_18|>",
      "single_word": false,
      "lstrip": false,
      "rstrip": false,
      "normalized": false,
      "special": true
    },
    {
      "id": 24,
      "content": "<|reserved_special_token_19|>",
      "single_word": false,
      "lstrip": false,
      "rstrip": false,
      "normalized": false,
      "special": true
    },
    {
      "id": 25,
      "content": "<|reserved_special_token_20|>",
      "single_word": false,
      "lstrip": false,
      "rstrip": false,
      "normalized": false,
      "special": true
    },
    {
      "id": 26,
      "content": "<|reserved_special_token_21|>",
      "single_word": false,
      "lstrip": false,
      "rstrip": false,
      "normalized": false,
      "special": true
    },
    {
      "id": 27,
      "content": "<|reserved_special_token_22|>",
      "single_word": false,
      "lstrip": false,
      "rstrip": false,
      "normalized": false,
      "special": true
    },
    {
      "id": 28,
      "content": "<|reserved_special_token_23|>",
      "single_word": false,
      "lstrip": false,
      "rstrip": false,
      "normalized": false,
      "special": true
    },
    {
      "id": 29,
      "content": "<|reserved_special_token_24|>",
      "single_word": false,
      "lstrip": false,
      "rstrip": false,
      "normalized": false,
      "special": true
    },
    {
      "id": 30,
      "content": "<|reserved_special_token_25|>",
      "single_word": false,
      "lstrip": false,
      "rstrip": false,
      "normalized": false,
      "special": true
    },
    {
      "id": 31,
      "content": "<|reserved_special_token_26|>",
      "single_word": false,
      "lstrip": false,
      "rstrip": false,
      "normalized": false,
      "special": true
    },
    {
      "id": 32,
      "content": "<|reserved_special_token_27|>",
      "single_word": false,
      "lstrip": false,
      "rstrip": false,
      "normalized": false,
      "special": true
    },
    {
      "id": 33,
      "content": "<|reserved_special_token_28|>",
      "single_word": false,
      "lstrip": false,
      "rstrip": false,
      "normalized": false,
      "special": true
    },
    {
      "id": 34,
      "content": "<|reserved_special_token_29|>",
      "single_word": false,
      "lstrip": false,
      "rstrip": false,
      "normalized": false,
      "special": true
    },
    {
      "id": 35,
      "content": "<|reserved_special_token_30|>",
      "single_word": false,
      "lstrip": false,
      "rstrip": false,
      "normalized": false,
      "special": true
    },
    {
      "id": 36,
      "content": "<|reserved_special_token_31|>",
      "single_word": false,
      "lstrip": false,
      "rstrip": false,
      "normalized": false,
      "special": true
    },
    {
      "id": 37,
      "content": "<|reserved_special_token_32|>",
      "single_word": false,
      "lstrip": false,
      "rstrip": false,
      "normalized": false,
      "special": true
    },
    {
      "id": 38,
      "content": "<|reserved_special_token_33|>",
      "single_word": false,
      "lstrip": false,
      "rstrip": false,
      "normalized": false,
      "special": true
    },
    {
      "id": 39,
      "content": "<|reserved_special_token_34|>",
      "single_word": false,
      "lstrip": false,
      "rstrip": false,
      "normalized": false,
      "special": true
    },
    {
      "id": 40,
      "content": "<|reserved_special_token_35|>",
      "single_word": false,
      "lstrip": false,
      "rstrip": false,
      "normalized": false,
      "special": true
    },
    {
      "id": 41,
      "content": "<|reserved_special_token_36|>",
      "single_word": false,
      "lstrip": false,
      "rstrip": false,
      "normalized": false,
      "special": true
    },
    {
      "id": 42,
      "content": "<|reserved_special_token_37|>",
      "single_word": false,
      "lstrip": false,
      "rstrip": false,
      "normalized": false,
      "special": true
    },
    {
      "id": 43,
      "content": "<|reserved_special_token_38|>",
      "single_word": false,
      "lstrip": false,
      "rstrip": false,
      "normalized": false,
      "special": true
    },
    {
      "id": 44,
      "content": "<|reserved_special_token_39|>",
      "single_word": false,
      "lstrip": false,
      "rstrip": false,
      "normalized": false,
      "special": true
    },
    {
      "id": 45,
      "content": "<|reserved_special_token_40|>",
      "single_word": false,
      "lstrip": false,
      "rstrip": false,
      "normalized": false,
      "special": true
    },
    {
      "id": 46,
      "content": "<|reserved_special_token_41|>",
      "single_word": false,
      "lstrip": false,
      "rstrip": false,
      "normalized": false,
      "special": true
    },
    {
      "id": 47,
      "content": "<|reserved_special_token_42|>",
      "single_word": false,
      "lstrip": false,
      "rstrip": false,
      "normalized": false,
      "special": true
    },
    {
      "id": 48,
      "content": "<|reserved_special_token_43|>",
      "single_word": false,
      "lstrip": false,
      "rstrip": false,
      "normalized": false,
      "special": true
    },
    {
      "id": 49,
      "content": "<|reserved_special_token_44|>",
      "single_word": false,
      "lstrip": false,
      "rstrip": false,
      "normalized": false,
      "special": true
    },
    {
      "id": 50,
      "content": "<|reserved_special_token_45|>",
      "single_word": false,
      "lstrip": false,
      "rstrip": false,
      "normalized": false,
      "special": true
    },
    {
      "id": 51,
      "content": "<|reserved_special_token_46|>",
      "single_word": false,
      "lstrip": false,
      "rstrip": false,
      "normalized": false,
      "special": true
    },
    {
      "id": 52,
      "content": "<|reserved_special_token_47|>",
      "single_word": false,
      "lstrip": false,
      "rstrip": false,
      "normalized": false,
      "special": true
    },
    {
      "id": 53,
      "content": "<|reserved_special_token_48|>",
      "single_word": false,
      "lstrip": false,
      "rstrip": false,
      "normalized": false,
      "special": true
    },
    {
      "id": 54,
      "content": "<|reserved_special_token_49|>",
      "single_word": false,
      "lstrip": false,
      "rstrip": false,
      "normalized": false,
      "special": true
    },
    {
      "id": 55,
      "content": "<|reserved_special_token_50|>",
      "single_word": false,
      "lstrip": false,
      "rstrip": false,
      "normalized": false,
      "special": true
    },
    {
      "id": 56,
      "content": "<|reserved_special_token_51|>",
      "single_word": false,
      "lstrip": false,
      "rstrip": false,
      "normalized": false,
      "special": true
    },
    {
      "id": 57,
      "content": "<|reserved_special_token_52|>",
      "single_word": false,
      "lstrip": false,
      "rstrip": false,
      "normalized": false,
      "special": true
    },
    {
      "id": 58,
      "content": "<|reserved_special_token_53|>",
      "single_word": false,
      "lstrip": false,
      "rstrip": false,
      "normalized": false,
      "special": true
    },
    {
      "id": 59,
      "content": "<|reserved_special_token_54|>",
      "single_word": false,
      "lstrip": false,
      "rstrip": false,
      "normalized": false,
      "special": true
    },
    {
      "id": 60,
      "content": "<|reserved_special_token_55|>",
      "single_word": false,
      "lstrip": false,
      "rstrip": false,
      "normalized": false,
      "special": true
    },
    {
      "id": 61,
      "content": "<|reserved_special_token_56|>",
      "single_word": false,
      "lstrip": false,
      "rstrip": false,
      "normalized": false,
      "special": true
    },
    {
      "id": 62,
      "content": "<|reserved_special_token_57|>",
      "single_word": false,
      "lstrip": false,
      "rstrip": false,
      "normalized": false,
      "special": true
    },
    {
      "id": 63,
      "content": "<|reserved_special_token_58|>",
      "single_word": false,
      "lstrip": false,
      "rstrip": false,
      "normalized": false,
      "special": true
    },
    {
      "id": 64,
      "content": "<|reserved_special_token_59|>",
      "single_word": false,
      "lstrip": false,
      "rstrip": false,
      "normalized": false,
      "special": true
    },
    {
      "id": 65,
      "content": "<|reserved_special_token_60|>",
      "single_word": false,
      "lstrip": false,
      "rstrip": false,
      "normalized": false,
      "special": true
    },
    {
      "id": 66,
      "content": "<|reserved_special_token_61|>",
      "single_word": false,
      "lstrip": false,
      "rstrip": false,
      "normalized": false,
      "special": true
    },
    {
      "id": 67,
      "content": "<|reserved_special_token_62|>",
      "single_word": false,
      "lstrip": false,
      "rstrip": false,
      "normalized": false,
      "special": true
    },
    {
      "id": 68,
      "content": "<|reserved_special_token_63|>",
      "single_word": false,
      "lstrip": false,
      "rstrip": false,
      "normalized": false,
      "special": true
    },
    {
      "id": 69,
      "content": "<|reserved_special_token_64|>",
      "single_word": false,
      "lstrip": false,
      "rstrip": false,
      "normalized": false,
      "special": true
    },
    {
      "id": 70,
      "content": "<|reserved_special_token_65|>",
      "single_word": false,
      "lstrip": false,
      "rstrip": false,
      "normalized": false,
      "special": true
    },
    {
      "id": 71,
      "content": "<|reserved_special_token_66|>",
      "single_word": false,
      "lstrip": false,
      "rstrip": false,
      "normalized": false,
      "special": true
    },
    {
      "id": 72,
      "content": "<|reserved_special_token_67|>",
      "single_word": false,
      "lstrip": false,
      "rstrip": false,
      "normalized": false,
      "special": true
    },
    {
      "id": 73,
      "content": "<|reserved_special_token_68|>",
      "single_word": false,
      "lstrip": false,
      "rstrip": false,
      "normalized": false,
      "special": true
    },
    {
      "id": 74,
      "content": "<|reserved_special_token_69|>",
      "single_word": false,
      "lstrip": false,
      "rstrip": false,
      "normalized": false,
      "special": true
    },
    {
      "id": 75,
      "content": "<|reserved_special_token_70|>",
      "single_word": false,
      "lstrip": false,
      "rstrip": false,
      "normalized": false,
      "special": true
    },
    {
      "id": 76,
      "content": "<|reserved_special_token_71|>",
      "single_word": false,
      "lstrip": false,
      "rstrip": false,
      "normalized": false,
      "special": true
    },
    {
      "id": 77,
      "content": "<|reserved_special_token_72|>",
      "single_word": false,
      "lstrip": false,
      "rstrip": false,
      "normalized": false,
      "special": true
    },
    {
      "id": 78,
      "content": "<|reserved_special_token_73|>",
      "single_word": false,
      "lstrip": false,
      "rstrip": false,
      "normalized": false,
      "special": true
    },
    {
      "id": 79,
      "content": "<|reserved_special_token_74|>",
      "single_word": false,
      "lstrip": false,
      "rstrip": false,
      "normalized": false,
      "special": true
    },
    {
      "id": 80,
      "content": "<|reserved_special_token_75|>",
      "single_word": false,
      "lstrip": false,
      "rstrip": false,
      "normalized": false,
      "special": true
    },
    {
      "id": 81,
      "content": "<|reserved_special_token_76|>",
      "single_word": false,
      "lstrip": false,
      "rstrip": false,
      "normalized": false,
      "special": true
    },
    {
      "id": 82,
      "content": "<|reserved_special_token_77|>",
      "single_word": false,
      "lstrip": false,
      "rstrip": false,
      "normalized": false,
      "special": true
    },
    {
      "id": 83,
      "content": "<|reserved_special_token_78|>",
      "single_word": false,
      "lstrip": false,
      "rstrip": false,
      "normalized": false,
      "special": true
    },
    {
      "id": 84,
      "content": "<|reserved_special_token_79|>",
      "single_word": false,
      "lstrip": false,
      "rstrip": false,
      "normalized": false,
      "special": true
    },
    {
      "id": 85,
      "content": "<|reserved_special_token_80|>",
      "single_word": false,
      "lstrip": false,
      "rstrip": false,
      "normalized": false,
      "special": true
    },
    {
      "id": 86,
      "content": "<|reserved_special_token_81|>",
      "single_word": false,
      "lstrip": false,
      "rstrip": false,
      "normalized": false,
      "special": true
    },
    {
      "id": 87,
      "content": "<|reserved_special_token_82|>",
      "single_word": false,
      "lstrip": false,
      "rstrip": false,
      "normalized": false,
      "special": true
    },
    {
      "id": 88,
      "content": "<|reserved_special_token_83|>",
      "single_word": false,
      "lstrip": false,
      "rstrip": false,
      "normalized": false,
      "special": true
    },
    {
      "id": 89,
      "content": "<|reserved_special_token_84|>",
      "single_word": false,
      "lstrip": false,
      "rstrip": false,
      "normalized": false,
      "special": true
    },
    {
      "id": 90,
      "content": "<|reserved_special_token_85|>",
      "single_word": false,
      "lstrip": false,
      "rstrip": false,
      "normalized": false,
      "special": true
    },
    {
      "id": 91,
      "content": "<|reserved_special_token_86|>",
      "single_word": false,
      "lstrip": false,
      "rstrip": false,
      "normalized": false,
      "special": true
    },
    {
      "id": 92,
      "content": "<|reserved_special_token_87|>",
      "single_word": false,
      "lstrip": false,
      "rstrip": false,
      "normalized": false,
      "special": true
    },
    {
      "id": 93,
      "content": "<|reserved_special_token_88|>",
      "single_word": false,
      "lstrip": false,
      "rstrip": false,
      "normalized": false,
      "special": true
    },
    {
      "id": 94,
      "content": "<|reserved_special_token_89|>",
      "single_word": false,
      "lstrip": false,
      "rstrip": false,
      "normalized": false,
      "special": true
    },
    {
      "id": 95,
      "content": "<|reserved_special_token_90|>",
      "single_word": false,
      "lstrip": false,
      "rstrip": false,
      "normalized": false,
      "special": true
    },
    {
      "id": 96,
      "content": "<|reserved_special_token_91|>",
      "single_word": false,
      "lstrip": false,
      "rstrip": false,
      "normalized": false,
      "special": true
    },
    {
      "id": 97,
      "content": "<|reserved_special_token_92|>",
      "single_word": false,
      "lstrip": false,
      "rstrip": false,
      "normalized": false,
      "special": true
    },
    {
      "id": 98,
      "content": "<|reserved_special_token_93|>",
      "single_word": false,
      "lstrip": false,
      "rstrip": false,
      "normalized": false,
      "special": true
    },
    {
      "id": 99,
      "content": "<|reserved_special_token_94|>",
      "single_word": false,
      "lstrip": false,
      "rstrip": false,
      "normalized": false,
      "special": true
    },
    {
      "id": 100,
      "content": "<|reserved_special_token_95|>",
      "single_word": false,
      "lstrip": false,
      "rstrip": false,
      "normalized": false,
      "special": true
    },
    {
      "id": 101,
      "content": "<|reserved_special_token_96|>",
      "single_word": false,
      "lstrip": false,
      "rstrip": false,
      "normalized": false,
      "special": true
    },
    {
      "id": 102,
      "content": "<|reserved_special_token_97|>",
      "single_word": false,
      "lstrip": false,
      "rstrip": false,
      "normalized": false,
      "special": true
    },
    {
      "id": 103,
      "content": "<|reserved_special_token_98|>",
      "single_word": false,
      "lstrip": false,
      "rstrip": false,
      "normalized": false,
      "special": true
    },
    {
      "id": 104,
      "content": "<|reserved_special_token_99|>",
      "single_word": false,
      "lstrip": false,
      "rstrip": false,
      "normalized": false,
      "special": true
    },
    {
      "id": 105,
      "content": "<|reserved_special_token_100|>",
      "single_word": false,
      "lstrip": false,
      "rstrip": false,
      "normalized": false,
      "special": true
    },
    {
      "id": 106,
      "content": "<|reserved_special_token_101|>",
      "single_word": false,
      "lstrip": false,
      "rstrip": false,
      "normalized": false,
      "special": true
    },
    {
      "id": 107,
      "content": "<|reserved_special_token_102|>",
      "single_word": false,
      "lstrip": false,
      "rstrip": false,
      "normalized": false,
      "special": true
    },
    {
      "id": 108,
      "content": "<|reserved_special_token_103|>",
      "single_word": false,
      "lstrip": false,
      "rstrip": false,
      "normalized": false,
      "special": true
    },
    {
      "id": 109,
      "content": "<|reserved_special_token_104|>",
      "single_word": false,
      "lstrip": false,
      "rstrip": false,
      "normalized": false,
      "special": true
    },
    {
      "id": 110,
      "content": "<|reserved_special_token_105|>",
      "single_word": false,
      "lstrip": false,
      "rstrip": false,
      "normalized": false,
      "special": true
    },
    {
      "id": 111,
      "content": "<|reserved_special_token_106|>",
      "single_word": false,
      "lstrip": false,
      "rstrip": false,
      "normalized": false,
      "special": true
    },
    {
      "id": 112,
      "content": "<|reserved_special_token_107|>",
      "single_word": false,
      "lstrip": false,
      "rstrip": false,
      "normalized": false,
      "special": true
    },
    {
      "id": 113,
      "content": "<|reserved_special_token_108|>",
      "single_word": false,
      "lstrip": false,
      "rstrip": false,
      "normalized": false,
      "special": true
    },
    {
      "id": 114,
      "content": "<|reserved_special_token_109|>",
      "single_word": false,
      "lstrip": false,
      "rstrip": false,
      "normalized": false,
      "special": true
    },
    {
      "id": 115,
      "content": "<|reserved_special_token_110|>",
      "single_word": false,
      "lstrip": false,
      "rstrip": false,
      "normalized": false,
      "special": true
    },
    {
      "id": 116,
      "content": "<|reserved_special_token_111|>",
      "single_word": false,
      "lstrip": false,
      "rstrip": false,
      "normalized": false,
      "special": true
    },
    {
      "id": 117,
      "content": "<|reserved_special_token_112|>",
      "single_word": false,
      "lstrip": false,
      "rstrip": false,
      "normalized": false,
      "special": true
    },
    {
      "id": 118,
      "content": "<|reserved_special_token_113|>",
      "single_word": false,
      "lstrip": false,
      "rstrip": false,
      "normalized": false,
      "special": true
    },
    {
      "id": 119,
      "content": "<|reserved_special_token_114|>",
      "single_word": false,
      "lstrip": false,
      "rstrip": false,
      "normalized": false,
      "special": true
    },
    {
      "id": 120,
      "content": "<|reserved_special_token_115|>",
      "single_word": false,
      "lstrip": false,
      "rstrip": false,
      "normalized": false,
      "special": true
    },
    {
      "id": 121,
      "content": "<|reserved_special_token_116|>",
      "single_word": false,
      "lstrip": false,
      "rstrip": false,
      "normalized": false,
      "special": true
    },
    {
      "id": 122,
      "content": "<|reserved_special_token_117|>",
      "single_word": false,
      "lstrip": false,
      "rstrip": false,
      "normalized": false,
      "special": true
    },
    {
      "id": 123,
      "content": "<|reserved_special_token_118|>",
      "single_word": false,
      "lstrip": false,
      "rstrip": false,
      "normalized": false,
      "special": true
    },
    {
      "id": 124,
      "content": "<|reserved_special_token_119|>",
      "single_word": false,
      "lstrip": false,
      "rstrip": false,
      "normalized": false,
      "special": true
    },
    {
      "id": 125,
      "content": "<|reserved_special_token_120|>",
      "single_word": false,
      "lstrip": false,
      "rstrip": false,
      "normalized": false,
      "special": true
    },
    {
      "id": 126,
      "content": "<|reserved_special_token_121|>",
      "single_word": false,
      "lstrip": false,
      "rstrip": false,
      "normalized": false,
      "special": true
    },
    {
      "id": 127,
      "content": "<|reserved_special_token_122|>",
      "single_word": false,
      "lstrip": false,
      "rstrip": false,
      "normalized": false,
      "special": true
    },
    {
      "id": 128,
      "content": "<|reserved_special_token_123|>",
      "single_word": false,
      "lstrip": false,
      "rstrip": false,
      "normalized": false,
      "special": true
    },
    {
      "id": 129,
      "content": "<|reserved_special_token_124|>",
      "single_word": false,
      "lstrip": false,
      "rstrip": false,
      "normalized": false,
      "special": true
    },
    {
      "id": 130,
      "content": "<|reserved_special_token_125|>",
      "single_word": false,
      "lstrip": false,
      "rstrip": false,
      "normalized": false,
      "special": true
    },
    {
      "id": 131,
      "content": "<|reserved_special_token_126|>",
      "single_word": false,
      "lstrip": false,
      "rstrip": false,
      "normalized": false,
      "special": true
    },
    {
      "id": 132,
      "content": "<|reserved_special_token_127|>",
      "single_word": false,
      "lstrip": false,
      "rstrip": false,
      "normalized": false,
      "special": true
    },
    {
      "id": 133,
      "content": "<|reserved_special_token_128|>",
      "single_word": false,
      "lstrip": false,
      "rstrip": false,
      "normalized": false,
      "special": true
    },
    {
      "id": 134,
      "content": "<|reserved_special_token_129|>",
      "single_word": false,
      "lstrip": false,
      "rstrip": false,
      "normalized": false,
      "special": true
    },
    {
      "id": 135,
      "content": "<|reserved_special_token_130|>",
      "single_word": false,
      "lstrip": false,
      "rstrip": false,
      "normalized": false,
      "special": true
    },
    {
      "id": 136,
      "content": "<|reserved_special_token_131|>",
      "single_word": false,
      "lstrip": false,
      "rstrip": false,
      "normalized": false,
      "special": true
    },
    {
      "id": 137,
      "content": "<|reserved_special_token_132|>",
      "single_word": false,
      "lstrip": false,
      "rstrip": false,
      "normalized": false,
      "special": true
    },
    {
      "id": 138,
      "content": "<|reserved_special_token_133|>",
      "single_word": false,
      "lstrip": false,
      "rstrip": false,
      "normalized": false,
      "special": true
    },
    {
      "id": 139,
      "content": "<|reserved_special_token_134|>",
      "single_word": false,
      "lstrip": false,
      "rstrip": false,
      "normalized": false,
      "special": true
    },
    {
      "id": 140,
      "content": "<|reserved_special_token_135|>",
      "single_word": false,
      "lstrip": false,
      "rstrip": false,
      "normalized": false,
      "special": true
    },
    {
      "id": 141,
      "content": "<|reserved_special_token_136|>",
      "single_word": false,
      "lstrip": false,
      "rstrip": false,
      "normalized": false,
      "special": true
    },
    {
      "id": 142,
      "content": "<|reserved_special_token_137|>",
      "single_word": false,
      "lstrip": false,
      "rstrip": false,
      "normalized": false,
      "special": true
    },
    {
      "id": 143,
      "content": "<|reserved_special_token_138|>",
      "single_word": false,
      "lstrip": false,
      "rstrip": false,
      "normalized": false,
      "special": true
    },
    {
      "id": 144,
      "content": "<|reserved_special_token_139|>",
      "single_word": false,
      "lstrip": false,
      "rstrip": false,
      "normalized": false,
      "special": true
    },
    {
      "id": 145,
      "content": "<|reserved_special_token_140|>",
      "single_word": false,
      "lstrip": false,
      "rstrip": false,
      "normalized": false,
      "special": true
    },
    {
      "id": 146,
      "content": "<|reserved_special_token_141|>",
      "single_word": false,
      "lstrip": false,
      "rstrip": false,
      "normalized": false,
      "special": true
    },
    {
      "id": 147,
      "content": "<|reserved_special_token_142|>",
      "single_word": false,
      "lstrip": false,
      "rstrip": false,
      "normalized": false,
      "special": true
    },
    {
      "id": 148,
      "content": "<|reserved_special_token_143|>",
      "single_word": false,
      "lstrip": false,
      "rstrip": false,
      "normalized": false,
      "special": true
    },
    {
      "id": 149,
      "content": "<|reserved_special_token_144|>",
      "single_word": false,
      "lstrip": false,
      "rstrip": false,
      "normalized": false,
      "special": true
    },
    {
      "id": 150,
      "content": "<|reserved_special_token_145|>",
      "single_word": false,
      "lstrip": false,
      "rstrip": false,
      "normalized": false,
      "special": true
    },
    {
      "id": 151,
      "content": "<|reserved_special_token_146|>",
      "single_word": false,
      "lstrip": false,
      "rstrip": false,
      "normalized": false,
      "special": true
    },
    {
      "id": 152,
      "content": "<|reserved_special_token_147|>",
      "single_word": false,
      "lstrip": false,
      "rstrip": false,
      "normalized": false,
      "special": true
    },
    {
      "id": 153,
      "content": "<|reserved_special_token_148|>",
      "single_word": false,
      "lstrip": false,
      "rstrip": false,
      "normalized": false,
      "special": true
    },
    {
      "id": 154,
      "content": "<|reserved_special_token_149|>",
      "single_word": false,
      "lstrip": false,
      "rstrip": false,
      "normalized": false,
      "special": true
    },
    {
      "id": 155,
      "content": "<|reserved_special_token_150|>",
      "single_word": false,
      "lstrip": false,
      "rstrip": false,
      "normalized": false,
      "special": true
    },
    {
      "id": 156,
      "content": "<|reserved_special_token_151|>",
      "single_word": false,
      "lstrip": false,
      "rstrip": false,
      "normalized": false,
      "special": true
    },
    {
      "id": 157,
      "content": "<|reserved_special_token_152|>",
      "single_word": false,
      "lstrip": false,
      "rstrip": false,
      "normalized": false,
      "special": true
    },
    {
      "id": 158,
      "content": "<|reserved_special_token_153|>",
      "single_word": false,
      "lstrip": false,
      "rstrip": false,
      "normalized": false,
      "special": true
    },
    {
      "id": 159,
      "content": "<|reserved_special_token_154|>",
      "single_word": false,
      "lstrip": false,
      "rstrip": false,
      "normalized": false,
      "special": true
    },
    {
      "id": 160,
      "content": "<|reserved_special_token_155|>",
      "single_word": false,
      "lstrip": false,
      "rstrip": false,
      "normalized": false,
      "special": true
    },
    {
      "id": 161,
      "content": "<|reserved_special_token_156|>",
      "single_word": false,
      "lstrip": false,
      "rstrip": false,
      "normalized": false,
      "special": true
    },
    {
      "id": 162,
      "content": "<|reserved_special_token_157|>",
      "single_word": false,
      "lstrip": false,
      "rstrip": false,
      "normalized": false,
      "special": true
    },
    {
      "id": 163,
      "content": "<|reserved_special_token_158|>",
      "single_word": false,
      "lstrip": false,
      "rstrip": false,
      "normalized": false,
      "special": true
    },
    {
      "id": 164,
      "content": "<|reserved_special_token_159|>",
      "single_word": false,
      "lstrip": false,
      "rstrip": false,
      "normalized": false,
      "special": true
    },
    {
      "id": 165,
      "content": "<|reserved_special_token_160|>",
      "single_word": false,
      "lstrip": false,
      "rstrip": false,
      "normalized": false,
      "special": true
    },
    {
      "id": 166,
      "content": "<|reserved_special_token_161|>",
      "single_word": false,
      "lstrip": false,
      "rstrip": false,
      "normalized": false,
      "special": true
    },
    {
      "id": 167,
      "content": "<|reserved_special_token_162|>",
      "single_word": false,
      "lstrip": false,
      "rstrip": false,
      "normalized": false,
      "special": true
    },
    {
      "id": 168,
      "content": "<|reserved_special_token_163|>",
      "single_word": false,
      "lstrip": false,
      "rstrip": false,
      "normalized": false,
      "special": true
    },
    {
      "id": 169,
      "content": "<|reserved_special_token_164|>",
      "single_word": false,
      "lstrip": false,
      "rstrip": false,
      "normalized": false,
      "special": true
    },
    {
      "id": 170,
      "content": "<|reserved_special_token_165|>",
      "single_word": false,
      "lstrip": false,
      "rstrip": false,
      "normalized": false,
      "special": true
    },
    {
      "id": 171,
      "content": "<|reserved_special_token_166|>",
      "single_word": false,
      "lstrip": false,
      "rstrip": false,
      "normalized": false,
      "special": true
    },
    {
      "id": 172,
      "content": "<|reserved_special_token_167|>",
      "single_word": false,
      "lstrip": false,
      "rstrip": false,
      "normalized": false,
      "special": true
    },
    {
      "id": 173,
      "content": "<|reserved_special_token_168|>",
      "single_word": false,
      "lstrip": false,
      "rstrip": false,
      "normalized": false,
      "special": true
    },
    {
      "id": 174,
      "content": "<|reserved_special_token_169|>",
      "single_word": false,
      "lstrip": false,
      "rstrip": false,
      "normalized": false,
      "special": true
    },
    {
      "id": 175,
      "content": "<|reserved_special_token_170|>",
      "single_word": false,
      "lstrip": false,
      "rstrip": false,
      "normalized": false,
      "special": true
    },
    {
      "id": 176,
      "content": "<|reserved_special_token_171|>",
      "single_word": false,
      "lstrip": false,
      "rstrip": false,
      "normalized": false,
      "special": true
    },
    {
      "id": 177,
      "content": "<|reserved_special_token_172|>",
      "single_word": false,
      "lstrip": false,
      "rstrip": false,
      "normalized": false,
      "special": true
    },
    {
      "id": 178,
      "content": "<|reserved_special_token_173|>",
      "single_word": false,
      "lstrip": false,
      "rstrip": false,
      "normalized": false,
      "special": true
    },
    {
      "id": 179,
      "content": "<|reserved_special_token_174|>",
      "single_word": false,
      "lstrip": false,
      "rstrip": false,
      "normalized": false,
      "special": true
    },
    {
      "id": 180,
      "content": "<|reserved_special_token_175|>",
      "single_word": false,
      "lstrip": false,
      "rstrip": false,
      "normalized": false,
      "special": true
    },
    {
      "id": 181,
      "content": "<|reserved_special_token_176|>",
      "single_word": false,
      "lstrip": false,
      "rstrip": false,
      "normalized": false,
      "special": true
    },
    {
      "id": 182,
      "content": "<|reserved_special_token_177|>",
      "single_word": false,
      "lstrip": false,
      "rstrip": false,
      "normalized": false,
      "special": true
    },
    {
      "id": 183,
      "content": "<|reserved_special_token_178|>",
      "single_word": false,
      "lstrip": false,
      "rstrip": false,
      "normalized": false,
      "special": true
    },
    {
      "id": 184,
      "content": "<|reserved_special_token_179|>",
      "single_word": false,
      "lstrip": false,
      "rstrip": false,
      "normalized": false,
      "special": true
    },
    {
      "id": 185,
      "content": "<|reserved_special_token_180|>",
      "single_word": false,
      "lstrip": false,
      "rstrip": false,
      "normalized": false,
      "special": true
    },
    {
      "id": 186,
      "content": "<|reserved_special_token_181|>",
      "single_word": false,
      "lstrip": false,
      "rstrip": false,
      "normalized": false,
      "special": true
    },
    {
      "id": 187,
      "content": "<|reserved_special_token_182|>",
      "single_word": false,
      "lstrip": false,
      "rstrip": false,
      "normalized": false,
      "special": true
    },
    {
      "id": 188,
      "content": "<|reserved_special_token_183|>",
      "single_word": false,
      "lstrip": false,
      "rstrip": false,
      "normalized": false,
      "special": true
    },
    {
      "id": 189,
      "content": "<|reserved_special_token_184|>",
      "single_word": false,
      "lstrip": false,
      "rstrip": false,
      "normalized": false,
      "special": true
    },
    {
      "id": 190,
      "content": "<|reserved_special_token_185|>",
      "single_word": false,
      "lstrip": false,
      "rstrip": false,
      "normalized": false,
      "special": true
    },
    {
      "id": 191,
      "content": "<|reserved_special_token_186|>",
      "single_word": false,
      "lstrip": false,
      "rstrip": false,
      "normalized": false,
      "special": true
    },
    {
      "id": 192,
      "content": "<|reserved_special_token_187|>",
      "single_word": false,
      "lstrip": false,
      "rstrip": false,
      "normalized": false,
      "special": true
    },
    {
      "id": 193,
      "content": "<|reserved_special_token_188|>",
      "single_word": false,
      "lstrip": false,
      "rstrip": false,
      "normalized": false,
      "special": true
    },
    {
      "id": 194,
      "content": "<|reserved_special_token_189|>",
      "single_word": false,
      "lstrip": false,
      "rstrip": false,
      "normalized": false,
      "special": true
    },
    {
      "id": 195,
      "content": "<|reserved_special_token_190|>",
      "single_word": false,
      "lstrip": false,
      "rstrip": false,
      "normalized": false,
      "special": true
    },
    {
      "id": 196,
      "content": "<|reserved_special_token_191|>",
      "single_word": false,
      "lstrip": false,
      "rstrip": false,
      "normalized": false,
      "special": true
    },
    {
      "id": 197,
      "content": "<|reserved_special_token_192|>",
      "single_word": false,
      "lstrip": false,
      "rstrip": false,
      "normalized": false,
      "special": true
    },
    {
      "id": 198,
      "content": "<|reserved_special_token_193|>",
      "single_word": false,
      "lstrip": false,
      "rstrip": false,
      "normalized": false,
      "special": true
    },
    {
      "id": 199,
      "content": "<|reserved_special_token_194|>",
      "single_word": false,
      "lstrip": false,
      "rstrip": false,
      "normalized": false,
      "special": true
    },
    {
      "id": 200,
      "content": "<|reserved_special_token_195|>",
      "single_word": false,
      "lstrip": false,
      "rstrip": false,
      "normalized": false,
      "special": true
    },
    {
      "id": 201,
      "content": "<|reserved_special_token_196|>",
      "single_word": false,
      "lstrip": false,
      "rstrip": false,
      "normalized": false,
      "special": true
    },
    {
      "id": 202,
      "content": "<|reserved_special_token_197|>",
      "single_word": false,
      "lstrip": false,
      "rstrip": false,
      "normalized": false,
      "special": true
    },
    {
      "id": 203,
      "content": "<|reserved_special_token_198|>",
      "single_word": false,
      "lstrip": false,
      "rstrip": false,
      "normalized": false,
      "special": true
    },
    {
      "id": 204,
      "content": "<|reserved_special_token_199|>",
      "single_word": false,
      "lstrip": false,
      "rstrip": false,
      "normalized": false,
      "special": true
    },
    {
      "id": 205,
      "content": "<|reserved_special_token_200|>",
      "single_word": false,
      "lstrip": false,
      "rstrip": false,
      "normalized": false,
      "special": true
    },
    {
      "id": 206,
      "content": "<|reserved_special_token_201|>",
      "single_word": false,
      "lstrip": false,
      "rstrip": false,
      "normalized": false,
      "special": true
    },
    {
      "id": 207,
      "content": "<|reserved_special_token_202|>",
      "single_word": false,
      "lstrip": false,
      "rstrip": false,
      "normalized": false,
      "special": true
    },
    {
      "id": 208,
      "content": "<|reserved_special_token_203|>",
      "single_word": false,
      "lstrip": false,
      "rstrip": false,
      "normalized": false,
      "special": true
    },
    {
      "id": 209,
      "content": "<|reserved_special_token_204|>",
      "single_word": false,
      "lstrip": false,
      "rstrip": false,
      "normalized": false,
      "special": true
    },
    {
      "id": 210,
      "content": "<|reserved_special_token_205|>",
      "single_word": false,
      "lstrip": false,
      "rstrip": false,
      "normalized": false,
      "special": true
    },
    {
      "id": 211,
      "content": "<|reserved_special_token_206|>",
      "single_word": false,
      "lstrip": false,
      "rstrip": false,
      "normalized": false,
      "special": true
    },
    {
      "id": 212,
      "content": "<|reserved_special_token_207|>",
      "single_word": false,
      "lstrip": false,
      "rstrip": false,
      "normalized": false,
      "special": true
    },
    {
      "id": 213,
      "content": "<|reserved_special_token_208|>",
      "single_word": false,
      "lstrip": false,
      "rstrip": false,
      "normalized": false,
      "special": true
    },
    {
      "id": 214,
      "content": "<|reserved_special_token_209|>",
      "single_word": false,
      "lstrip": false,
      "rstrip": false,
      "normalized": false,
      "special": true
    },
    {
      "id": 215,
      "content": "<|reserved_special_token_210|>",
      "single_word": false,
      "lstrip": false,
      "rstrip": false,
      "normalized": false,
      "special": true
    },
    {
      "id": 216,
      "content": "<|reserved_special_token_211|>",
      "single_word": false,
      "lstrip": false,
      "rstrip": false,
      "normalized": false,
      "special": true
    },
    {
      "id": 217,
      "content": "<|reserved_special_token_212|>",
      "single_word": false,
      "lstrip": false,
      "rstrip": false,
      "normalized": false,
      "special": true
    },
    {
      "id": 218,
      "content": "<|reserved_special_token_213|>",
      "single_word": false,
      "lstrip": false,
      "rstrip": false,
      "normalized": false,
      "special": true
    },
    {
      "id": 219,
      "content": "<|reserved_special_token_214|>",
      "single_word": false,
      "lstrip": false,
      "rstrip": false,
      "normalized": false,
      "special": true
    },
    {
      "id": 220,
      "content": "<|reserved_special_token_215|>",
      "single_word": false,
      "lstrip": false,
      "rstrip": false,
      "normalized": false,
      "special": true
    },
    {
      "id": 221,
      "content": "<|reserved_special_token_216|>",
      "single_word": false,
      "lstrip": false,
      "rstrip": false,
      "normalized": false,
      "special": true
    },
    {
      "id": 222,
      "content": "<|reserved_special_token_217|>",
      "single_word": false,
      "lstrip": false,
      "rstrip": false,
      "normalized": false,
      "special": true
    },
    {
      "id": 223,
      "content": "<|reserved_special_token_218|>",
      "single_word": false,
      "lstrip": false,
      "rstrip": false,
      "normalized": false,
      "special": true
    },
    {
      "id": 224,
      "content": "<|reserved_special_token_219|>",
      "single_word": false,
      "lstrip": false,
      "rstrip": false,
      "normalized": false,
      "special": true
    },
    {
      "id": 225,
      "content": "<|reserved_special_token_220|>",
      "single_word": false,
      "lstrip": false,
      "rstrip": false,
      "normalized": false,
      "special": true
    },
    {
      "id": 226,
      "content": "<|reserved_special_token_221|>",
      "single_word": false,
      "lstrip": false,
      "rstrip": false,
      "normalized": false,
      "special": true
    },
    {
      "id": 227,
      "content": "<|reserved_special_token_222|>",
      "single_word": false,
      "lstrip": false,
      "rstrip": false,
      "normalized": false,
      "special": true
    },
    {
      "id": 228,
      "content": "<|reserved_special_token_223|>",
      "single_word": false,
      "lstrip": false,
      "rstrip": false,
      "normalized": false,
      "special": true
    },
    {
      "id": 229,
      "content": "<|reserved_special_token_224|>",
      "single_word": false,
      "lstrip": false,
      "rstrip": false,
      "normalized": false,
      "special": true
    },
    {
      "id": 230,
      "content": "<|reserved_special_token_225|>",
      "single_word": false,
      "lstrip": false,
      "rstrip": false,
      "normalized": false,
      "special": true
    },
    {
      "id": 231,
      "content": "<|reserved_special_token_226|>",
      "single_word": false,
      "lstrip": false,
      "rstrip": false,
      "normalized": false,
      "special": true
    },
    {
      "id": 232,
      "content": "<|reserved_special_token_227|>",
      "single_word": false,
      "lstrip": false,
      "rstrip": false,
      "normalized": false,
      "special": true
    },
    {
      "id": 233,
      "content": "<|reserved_special_token_228|>",
      "single_word": false,
      "lstrip": false,
      "rstrip": false,
      "normalized": false,
      "special": true
    },
    {
      "id": 234,
      "content": "<|reserved_special_token_229|>",
      "single_word": false,
      "lstrip": false,
      "rstrip": false,
      "normalized": false,
      "special": true
    },
    {
      "id": 235,
      "content": "<|reserved_special_token_230|>",
      "single_word": false,
      "lstrip": false,
      "rstrip": false,
      "normalized": false,
      "special": true
    },
    {
      "id": 236,
      "content": "<|reserved_special_token_231|>",
      "single_word": false,
      "lstrip": false,
      "rstrip": false,
      "normalized": false,
      "special": true
    },
    {
      "id": 237,
      "content": "<|reserved_special_token_232|>",
      "single_word": false,
      "lstrip": false,
      "rstrip": false,
      "normalized": false,
      "special": true
    },
    {
      "id": 238,
      "content": "<|reserved_special_token_233|>",
      "single_word": false,
      "lstrip": false,
      "rstrip": false,
      "normalized": false,
      "special": true
    },
    {
      "id": 239,
      "content": "<|reserved_special_token_234|>",
      "single_word": false,
      "lstrip": false,
      "rstrip": false,
      "normalized": false,
      "special": true
    },
    {
      "id": 240,
      "content": "<|reserved_special_token_235|>",
      "single_word": false,
      "lstrip": false,
      "rstrip": false,
      "normalized": false,
      "special": true
    },
    {
      "id": 241,
      "content": "<|reserved_special_token_236|>",
      "single_word": false,
      "lstrip": false,
      "rstrip": false,
      "normalized": false,
      "special": true
    },
    {
      "id": 242,
      "content": "<|reserved_special_token_237|>",
      "single_word": false,
      "lstrip": false,
      "rstrip": false,
      "normalized": false,
      "special": true
    },
    {
      "id": 243,
      "content": "<|reserved_special_token_238|>",
      "single_word": false,
      "lstrip": false,
      "rstrip": false,
      "normalized": false,
      "special": true
    },
    {
      "id": 244,
      "content": "<|reserved_special_token_239|>",
      "single_word": false,
      "lstrip": false,
      "rstrip": false,
      "normalized": false,
      "special": true
    },
    {
      "id": 245,
      "content": "<|reserved_special_token_240|>",
      "single_word": false,
      "lstrip": false,
      "rstrip": false,
      "normalized": false,
      "special": true
    },
    {
      "id": 246,
      "content": "<|reserved_special_token_241|>",
      "single_word": false,
      "lstrip": false,
      "rstrip": false,
      "normalized": false,
      "special": true
    },
    {
      "id": 247,
      "content": "<|reserved_special_token_242|>",
      "single_word": false,
      "lstrip": false,
      "rstrip": false,
      "normalized": false,
      "special": true
    },
    {
      "id": 248,
      "content": "<|reserved_special_token_243|>",
      "single_word": false,
      "lstrip": false,
      "rstrip": false,
      "normalized": false,
      "special": true
    },
    {
      "id": 249,
      "content": "<|reserved_special_token_244|>",
      "single_word": false,
      "lstrip": false,
      "rstrip": false,
      "normalized": false,
      "special": true
    },
    {
      "id": 250,
      "content": "<|reserved_special_token_245|>",
      "single_word": false,
      "lstrip": false,
      "rstrip": false,
      "normalized": false,
      "special": true
    },
    {
      "id": 251,
      "content": "<|reserved_special_token_246|>",
      "single_word": false,
      "lstrip": false,
      "rstrip": false,
      "normalized": false,
      "special": true
    },
    {
      "id": 252,
      "content": "<|reserved_special_token_247|>",
      "single_word": false,
      "lstrip": false,
      "rstrip": false,
      "normalized": false,
      "special": true
    },
    {
      "id": 253,
      "content": "<|reserved_special_token_248|>",
      "single_word": false,
      "lstrip": false,
      "rstrip": false,
      "normalized": false,
      "special": true
    },
    {
      "id": 254,
      "content": "<|reserved_special_token_249|>",
      "single_word": false,
      "lstrip": false,
      "rstrip": false,
      "normalized": false,
      "special": true
    },
    {
      "id": 255,
      "content": "<|reserved_special_token_250|>",
      "single_word": false,
      "lstrip": false,
      "rstrip": false,
      "normalized": false,
      "special": true
    }
  ],
  "normalizer": null,
  "pre_tokenizer": {
    "type": "Sequence",
    "pretokenizers": [
      {
        "type": "Split",
        "pattern": {
          "Regex": "(?i:'s|'t|'re|'ve|'m|'ll|'d)|[^\\r\\n\\p{L}\\p{N}]?\\p{L}+|\\p{N}{1,3}| ?[^\\s\\p{L}\\p{N}]+[\\r\\n]*|\\s*[\\r\\n]+|\\s+(?!\\S)|\\s+"
        },
        "behavior": "Isolated",
        "invert": false
      },
      {
        "type": "ByteLevel",
        "add_prefix_space": false,
        "trim_offsets": true,
        "use_regex": false
      }
    ]
  },
  "post_processor": {
    "type": "Sequence",
    "processors": [
      {
        "type": "ByteLevel",
        "add_prefix_space": true,
        "trim_offsets": false,
        "use_regex": true
      },
      {
        "type": "TemplateProcessing",
        "single": [
          {
            "SpecialToken": {
              "id": "<|begin_of_text|>",
              "type_id": 0
            }
          },
          {
            "Sequence": {
              "id": "A",
              "type_id": 0
            }
          }
        ],
        "pair": [
          {
            "SpecialToken": {
              "id": "<|begin_of_text|>",
              "type_id": 0
            }
          },
          {
            "Sequence": {
              "id": "A",
              "type_id": 0
            }
          },
          {
            "SpecialToken": {
              "id": "<|begin_of_text|>",
              "type_id": 1
            }
          },
          {
            "Sequence": {
              "id": "B",
              "type_id": 1
            }
          }
        ],
        "special_tokens": {
          "<|begin_of_text|>": {
            "id": "<|begin_of_text|>",
            "ids": [
              128000
            ],
            "tokens": [
              "<|begin_of_text|>"
            ]
          }
        }
      }
    ]
  },
  "decoder": {
    "type": "ByteLevel",
    "add_prefix_space": true,
    "trim_offsets": true,
    "use_regex": true
  },
  "model": {
    "type": "BPE",
    "dropout": null,
    "unk_token": null,
    "continuing_subword_prefix": null,
    "end_of_word_suffix": null,
    "fuse_unk": false,
    "byte_fallback": false,
    "ignore_merges": true,
    "vocab": {
      "<|begin_of_text|>": 0,
      "<|end_of_text|>": 1,
      "<|reserved_special_token_0|>": 2,
      "<|reserved_special_token_1|>": 3,
      "<|reserved_special_token_2|>": 4,
      "<|reserved_special_token_3|>": 5,
      "<|start_header_id|>": 6,
      "<|end_header_id|>": 7,
      "<|reserved_special_token_4|>": 8,
      "<|eot_id|>": 9,
      "<|reserved_special_token_5|>": 10,
      "<|reserved_special_token_6|>": 11,
      "<|reserved_special_token_7|>": 12,
      "<|reserved_special_token_8|>": 13,
      "<|reserved_special_token_9|>": 14,
      "<|reserved_special_token_10|>": 15,
      "<|reserved_special_token_11|>": 16,
      "<|reserved_special_token_12|>": 17,
      "<|reserved_special_token_13|>": 18,
      "<|reserved_special_token_14|>": 19,
      "<|reserved_special_token_15|>": 20,
      "<|reserved_special_token_16|>": 21,
      "<|reserved_special_token_17|>": 22,
      "<|reserved_special_token_18|>": 23,
      "<|reserved_special_token_19|>": 24,
      "<|reserved_special_token_20|>": 25,
      "<|reserved_special_token_21|>": 26,
      "<|reserved_special_token_22|>": 27,
      "<|reserved_special_token_23|>": 28,
      "<|reserved_special_token_24|>": 29,
      "<|reserved_special_token_25|>": 30,
      "<|reserved_special_token_26|>": 31,
      "<|reserved_special_token_27|>": 32,
      "<|reserved_special_token_28|>": 33,
      "<|reserved_special_token_29|>": 34,
      "<|reserved_special_token_30|>": 35,
      "<|reserved_special_token_31|>": 36,
      "<|reserved_special_token_32|>": 37,
      "<|reserved_special_token_33|>": 38,
      "<|reserved_special_token_34|>": 39,
      "<|reserved_special_token_35|>": 40,
      "<|reserved_special_token_36|>": 41,
      "<|reserved_special_token_37|>": 42,
      "<|reserved_special_token_38|>": 43,
      "<|reserved_special_token_39|>": 44,
      "<|reserved_special_token_40|>": 45,
      "<|reserved_special_token_41|>": 46,
      "<|reserved_special_token_42|>": 47,
      "<|reserved_special_token_43|>": 48,
      "<|reserved_special_token_44|>": 49,
      "<|reserved_special_token_45|>": 50,
      "<|reserved_special_token_46|>": 51,
      "<|reserved_special_token_47|>": 52,
      "<|reserved_special_token_48|>": 53,
      "<|reserved_special_token_49|>": 54,
      "<|reserved_special_token_50|>": 55,
      "<|reserved_special_token_51|>": 56,
      "<|reserved_special_token_52|>": 57,
      "<|reserved_special_token_53|>": 58,
      "<|reserved_special_token_54|>": 59,
      "<|reserved_special_token_55|>": 60,
      "<|reserved_special_token_56|>": 61,
      "<|reserved_special_token_57|>": 62,
      "<|reserved_special_token_58|>": 63,
      "<|reserved_special_token_59|>": 64,
      "<|reserved_special_token_60|>": 65,
      "<|reserved_special_token_61|>": 66,
      "<|reserved_special_token_62|>": 67,
      "<|reserved_special_token_63|>": 68,
      "<|reserved_special_token_64|>": 69,
      "<|reserved_special_token_65|>": 70,
      "<|reserved_special_token_66|>": 71,
      "<|reserved_special_token_67|>": 72,
      "<|reserved_special_token_68|>": 73,
      "<|reserved_special_token_69|>": 74,
      "<|reserved_special_token_70|>": 75,
      "<|reserved_special_token_71|>": 76,
      "<|reserved_special_token_72|>": 77,
      "<|reserved_special_token_73|>": 78,
      "<|reserved_special_token_74|>": 79,
      "<|reserved_special_token_75|>": 80,
      "<|reserved_special_token_76|>": 81,
      "<|reserved_special_token_77|>": 82,
      "<|reserved_special_token_78|>": 83,
      "<|reserved_special_token_79|>": 84,
      "<|reserved_special_token_80|>": 85,
      "<|reserved_special_token_81|>": 86,
      "<|reserved_special_token_82|>": 87,
      "<|reserved_special_token_83|>": 88,
      "<|reserved_special_token_84|>": 89,
      "<|reserved_special_token_85|>": 90,
      "<|reserved_special_token_86|>": 91,
      "<|reserved_special_token_87|>": 92,
      "<|reserved_special_token_88|>": 93,
      "<|reserved_special_token_89|>": 94,
      "<|reserved_special_token_90|>": 95,
      "<|reserved_special_token_91|>": 96,
      "<|reserved_special_token_92|>": 97,
      "<|reserved_special_token_93|>": 98,
      "<|reserved_special_token_94|>": 99,
      "<|reserved_special_token_95|>": 100,
      "<|reserved_special_token_96|>": 101,
      "<|reserved_special_token_97|>": 102,
      "<|reserved_special_token_98|>": 103,
      "<|reserved_special_token_99|>": 104,
      "<|reserved_special_token_100|>": 105,
      "<|reserved_special_token_101|>": 106,
      "<|reserved_special_token_102|>": 107,
      "<|reserved_special_token_103|>": 108,
      "<|reserved_special_token_104|>": 109,
      "<|reserved_special_token_105|>": 110,
      "<|reserved_special_token_106|>": 111,
      "<|reserved_special_token_107|>": 112,
      "<|reserved_special_token_108|>": 113,
      "<|reserved_special_token_109|>": 114,
      "<|reserved_special_token_110|>": 115,
      "<|reserved_special_token_111|>": 116,
      "<|reserved_special_token_112|>": 117,
      "<|reserved_special_token_113|>": 118,
      "<|reserved_special_token_114|>": 119,
      "<|reserved_special_token_115|>": 120,
      "<|reserved_special_token_116|>": 121,
      "<|reserved_special_token_117|>": 122,
      "<|reserved_special_token_118|>": 123,
      "<|reserved_special_token_119|>": 124,
      "<|reserved_special_token_120|>": 125,
      "<|reserved_special_token_121|>": 126,
      "<|reserved_special_token_122|>": 127,
      "<|reserved_special_token_123|>": 128,
      "<|reserved_special_token_124|>": 129,
      "<|reserved_special_token_125|>": 130,
      "<|reserved_special_token_126|>": 131,
      "<|reserved_special_token_127|>": 132,
      "<|reserved_special_token_128|>": 133,
      "<|reserved_special_token_129|>": 134,
      "<|reserved_special_token_130|>": 135,
      "<|reserved_special_token_131|>": 136,
      "<|reserved_special_token_132|>": 137,
      "<|reserved_special_token_133|>": 138,
      "<|reserved_special_token_134|>": 139,
      "<|reserved_special_token_135|>": 140,
      "<|reserved_special_token_136|>": 141,
      "<|reserved_special_token_137|>": 142,
      "<|reserved_special_token_138|>": 143,
      "<|reserved_special_token_139|>": 144,
      "<|reserved_special_token_140|>": 145,
      "<|reserved_special_token_141|>": 146,
      "<|reserved_special_token_142|>": 147,
      "<|reserved_special_token_143|>": 148,
      "<|reserved_special_token_144|>": 149,
      "<|reserved_special_token_145|>": 150,
      "<|reserved_special_token_146|>": 151,
      "<|reserved_special_token_147|>": 152,
      "<|reserved_special_token_148|>": 153,
      "<|reserved_special_token_149|>": 154,
      "<|reserved_special_token_150|>": 155,
      "<|reserved_special_token_151|>": 156,
      "<|reserved_special_token_152|>": 157,
      "<|reserved_special_token_153|>": 158,
      "<|reserved_special_token_154|>": 159,
      "<|reserved_special_token_155|>": 160,
      "<|reserved_special_token_156|>": 161,
      "<|reserved_special_token_157|>": 162,
      "<|reserved_special_token_158|>": 163,
      "<|reserved_special_token_159|>": 164,
      "<|reserved_special_token_160|>": 165,
      "<|reserved_special_token_161|>": 166,
      "<|reserved_special_token_162|>": 167,
      "<|reserved_special_token_163|>": 168,
      "<|reserved_special_token_164|>": 169,
      "<|reserved_special_token_165|>": 170,
      "<|reserved_special_token_166|>": 171,
      "<|reserved_special_token_167|>": 172,
      "<|reserved_special_token_168|>": 173,
      "<|reserved_special_token_169|>": 174,
      "<|reserved_special_token_170|>": 175,
      "<|reserved_special_token_171|>": 176,
      "<|reserved_special_token_172|>": 177,
      "<|reserved_special_token_173|>": 178,
      "<|reserved_special_token_174|>": 179,
      "<|reserved_special_token_175|>": 180,
      "<|reserved_special_token_176|>": 181,
      "<|reserved_special_token_177|>": 182,
      "<|reserved_special_token_178|>": 183,
      "<|reserved_special_token_179|>": 184,
      "<|reserved_special_token_180|>": 185,
      "<|reserved_special_token_181|>": 186,
      "<|reserved_special_token_182|>": 187,
      "<|reserved_special_token_183|>": 188,
      "<|reserved_special_token_184|>": 189,
      "<|reserved_special_token_185|>": 190,
      "<|reserved_special_token_186|>": 191,
      "<|reserved_special_token_187|>": 192,
      "<|reserved_special_token_188|>": 193,
      "<|reserved_special_token_189|>": 194,
      "<|reserved_special_token_190|>": 195,
      "<|reserved_special_token_191|>": 196,
      "<|reserved_special_token_192|>": 197,
      "<|reserved_special_token_193|>": 198,
      "<|reserved_special_token_194|>": 199,
      "<|reserved_special_token_195|>": 200,
      "<|reserved_special_token_196|>": 201,
      "<|reserved_special_token_197|>": 202,
      "<|reserved_special_token_198|>": 203,
      "<|reserved_special_token_199|>": 204,
      "<|reserved_special_token_200|>": 205,
      "<|reserved_special_token_201|>": 206,
      "<|reserved_special_token_202|>": 207,
      "<|reserved_special_token_203|>": 208,
      "<|reserved_special_token_204|>": 209,
      "<|reserved_special_token_205|>": 210,
      "<|reserved_special_token_206|>": 211,
      "<|reserved_special_token_207|>": 212,
      "<|reserved_special_token_208|>": 213,
      "<|reserved_special_token_209|>": 214,
      "<|reserved_special_token_210|>": 215,
      "<|reserved_special_token_211|>": 216,
      "<|reserved_special_token_212|>": 217,
      "<|reserved_special_token_213|>": 218,
      "<|reserved_special_token_214|>": 219,
      "<|reserved_special_token_215|>": 220,
      "<|reserved_special_token_216|>": 221,
      "<|reserved_special_token_217|>": 222,
      "<|reserved_special_token_218|>": 223,
      "<|reserved_special_token_219|>": 224,
      "<|reserved_special_token_220|>": 225,
      "<|reserved_special_token_221|>": 226,
      "<|reserved_special_token_222|>": 227,
      "<|reserved_special_token_223|>": 228,
      "<|reserved_special_token_224|>": 229,
      "<|reserved_special_token_225|>": 230,
      "<|reserved_special_token_226|>": 231,
      "<|reserved_special_token_227|>": 232,
      "<|reserved_special_token_228|>": 233,
      "<|reserved_special_token_229|>": 234,
      "<|reserved_special_token_230|>": 235,
      "<|reserved_special_token_231|>": 236,
      "<|reserved_special_token_232|>": 237,
      "<|reserved_special_token_233|>": 238,
      "<|reserved_special_token_234|>": 239,
      "<|reserved_special_token_235|>": 240,
      "<|reserved_special_token_236|>": 241,
      "<|reserved_special_token_237|>": 242,
      "<|reserved_special_token_238|>": 243,
      "<|reserved_special_token_239|>": 244,
      "<|reserved_special_token_240|>": 245,
      "<|reserved_special_token_241|>": 246,
      "<|reserved_special_token_242|>": 247,
      "<|reserved_special_token_243|>": 248,
      "<|reserved_special_token_244|>": 249,
      "<|reserved_special_token_245|>": 250,
      "<|reserved_special_token_246|>": 251,
      "<|reserved_special_token_247|>": 252,
      "<|reserved_special_token_248|>": 253,
      "<|reserved_special_token_249|>": 254,
      "<|reserved_special_token_250|>": 255,
      "!": 256,
      "\"": 257,
      "#": 258,
      "$": 259,
      "%": 260,
      "&": 261,
      "'": 262,
      "(": 263,
      ")": 264,
      "*": 265,
      "+": 266,
      ",": 267,
      "-": 268,
      ".": 269,
      "/": 270,
      "0": 271,
      "1": 272,
      "2": 273,
      "3": 274,
      "4": 275,
      "5": 276,
      "6": 277,
      "7": 278,
      "8": 279,
      "9": 280,
      ":": 281,
      ";": 282,
      "<": 283,
      "=": 284,
      ">": 285,
      "?": 286,
      "@": 287,
      "A": 288,
      "B": 289,
      "C": 290,
      "D": 291,
      "E": 292,
      "F": 293,
      "G": 294,
      "H": 295,
      "I": 296,
      "J": 297,
      "K": 298,
      "L": 299,
      "M": 300,
      "N": 301,
      "O": 302,
      "P": 303,
      "Q": 304,
      "R": 305,
      "S": 306,
      "T": 307,
      "U": 308,
      "V": 309,
      "W": 310,
      "X": 311,
      "Y": 312,
      "Z": 313,
      "[": 314,
      "\\": 315,
      "]": 316,
      "^": 317,
      "_": 318,
      "`": 319,
      "a": 320,
      "b": 321,
      "c": 322,
      "d": 323,
      "e": 324,
      "f": 325,
      "g": 326,
      "h": 327,
      "i": 328,
      "j": 329,
      "k": 330,
      "l": 331,
      "m": 332,
      "n": 333,
      "o": 334,
      "p": 335,
      "q": 336,
      "r": 337,
      "s": 338,
      "t": 339,
      "u": 340,
      "v": 341,
      "w": 342,
      "x": 343,
      "y": 344,
      "z": 345,
      "{": 346,
      "|": 347,
      "}": 348,
      "~": 349,
      "¡": 350,
      "¢": 351,
      "£": 352,
      "¤": 353,
      "¥": 354,
      "¦": 355,
      "§": 356,
      "¨": 357,
      "©": 358,
      "ª": 359,
      "«": 360,
      "¬": 361,
      "®": 362,
      "¯": 363,
      "°": 364,
      "±": 365,
      "²": 366,
      "³": 367,
      "´": 368,
      "µ": 369,
      "¶": 370,
      "·": 371,
      "¸": 372,
      "¹": 373,
      "º": 374,
      "»": 375,
      "¼": 376,
      "½": 377,
      "¾": 378,
      "¿": 379,
      "À": 380,
      "Á": 381,
      "Â": 382,
      "Ã": 383,
      "Ä": 384,
      "Å": 385,
      "Æ": 386,
      "Ç": 387,
      "È": 388,
      "É": 389,
      "Ê": 390,
      "Ë": 391,
      "Ì": 392,
      "Í": 393,
      "Î": 394,
      "Ï": 395,
      "Ð": 396,
      "Ñ": 397,
      "Ò": 398,
      "Ó": 399,
      "Ô": 400,
      "Õ": 401,
      "Ö": 402,
      "×": 403,
      "Ø": 404,
      "Ù": 405,
      "Ú": 406,
      "Û": 407,
      "Ü": 408,
      "Ý": 409,
      "Þ": 410,
      "ß": 411,
      "à": 412,
      "á": 413,
      "â": 414,
      "ã": 415,
      "ä": 416,
      "å": 417,
      "æ": 418,
      "ç": 419,
      "è": 420,
      "é": 421,
      "ê": 422,
      "ë": 423,
      "ì": 424,
      "í": 425,
      "î": 426,
      "ï": 427,
      "ð": 428,
      "ñ": 429,
      "ò": 430,
      "ó": 431,
      "ô": 432,
      "õ": 433,
      "ö": 434,
      "÷": 435,
      "ø": 436,
      "ù": 437,
      "ú": 438,
      "û": 439,
      "ü": 440,
      "ý": 441,
      "þ": 442,
      "ÿ": 443,
      "Ā": 444,
      "ā": 445,
      "Ă": 446,
      "ă": 447,
      "Ą": 448,
      "ą": 449,
      "Ć": 450,
      "ć": 451,
      "Ĉ": 452,
      "ĉ": 453,
      "Ċ": 454,
      "ċ": 455,
      "Č": 456,
      "č": 457,
      "Ď": 458,
      "ď": 459,
      "Đ": 460,
      "đ": 461,
      "Ē": 462,
      "ē": 463,
      "Ĕ": 464,
      "ĕ": 465,
      "Ė": 466,
      "ė": 467,
      "Ę": 468,
      "ę": 469,
      "Ě": 470,
      "ě": 471,
      "Ĝ": 472,
      "ĝ": 473,
      "Ğ": 474,
      "ğ": 475,
      "Ġ": 476,
      "ġ": 477,
      "Ģ": 478,
      "ģ": 479,
      "Ĥ": 480,
      "ĥ": 481,
      "Ħ": 482,
      "ħ": 483,
      "Ĩ": 484,
      "ĩ": 485,
      "Ī": 486,
      "ī": 487,
      "Ĭ": 488,
      "ĭ": 489,
      "Į": 490,
      "į": 491,
      "İ": 492,
      "ı": 493,
      "Ĳ": 494,
      "ĳ": 495,
      "Ĵ": 496,
      "ĵ": 497,
      "Ķ": 498,
      "ķ": 499,
      "ĸ": 500,
      "Ĺ": 501,
      "ĺ": 502,
      "Ļ": 503,
      "ļ": 504,
      "Ľ": 505,
      "ľ": 506,
      "Ŀ": 507,
      "ŀ": 508,
      "Ł": 509,
      "ł": 510,
      "Ń": 511,
      "in": 512,
      "Ġa": 513,
      "Ġt": 514,
      "re": 515,
      "at": 516,
      "on": 517,
      "he": 518,
      "al": 519,
      "Ġo": 520,
      "Ġc": 521,
      "en": 522,
      "ed": 523,
      "er": 524,
      "Ġs": 525,
      "is": 526,
      "Ġin": 527,
      "Ġan": 528,
      "ic": 529,
      "Ġthe": 530,
      "Ġp": 531,
      "Ġw": 532,
      "Ġof": 533,
      "ion": 534,
      "it": 535,
      "es": 536,
      "as": 537,
      "ro": 538,
      "or": 539,
      "Ġand": 540,
      "Ġm": 541,
      "an": 542,
      "Ġd": 543,
      "ar": 544,
      "Ġf": 545,
      "Ġb": 546,
      "ct": 547,
      "ent": 548,
      "el": 549,
      "ing": 550,
      "Ġre": 551,
      "ol": 552,
      "Ġe": 553,
      "Ġl": 554,
      "om": 555,
      "Ġ(": 556,
      "iv": 557,
      "Ġh": 558,
      "os": 559,
      "ation": 560,
      "ul": 561,
      "us": 562,
      "Ġto": 563,
      "Ġn": 564,
      "im": 565,
      "et": 566,
      "ere": 567,
      "ĠT": 568,
      "ur": 569,
      "id": 570,
      "ig": 571,
      "Ġth": 572,
      "un": 573,
      "ith": 574,
      "res": 575,
      "ist": 576,
      "Ġwith": 577,
      "ly": 578,
      "og": 579,
      "Ġg": 580,
      "ra": 581,
      "ect": 582,
      "ical": 583,
      "if": 584,
      "le": 585,
      "um": 586,
      "op": 587,
      "Ġst": 588,
      "oc": 589,
      "Ġex": 590,
      "ot": 591,
      "Ġpro": 592,
      "ated": 593,
      "ut": 594,
      "Ġwas": 595,
      "ell": 596,
      "olog": 597,
      "am": 598,
      "ec": 599,
      "ag": 600,
      "ow": 601,
      "Ġfor": 602,
      "Ġas": 603,
      "il": 604,
      "ce": 605,
      "ive": 606,
      "Ġcon": 607,
      "Ġwere": 608,
      "ant": 609,
      "st": 610,
      "Ġis": 611,
      "Ġv": 612,
      "ĠThe": 613,
      "ter": 614,
      "od": 615,
      "ĠI": 616,
      "ress": 617,
      "ĠC": 618,
      "ĠA": 619,
      "ev": 620,
      "Ġim": 621,
      "em": 622,
      "up": 623,
      "Ġcell": 624,
      "ib": 625,
      "Ġthat": 626,
      "est": 627,
      "Ġpat": 628,
      "uc": 629,
      "Ġexp": 630,
      "ud": 631,
      "ial": 632,
      "ph": 633,
      "Ġby": 634,
      "ase": 635,
      "ate": 636,
      "Ġon": 637,
      "ity": 638,
      "ir": 639,
      "Ġbe": 640,
      "Ġres": 641,
      "Ġcom": 642,
      "ay": 643,
      "ĠH": 644,
      "ological": 645,
      "ment": 646,
      "ign": 647,
      "ast": 648,
      "ac": 649,
      "Ġal": 650,
      "ĠP": 651,
      "act": 652,
      "ression": 653,
      "Ġr": 654,
      "rom": 655,
      "ab": 656,
      "ult": 657,
      "Ġch": 658,
      "ient": 659,
      "ific": 660,
      "ain": 661,
      "ĠM": 662,
      "pl": 663,
      "ĠS": 664,
      "Ġor": 665,
      "ine": 666,
      "her": 667,
      "Ġhist": 668,
      "se": 669,
      "ort": 670,
      "ous": 671,
      "Ġne": 672,
      "anc": 673,
      "ve": 674,
      "yp": 675,
      "ies": 676,
      "fect": 677,
      "qu": 678,
      "ular": 679,
      "Ġad": 680,
      "Ġstud": 681,
      "ad": 682,
      "red": 683,
      "Ġinc": 684,
      "Ġtum": 685,
      "und": 686,
      "th": 687,
      "Ġpatient": 688,
      "iz": 689,
      "hem": 690,
      "Ġsh": 691,
      "pt": 692,
      "ran": 693,
      "igh": 694,
      "su": 695,
      "ess": 696,
      "Ġexpression": 697,
      "Ġdi": 698,
      "Ġare": 699,
      "evel": 700,
      "Ġgro": 701,
      "Ġdis": 702,
      "mun": 703,
      "Ġus": 704,
      "Ġsign": 705,
      "ost": 706,
      "Ġcells": 707,
      "orm": 708,
      "ers": 709,
      "Ġsu": 710,
      "ys": 711,
      "ĠIn": 712,
      "Ġsp": 713,
      "Ġat": 714,
      "Ġtumor": 715,
      "te": 716,
      "ore": 717,
      "Ġcomp": 718,
      "osis": 719,
      "oma": 720,
      "ary": 721,
      ").": 722,
      "Ġwh": 723,
      "Ġen": 724,
      "ure": 725,
      "Ġwe": 726,
      "reat": 727,
      "),": 728,
      "Ġmic": 729,
      "Ġfrom": 730,
      "Ġass": 731,
      "Ġcl": 732,
      "ym": 733,
      "ĠW": 734,
      "ĠB": 735,
      "nt": 736,
      "ath": 737,
      "iff": 738,
      "issu": 739,
      "Ġcont": 740,
      "Ġper": 741,
      "ia": 742,
      "reas": 743,
      "ions": 744,
      "Ġint": 745,
      "ĠE": 746,
      "Ġind": 747,
      "Ġpatients": 748,
      "Ġtissu": 749,
      "Ġimmun": 750,
      "Ġde": 751,
      "Ġstudy": 752,
      "Ġhe": 753,
      "ffect": 754,
      "Ġinv": 755,
      "Ġdiff": 756,
      "Ġshow": 757,
      "arc": 758,
      "port": 759,
      "ĠN": 760,
      "ip": 761,
      "Ġthis": 762,
      "yt": 763,
      "Ġac": 764,
      "ĠD": 765,
      "Ġsignific": 766,
      "ĠF": 767,
      "Ġpres": 768,
      "agn": 769,
      "uct": 770,
      "one": 771,
      "ely": 772,
      "ative": 773,
      "Ġgroup": 774,
      "ations": 775,
      "Ġmet": 776,
      "ens": 777,
      "Ġev": 778,
      "Ġsignificant": 779,
      "ind": 780,
      "Ġinf": 781,
      "Ġgen": 782,
      "Ġanal": 783,
      "ology": 784,
      "age": 785,
      "ĠR": 786,
      "ros": 787,
      "rans": 788,
      "ory": 789,
      "ence": 790,
      "rap": 791,
      "Ġcanc": 792,
      "Ġsur": 793,
      "uced": 794,
      "Ġap": 795,
      "ĠO": 796,
      "erm": 797,
      "ther": 798,
      "Ġdiagn": 799,
      "oll": 800,
      "Ġdiffere": 801,
      "istr": 802,
      "Ġrat": 803,
      "reatment": 804,
      "Ġeffect": 805,
      "Ġpre": 806,
      "00": 807,
      "Ġdet": 808,
      "oh": 809,
      "ases": 810,
      "Ġk": 811,
      "ĠG": 812,
      "Ġbi": 813,
      "erv": 814,
      "iated": 815,
      "opath": 816,
      "all": 817,
      "Ġob": 818,
      "tein": 819,
      "ich": 820,
      "Ġnot": 821,
      "Ġha": 822,
      "ug": 823,
      "ochem": 824,
      "ap": 825,
      "fter": 826,
      "ox": 827,
      "reased": 828,
      "Ġcancer": 829,
      "rad": 830,
      "ang": 831,
      "ver": 832,
      "and": 833,
      "Ġact": 834,
      "Ġmod": 835,
      "Ġtissue": 836,
      "art": 837,
      "Ġlevel": 838,
      "Ġant": 839,
      "rol": 840,
      "Ġtrans": 841,
      "Ġresult": 842,
      "ogen": 843,
      "Ġtreatment": 844,
      "Ġclin": 845,
      "ĠL": 846,
      "Ġdise": 847,
      "Ġpresent": 848,
      "Ġag": 849,
      "alu": 850,
      "Ġsub": 851,
      "ear": 852,
      "ight": 853,
      "ied": 854,
      "pro": 855,
      "ition": 856,
      "Ġit": 857,
      "Ġreg": 858,
      "ass": 859,
      "ch": 860,
      "Ġshowed": 861,
      "Ġprotein": 862,
      "Ġwhich": 863,
      "Ġhistological": 864,
      "Ġco": 865,
      "cl": 866,
      "ĠWe": 867,
      "Ġresp": 868,
      "Ġpath": 869,
      "ide": 870,
      "âĢ": 871,
      "Ġsy": 872,
      "ohist": 873,
      "inal": 874,
      "Ġanalys": 875,
      "arcin": 876,
      "Ġrec": 877,
      "Ġab": 878,
      "amm": 879,
      "ever": 880,
      "Ġafter": 881,
      "ri": 882,
      "ance": 883,
      "ose": 884,
      "Ġhave": 885,
      "NA": 886,
      "ohistochem": 887,
      "Ġpl": 888,
      "ound": 889,
      "ari": 890,
      "mon": 891,
      "end": 892,
      "Ġbet": 893,
      "ard": 894,
      "Ġprog": 895,
      "Ġdifferent": 896,
      "amin": 897,
      "we": 898,
      "Ġclinical": 899,
      "ĠTh": 900,
      "ill": 901,
      "ected": 902,
      "Ġmice": 903,
      "Ġun": 904,
      "ron": 905,
      "Ġdisease": 906,
      "oth": 907,
      "str": 908,
      "Ġhigh": 909,
      "Ġassoc": 910,
      "form": 911,
      "arg": 912,
      "Ġse": 913,
      "ized": 914,
      "yl": 915,
      "evelop": 916,
      "Ġbeen": 917,
      "Ġcor": 918,
      "able": 919,
      "Ġactiv": 920,
      "ction": 921,
      "Ġhas": 922,
      "ared": 923,
      "osit": 924,
      "Ġdevelop": 925,
      "Ġspec": 926,
      "Ġmay": 927,
      "ors": 928,
      "ark": 929,
      "ech": 930,
      "Ġgl": 931,
      "Ġsc": 932,
      "Ġsignificantly": 933,
      "Ġro": 934,
      "Ġbl": 935,
      "iver": 936,
      "lamm": 937,
      "ection": 938,
      "hel": 939,
      "so": 940,
      "vi": 941,
      "Ġmal": 942,
      "Ġevalu": 943,
      "Ġund": 944,
      "Ġanalysis": 945,
      "Ġles": 946,
      "Ġimmunohistochem": 947,
      "atory": 948,
      "Ġcases": 949,
      "Ġresults": 950,
      "Ġlevels": 951,
      "ne": 952,
      "year": 953,
      "our": 954,
      "Ġno": 955,
      "Ġbut": 956,
      "Ġall": 957,
      "oid": 958,
      "Ġreport": 959,
      "istry": 960,
      "ays": 961,
      "Ġcan": 962,
      "ween": 963,
      "acter": 964,
      "Ġusing": 965,
      "ugh": 966,
      "atic": 967,
      "10": 968,
      "Ġca": 969,
      "ively": 970,
      "Ġle": 971,
      "Ġalso": 972,
      "Ġdec": 973,
      "Ġbetween": 974,
      "ff": 975,
      "Ġend": 976,
      "Âł": 977,
      "Ġcarcin": 978,
      "serv": 979,
      "ymph": 980,
      "Ġmodel": 981,
      "Ġincreased": 982,
      "ype": 983,
      "ung": 984,
      "Ġwhe": 985,
      "Ġhyp": 986,
      "Ġthese": 987,
      "Ġinter": 988,
      "ures": 989,
      "ric": 990,
      "hib": 991,
      "-t": 992,
      "pit": 993,
      "old": 994,
      "gest": 995,
      "Ġcontrol": 996,
      "Ġhistopath": 997,
      "Ġunder": 998,
      "Ġfact": 999,
      "estig": 1000,
      "Ġar": 1001,
      "rel": 1002,
      "Ġlymph": 1003,
      "ob": 1004,
      "Ġinvestig": 1005,
      "ond": 1006,
      "gen": 1007,
      "ub": 1008,
      "Ġrats": 1009,
      "Ġdiagnosis": 1010,
      "Ġtherap": 1011,
      "Ġext": 1012,
      "Ġred": 1013,
      "Ġinj": 1014,
      "Ġfib": 1015,
      "ating": 1016,
      "ĠĠ": 1017,
      "Ġel": 1018,
      "Ġobserv": 1019,
      "Ġassociated": 1020,
      "Ġsug": 1021,
      "Ġph": 1022,
      "veal": 1023,
      "Ġexamin": 1024,
      "ident": 1025,
      "rain": 1026,
      "Ġsuggest": 1027,
      "ally": 1028,
      "Ġreveal": 1029,
      "cept": 1030,
      "-d": 1031,
      "Ġcompared": 1032,
      "Ġfoll": 1033,
      "unction": 1034,
      "Ġfe": 1035,
      "SC": 1036,
      "uld": 1037,
      "ulation": 1038,
      "-c": 1039,
      "ile": 1040,
      "Ġtest": 1041,
      "ered": 1042,
      "Ġincl": 1043,
      "ome": 1044,
      "20": 1045,
      "Ġrel": 1046,
      "uman": 1047,
      "cop": 1048,
      "eration": 1049,
      "Ġused": 1050,
      "ons": 1051,
      "ility": 1052,
      "ĠThis": 1053,
      "itis": 1054,
      "ater": 1055,
      "ree": 1056,
      "Ġthan": 1057,
      "reated": 1058,
      "Ġchang": 1059,
      "ep": 1060,
      "Ġboth": 1061,
      "inding": 1062,
      "âĢī": 1063,
      "ormal": 1064,
      "Ġdem": 1065,
      "Ġinflamm": 1066,
      "imal": 1067,
      "med": 1068,
      "tern": 1069,
      "onstr": 1070,
      "ren": 1071,
      "Ġinclud": 1072,
      "Ġliver": 1073,
      "ential": 1074,
      "kin": 1075,
      "GF": 1076,
      "Ġsup": 1077,
      "owever": 1078,
      "Ġrevealed": 1079,
      "aining": 1080,
      "Ġra": 1081,
      "Ġtumors": 1082,
      "Ġlow": 1083,
      "Ġhuman": 1084,
      "Ġcons": 1085,
      "aracter": 1086,
      "Ġperform": 1087,
      "out": 1088,
      "ified": 1089,
      "Ġcyt": 1090,
      "hibit": 1091,
      "Ġser": 1092,
      "ft": 1093,
      "Ġnon": 1094,
      "ism": 1095,
      "ositive": 1096,
      "Ġimmunohistochemistry": 1097,
      "min": 1098,
      "Ġacc": 1099,
      "-s": 1100,
      "Ġman": 1101,
      "Ġcharacter": 1102,
      "ood": 1103,
      "stem": 1104,
      "ak": 1105,
      "Ġits": 1106,
      "omas": 1107,
      "Ġobserved": 1108,
      "Ġident": 1109,
      "rim": 1110,
      "oss": 1111,
      "Ġfound": 1112,
      "Ġsam": 1113,
      "iation": 1114,
      "Ġhad": 1115,
      "rib": 1116,
      "Ġpot": 1117,
      "ement": 1118,
      "etic": 1119,
      "Ġdes": 1120,
      "lu": 1121,
      "ium": 1122,
      "Ġmon": 1123,
      "Ġbone": 1124,
      "enc": 1125,
      "ert": 1126,
      "Ġeffects": 1127,
      "Ġrem": 1128,
      "ization": 1129,
      "ogra": 1130,
      "Ġdemonstr": 1131,
      "ach": 1132,
      "Ġme": 1133,
      "Ġcase": 1134,
      "viv": 1135,
      "dition": 1136,
      "wo": 1137,
      "uro": 1138,
      "Ġloc": 1139,
      "Ġindic": 1140,
      "own": 1141,
      "Ġform": 1142,
      "Ġwell": 1143,
      "osed": 1144,
      "Ġlung": 1145,
      "Ġconf": 1146,
      "Ġmark": 1147,
      "Ġfollow": 1148,
      "uring": 1149,
      "Ġinto": 1150,
      "orph": 1151,
      "ved": 1152,
      "Ġmed": 1153,
      "Ġsystem": 1154,
      "Ġmetast": 1155,
      "Ġmeth": 1156,
      "ong": 1157,
      "roph": 1158,
      "Ġpar": 1159,
      "asm": 1160,
      "uction": 1161,
      "Ġassess": 1162,
      "Ġfinding": 1163,
      "ĠCD": 1164,
      "ically": 1165,
      "ord": 1166,
      "</": 1167,
      "Ġvari": 1168,
      "asc": 1169,
      "Ġlesions": 1170,
      "Ġcarcinoma": 1171,
      "ata": 1172,
      "Ġimag": 1173,
      "omy": 1174,
      "Ġsuc": 1175,
      "ral": 1176,
      "usion": 1177,
      "Ġchanges": 1178,
      "Ġstudies": 1179,
      "Ġgroups": 1180,
      "Ġsurg": 1181,
      "ex": 1182,
      "ery": 1183,
      "last": 1184,
      "oph": 1185,
      "ates": 1186,
      "Ġpotential": 1187,
      "urther": 1188,
      "Ġtissues": 1189,
      "pithel": 1190,
      "Ġmost": 1191,
      "ract": 1192,
      "ostic": 1193,
      "ek": 1194,
      "Ġfunction": 1195,
      "ĠU": 1196,
      "ased": 1197,
      "ocyt": 1198,
      "cess": 1199,
      "Ġother": 1200,
      "Ġrole": 1201,
      "echan": 1202,
      "Ġmicro": 1203,
      "esis": 1204,
      "Ġup": 1205,
      "ucle": 1206,
      "Ġmore": 1207,
      "Ġsurviv": 1208,
      "Ġcol": 1209,
      "Ġperformed": 1210,
      "Ġinfect": 1211,
      "ained": 1212,
      "Ġcaus": 1213,
      "ective": 1214,
      "ops": 1215,
      "Ġstr": 1216,
      "Ġhep": 1217,
      "olec": 1218,
      "The": 1219,
      "-l": 1220,
      "Ġmult": 1221,
      "ined": 1222,
      "ime": 1223,
      "Ġdevelopment": 1224,
      "Ġhistopathological": 1225,
      "Ġhig": 1226,
      "Ġgrow": 1227,
      "CC": 1228,
      "Ġqu": 1229,
      "ual": 1230,
      "reg": 1231,
      "Ġtheir": 1232,
      "ĠK": 1233,
      "CR": 1234,
      "induced": 1235,
      "Ġpart": 1236,
      "ents": 1237,
      "Ġ=": 1238,
      "Ġout": 1239,
      "ĠV": 1240,
      "&#": 1241,
      "Ġfindings": 1242,
      "12": 1243,
      "Ġanti": 1244,
      "plant": 1245,
      "ue": 1246,
      "Ġcorrel": 1247,
      "Ġgene": 1248,
      "Ġdeterm": 1249,
      "ĠThese": 1250,
      "Ġtwo": 1251,
      "cc": 1252,
      "Ġinvol": 1253,
      "Ġover": 1254,
      "Ġprim": 1255,
      "Ġov": 1256,
      "ĠHowever": 1257,
      "Î²": 1258,
      "hes": 1259,
      "Ġprogn": 1260,
      "Ġsurvival": 1261,
      "Ġmechan": 1262,
      "Ġbrain": 1263,
      "RNA": 1264,
      "Ġfeat": 1265,
      "Ġnormal": 1266,
      "Ġrep": 1267,
      "Ġdata": 1268,
      "Ġrecept": 1269,
      "rease": 1270,
      "ute": 1271,
      "Ġbre": 1272,
      "asis": 1273,
      "16": 1274,
      "Ġam": 1275,
      "erat": 1276,
      "Ġmy": 1277,
      "Ġrare": 1278,
      "ail": 1279,
      "Ġfactor": 1280,
      "cle": 1281,
      "umb": 1282,
      "Ġcy": 1283,
      "ry": 1284,
      "ograph": 1285,
      "ible": 1286,
      "ration": 1287,
      "nal": 1288,
      "Ġsm": 1289,
      "Ġduring": 1290,
      "ef": 1291,
      "plic": 1292,
      "hen": 1293,
      "Ġpost": 1294,
      "Ġaim": 1295,
      "Ġmolec": 1296,
      "ik": 1297,
      "cent": 1298,
      "hed": 1299,
      "ectively": 1300,
      "Ġprov": 1301,
      "Ġprol": 1302,
      "Ġpol": 1303,
      "Ġnod": 1304,
      "ĠHist": 1305,
      "kg": 1306,
      "Ġanimal": 1307,
      "ĠAl": 1308,
      "Ġgrowth": 1309,
      "Ġrad": 1310,
      "rent": 1311,
      "Î±": 1312,
      "-p": 1313,
      "Ġhigher": 1314,
      "int": 1315,
      "Ġactivity": 1316,
      "Ġimport": 1317,
      "-induced": 1318,
      "rosis": 1319,
      "Ġneuro": 1320,
      "ov": 1321,
      "Ġneur": 1322,
      "ody": 1323,
      "Ġpo": 1324,
      "Ġem": 1325,
      "Ġepithel": 1326,
      "MP": 1327,
      "Ġinhibit": 1328,
      "Ġbiops": 1329,
      "Ġmalign": 1330,
      "ury": 1331,
      "eous": 1332,
      "ution": 1333,
      "ogenesis": 1334,
      "ulated": 1335,
      "Ġconfir": 1336,
      "Ġcoll": 1337,
      "emb": 1338,
      "ressed": 1339,
      "-f": 1340,
      "yd": 1341,
      "roscop": 1342,
      "ite": 1343,
      "Ġfeatures": 1344,
      "ification": 1345,
      "ities": 1346,
      "Ġmus": 1347,
      "Ġ<": 1348,
      "Ġour": 1349,
      "Ġret": 1350,
      "Ġmethod": 1351,
      "ix": 1352,
      "Ġpred": 1353,
      "arly": 1354,
      "ascular": 1355,
      "icular": 1356,
      "Ġbreast": 1357,
      "Ġsampl": 1358,
      "Ġthere": 1359,
      "gan": 1360,
      "Ġweek": 1361,
      "Ġdist": 1362,
      "Ġimaging": 1363,
      "Ġonly": 1364,
      "Ġmut": 1365,
      "opl": 1366,
      "Ġsim": 1367,
      "ict": 1368,
      "-year": 1369,
      "-b": 1370,
      "ace": 1371,
      "Ġcould": 1372,
      "ently": 1373,
      "ste": 1374,
      "Ġocc": 1375,
      "ew": 1376,
      "Ġsuch": 1377,
      "Ġest": 1378,
      "Ġincluding": 1379,
      "vent": 1380,
      "Ġtreated": 1381,
      "Ġkn": 1382,
      "Ġnec": 1383,
      "Ġintra": 1384,
      "iqu": 1385,
      "onse": 1386,
      "Ġinjury": 1387,
      "ize": 1388,
      "ough": 1389,
      "Ġcommon": 1390,
      "omet": 1391,
      "Ġsyn": 1392,
      "Ġdays": 1393,
      "Ġimpro": 1394,
      "Ġpositive": 1395,
      "Ġyear": 1396,
      "Ġexamination": 1397,
      "Ġmass": 1398,
      "erative": 1399,
      "sup": 1400,
      "idence": 1401,
      "-old": 1402,
      "rough": 1403,
      "Ġdecreased": 1404,
      "Ġnumb": 1405,
      "Ġchem": 1406,
      "Ġprolif": 1407,
      "opt": 1408,
      "irst": 1409,
      "%)": 1410,
      "Ġinduced": 1411,
      "Ġaut": 1412,
      "Ġdesc": 1413,
      "Ġprimary": 1414,
      "15": 1415,
      "Ġmat": 1416,
      "Ġone": 1417,
      "Ġappro": 1418,
      "Ġdemonstrated": 1419,
      "Ġgast": 1420,
      "ish": 1421,
      "Ġtype": 1422,
      "arget": 1423,
      "14": 1424,
      "Ġhistology": 1425,
      "Ġtherapy": 1426,
      "Ġreduced": 1427,
      "/kg": 1428,
      "Ġexper": 1429,
      "der": 1430,
      "ivity": 1431,
      "fore": 1432,
      "Ġstaining": 1433,
      "Ġresponse": 1434,
      "Ġaddition": 1435,
      "Ġtime": 1436,
      "17": 1437,
      "Ġnucle": 1438,
      "pec": 1439,
      "Ġox": 1440,
      "Ġaden": 1441,
      "Ġsamples": 1442,
      "Ġfirst": 1443,
      "Ġmeas": 1444,
      "Ġmechanism": 1445,
      "Ġlarg": 1446,
      "Ġmorph": 1447,
      "Ġinflammatory": 1448,
      "Ġrespectively": 1449,
      "Ġdetected": 1450,
      "Ġprot": 1451,
      "ian": 1452,
      "Ġnew": 1453,
      "ores": 1454,
      "tal": 1455,
      "aling": 1456,
      "Ġimportant": 1457,
      "ypes": 1458,
      "ologic": 1459,
      "'s": 1460,
      "herap": 1461,
      "Ġprod": 1462,
      "Ġreceptor": 1463,
      "urrent": 1464,
      "isk": 1465,
      "Ġdr": 1466,
      "Ġdef": 1467,
      "Ġevaluated": 1468,
      "Ġadmin": 1469,
      "ild": 1470,
      "ived": 1471,
      "av": 1472,
      "Ġmuc": 1473,
      "ge": 1474,
      "Ġapp": 1475,
      "unt": 1476,
      "ured": 1477,
      "Ġvit": 1478,
      "ĠIL": 1479,
      "Ġreported": 1480,
      "Ġprom": 1481,
      "Ġma": 1482,
      "Ġhem": 1483,
      "Ġprop": 1484,
      "ics": 1485,
      "otherap": 1486,
      "Ġdep": 1487,
      "Ġben": 1488,
      "Ġviv": 1489,
      "icity": 1490,
      "ten": 1491,
      "CT": 1492,
      "Ġspecific": 1493,
      "Ġvivo": 1494,
      "amet": 1495,
      "Ġcomb": 1496,
      "Ġthrough": 1497,
      "Ġmolecular": 1498,
      "Ġimp": 1499,
      "ths": 1500,
      "Ġtarget": 1501,
      "eut": 1502,
      "Ġoccur": 1503,
      "Ġblood": 1504,
      "ĠĠĠĠ": 1505,
      "Ġskin": 1506,
      "Ġdescrib": 1507,
      "18": 1508,
      "13": 1509,
      "05": 1510,
      "Ġorgan": 1511,
      "Ġcr": 1512,
      "yz": 1513,
      "-in": 1514,
      "Ġage": 1515,
      "omp": 1516,
      "aneous": 1517,
      "Ġep": 1518,
      "ography": 1519,
      "ĠThere": 1520,
      "Ġprocess": 1521,
      "Ġinvestigated": 1522,
      "rade": 1523,
      "Ġrenal": 1524,
      "Ġsec": 1525,
      "vious": 1526,
      "Ġoste": 1527,
      "Ġinvas": 1528,
      "use": 1529,
      "echn": 1530,
      "Ġconfirmed": 1531,
      "50": 1532,
      "Ġtumour": 1533,
      "ify": 1534,
      "ĠOur": 1535,
      "ronic": 1536,
      "CA": 1537,
      "Ġdam": 1538,
      "Ġmain": 1539,
      "Ġidentified": 1540,
      "Ġnumber": 1541,
      "onal": 1542,
      "ffic": 1543,
      "ional": 1544,
      "over": 1545,
      "ike": 1546,
      "Ġfem": 1547,
      "otherapy": 1548,
      "Ġtr": 1549,
      "oplasm": 1550,
      "rot": 1551,
      "ages": 1552,
      "Ġyears": 1553,
      "Ġincrease": 1554,
      "ont": 1555,
      "Ġclass": 1556,
      "Ġanalyz": 1557,
      "osph": 1558,
      "Ġserum": 1559,
      "iment": 1560,
      "ocytes": 1561,
      "Ġweeks": 1562,
      "gative": 1563,
      "abl": 1564,
      "ination": 1565,
      "Ġtechn": 1566,
      "Ġlocal": 1567,
      "Ġstat": 1568,
      "ret": 1569,
      "Ġdisc": 1570,
      "ellular": 1571,
      "requ": 1572,
      "-m": 1573,
      "Ġthree": 1574,
      "Ġwithout": 1575,
      "epend": 1576,
      "ould": 1577,
      "eutic": 1578,
      "ale": 1579,
      "fer": 1580,
      "Ġpathw": 1581,
      "anced": 1582,
      "ardi": 1583,
      "Ġsmall": 1584,
      "Ġacid": 1585,
      "ural": 1586,
      "Ġanimals": 1587,
      "Ġpresence": 1588,
      "Ġdifferen": 1589,
      "Ġearly": 1590,
      "Ġhepat": 1591,
      "Ġrisk": 1592,
      "ially": 1593,
      "rect": 1594,
      "Ġposs": 1595,
      "Ġstruct": 1596,
      "ior": 1597,
      "idne": 1598,
      "Ġinflammation": 1599,
      "imens": 1600,
      "Ġinfection": 1601,
      "of": 1602,
      "19": 1603,
      "Ġantib": 1604,
      "Ġapopt": 1605,
      "Ġwithin": 1606,
      "otic": 1607,
      "ĠIm": 1608,
      "Ġproliferation": 1609,
      "ick": 1610,
      "erg": 1611,
      "ript": 1612,
      "ilt": 1613,
      "30": 1614,
      "ĠmRNA": 1615,
      "ilar": 1616,
      "Ġconcl": 1617,
      "Ġreact": 1618,
      "Ġpattern": 1619,
      "ok": 1620,
      "Ġlesion": 1621,
      "HC": 1622,
      "ock": 1623,
      "sub": 1624,
      "Ġlip": 1625,
      "though": 1626,
      "11": 1627,
      "Ġkidne": 1628,
      "Ġcond": 1629,
      "ĠIt": 1630,
      "plet": 1631,
      "iod": 1632,
      "Ġmonths": 1633,
      "Ġbiopsy": 1634,
      "ides": 1635,
      "ability": 1636,
      "eth": 1637,
      "ER": 1638,
      "roid": 1639,
      "Ġvir": 1640,
      "Ġaffect": 1641,
      "ensit": 1642,
      "Ġtherapeutic": 1643,
      "ections": 1644,
      "100": 1645,
      "ivid": 1646,
      "iple": 1647,
      "Ġfactors": 1648,
      "Ġwhen": 1649,
      "ines": 1650,
      "ĠTo": 1651,
      "Ġwhile": 1652,
      "per": 1653,
      "-P": 1654,
      "pression": 1655,
      "Ġmuscle": 1656,
      "Ġj": 1657,
      "-g": 1658,
      "Ġlower": 1659,
      "Ġquant": 1660,
      "Ġradi": 1661,
      "Ġdel": 1662,
      "Cs": 1663,
      "ency": 1664,
      "Ġy": 1665,
      "RI": 1666,
      "Ġfrequ": 1667,
      "24": 1668,
      "Ġpresented": 1669,
      "Ġchronic": 1670,
      "Ġvalu": 1671,
      "Ġconsid": 1672,
      "ĠFurther": 1673,
      "Ġpredict": 1674,
      ")-": 1675,
      "Ġthose": 1676,
      "Ġdamage": 1677,
      "Ġmalignant": 1678,
      "Ġflu": 1679,
      "Ġmg": 1680,
      "Ġmicroscop": 1681,
      "Ġmin": 1682,
      "Ġmale": 1683,
      "rence": 1684,
      "Ġfurther": 1685,
      "Ġdiagnostic": 1686,
      "Ġgenes": 1687,
      "ouse": 1688,
      "Ġenh": 1689,
      "Ġstage": 1690,
      "ependent": 1691,
      "Ġexamined": 1692,
      "Â±": 1693,
      "ĠII": 1694,
      "Ġsever": 1695,
      "ogenic": 1696,
      "alc": 1697,
      "ces": 1698,
      "Ġtox": 1699,
      "Ġtotal": 1700,
      "Ġinvestigate": 1701,
      "AP": 1702,
      "agen": 1703,
      "Ġdrug": 1704,
      "Ġmarkers": 1705,
      "osure": 1706,
      "oxid": 1707,
      "Ġcharacterist": 1708,
      "Ġsurgery": 1709,
      "CL": 1710,
      "les": 1711,
      "vel": 1712,
      "ished": 1713,
      "NF": 1714,
      "Ġmetastasis": 1715,
      "Ġlong": 1716,
      "Ġins": 1717,
      "Ġformation": 1718,
      "view": 1719,
      "Ġproteins": 1720,
      "Ġloss": 1721,
      "Ġsev": 1722,
      "tained": 1723,
      "Ġconcent": 1724,
      "ules": 1725,
      "ydro": 1726,
      "Ġvitro": 1727,
      "Ġsit": 1728,
      "Ġstress": 1729,
      "Ġsimilar": 1730,
      "Ġuse": 1731,
      "Ġbiom": 1732,
      "Ġepithelial": 1733,
      "Ġexpressed": 1734,
      "Ġprogression": 1735,
      "Ġevaluate": 1736,
      "Ġagain": 1737,
      "Ġes": 1738,
      "cript": 1739,
      "Ġdue": 1740,
      "Ġcardi": 1741,
      "Ġinfilt": 1742,
      "Ġreview": 1743,
      "Ġwho": 1744,
      "estinal": 1745,
      "led": 1746,
      "row": 1747,
      "Ġlarge": 1748,
      "istration": 1749,
      "Ġlim": 1750,
      "Ġcult": 1751,
      "aff": 1752,
      "ressive": 1753,
      "Ġweight": 1754,
      "ise": 1755,
      "Ġpanc": 1756,
      "Ġmouse": 1757,
      "rast": 1758,
      "Ġprevious": 1759,
      "roc": 1760,
      "ice": 1761,
      "lex": 1762,
      "Ġmac": 1763,
      "Ġcyst": 1764,
      "ann": 1765,
      "Ġbased": 1766,
      "Ġbec": 1767,
      "IS": 1768,
      "Ġcar": 1769,
      "Ġagainst": 1770,
      "ha": 1771,
      "Ġanalyzed": 1772,
      "Ġdys": 1773,
      "Ġprognostic": 1774,
      "Ġoutc": 1775,
      "jor": 1776,
      "ptom": 1777,
      "Ġtechniqu": 1778,
      "ality": 1779,
      "ocy": 1780,
      "Ġmel": 1781,
      "ocarcin": 1782,
      "Ġexperiment": 1783,
      "iss": 1784,
      "Ġhyper": 1785,
      "Ġadult": 1786,
      "Ġvascular": 1787,
      "ains": 1788,
      "ening": 1789,
      "Ġwor": 1790,
      "Ġsel": 1791,
      "air": 1792,
      "Ġfollowing": 1793,
      "Ġmemb": 1794,
      "Ġlit": 1795,
      "Ġapoptosis": 1796,
      "othel": 1797,
      "Ġtub": 1798,
      "ily": 1799,
      "Ġgener": 1800,
      "ensity": 1801,
      "ins": 1802,
      "rac": 1803,
      "Ġgland": 1804,
      "ymptom": 1805,
      "Ġmajor": 1806,
      "Ġkidney": 1807,
      "25": 1808,
      "Ġwom": 1809,
      "eng": 1810,
      "Ġassessed": 1811,
      "Ġrate": 1812,
      "Ġacute": 1813,
      "AT": 1814,
      "Ġfl": 1815,
      "Ġinvolv": 1816,
      "Ġsupp": 1817,
      "ack": 1818,
      "Ġlead": 1819,
      "rop": 1820,
      "SCs": 1821,
      "-like": 1822,
      "Ġprognosis": 1823,
      "Ġdid": 1824,
      "Ġsol": 1825,
      "yroid": 1826,
      "Ġdose": 1827,
      "Ġopt": 1828,
      "Ġevidence": 1829,
      "qui": 1830,
      "200": 1831,
      "ĠHere": 1832,
      "Ġphosph": 1833,
      "Ġcharacterized": 1834,
      "Ġcent": 1835,
      "Ġadv": 1836,
      "Ġinvolved": 1837,
      "Ġpoor": 1838,
      "Ġpul": 1839,
      "Ġfibrosis": 1840,
      "ocal": 1841,
      "Ġperiod": 1842,
      "Ġexposure": 1843,
      "Ġelect": 1844,
      "asia": 1845,
      "Ġdifferentiation": 1846,
      "Ġtranscript": 1847,
      "Ġhistopathology": 1848,
      "abol": 1849,
      "AL": 1850,
      "ful": 1851,
      "Ġent": 1852,
      "95": 1853,
      "Ġcort": 1854,
      "Ġgastric": 1855,
      "Ġexc": 1856,
      "Ġnovel": 1857,
      "Ġrece": 1858,
      "zym": 1859,
      "Ġnegative": 1860,
      "Ġday": 1861,
      "oral": 1862,
      "Ġbody": 1863,
      "Ġcollagen": 1864,
      "Ġcap": 1865,
      "mong": 1866,
      "uted": 1867,
      "Ġsurgical": 1868,
      "Ġactivation": 1869,
      "ĠImmun": 1870,
      "%,": 1871,
      "Ġimplant": 1872,
      "Ġdeveloped": 1873,
      "Ġdiagnosed": 1874,
      "its": 1875,
      "Ġcolon": 1876,
      "ateral": 1877,
      "ET": 1878,
      "Ġmultiple": 1879,
      "stit": 1880,
      "Ġrele": 1881,
      "Ġshould": 1882,
      "Ġconsist": 1883,
      "oscop": 1884,
      "Ġpromot": 1885,
      "ĠHistological": 1886,
      "ust": 1887,
      "AS": 1888,
      "io": 1889,
      "utaneous": 1890,
      "ness": 1891,
      "Ġneed": 1892,
      "ax": 1893,
      "went": 1894,
      "Ġleft": 1895,
      "istrib": 1896,
      "Ġalter": 1897,
      "erve": 1898,
      "Ġcorrelated": 1899,
      "Ġsize": 1900,
      "och": 1901,
      "related": 1902,
      "Ġexpl": 1903,
      "estern": 1904,
      "Ġrecur": 1905,
      "Ġcurrent": 1906,
      "Ġcle": 1907,
      "Ġwhether": 1908,
      "Ġeffic": 1909,
      "atin": 1910,
      "alth": 1911,
      "ull": 1912,
      "Ġsome": 1913,
      "atal": 1914,
      "Ġparamet": 1915,
      "Ġdetermine": 1916,
      "Ġincreas": 1917,
      "Ġphen": 1918,
      "pecific": 1919,
      "Ġestabl": 1920,
      "-M": 1921,
      "Ġright": 1922,
      "Ġpap": 1923,
      "uce": 1924,
      "Ġoxid": 1925,
      "gi": 1926,
      "Ġadministration": 1927,
      "ĠDNA": 1928,
      "igen": 1929,
      "ĠAn": 1930,
      "Ġsensit": 1931,
      "ĠJ": 1932,
      "Ġult": 1933,
      "Ġlab": 1934,
      "Ġspecimens": 1935,
      "Ġso": 1936,
      "ereb": 1937,
      "Ġsecond": 1938,
      "Ġmes": 1939,
      "21": 1940,
      "ited": 1941,
      "flamm": 1942,
      "Ġsus": 1943,
      "ause": 1944,
      "Ġcellular": 1945,
      "Ġprost": 1946,
      "Ġdiab": 1947,
      "Ġprof": 1948,
      "Ġbenign": 1949,
      "arch": 1950,
      "Ġeach": 1951,
      "acy": 1952,
      "âĢĳ": 1953,
      "Ġneurons": 1954,
      "iven": 1955,
      "OS": 1956,
      "yn": 1957,
      "Ġol": 1958,
      "amp": 1959,
      "Ġknown": 1960,
      "opathological": 1961,
      "icle": 1962,
      "ants": 1963,
      "Ġmechanisms": 1964,
      "asal": 1965,
      "001": 1966,
      "sequ": 1967,
      "Ġav": 1968,
      "40": 1969,
      "els": 1970,
      "more": 1971,
      "erc": 1972,
      "ised": 1973,
      "Ġmelan": 1974,
      "PA": 1975,
      "Ġsl": 1976,
      "Ġdetermined": 1977,
      "Ġcrit": 1978,
      "Ġsevere": 1979,
      "Ġmodels": 1980,
      "Ġinit": 1981,
      "rome": 1982,
      "Ġsections": 1983,
      "Ġrelated": 1984,
      "round": 1985,
      "ting": 1986,
      "Ġdistrib": 1987,
      "CD": 1988,
      "oblast": 1989,
      "ans": 1990,
      "Ġmetabol": 1991,
      "Ġarter": 1992,
      "illary": 1993,
      "Ġtransplant": 1994,
      "Ġvarious": 1995,
      "ither": 1996,
      "Ġplasm": 1997,
      "havi": 1998,
      "ising": 1999,
      "Ġsubt": 2000,
      "Ġpathway": 2001,
      "Ġadenocarcin": 2002,
      "Ġut": 2003,
      "osa": 2004,
      "val": 2005,
      "-related": 2006,
      "ulin": 2007,
      "Ġimmune": 2008,
      "rogen": 2009,
      "itative": 2010,
      "Ġimmunohistochemical": 2011,
      "Ġsignaling": 2012,
      "Ġarea": 2013,
      "Ġexhibit": 2014,
      "Ġrespons": 2015,
      "monary": 2016,
      "oses": 2017,
      "lyc": 2018,
      "Ġprovide": 2019,
      "ateg": 2020,
      "-positive": 2021,
      "Ġop": 2022,
      "rial": 2023,
      "Ġhepatic": 2024,
      "vir": 2025,
      "Ġir": 2026,
      "Ġabs": 2027,
      "Ġtypes": 2028,
      "Ġparameters": 2029,
      "Ġcompar": 2030,
      "Ġagg": 2031,
      "Ġcomplet": 2032,
      "rin": 2033,
      "Ġcaused": 2034,
      "ĠFurthermore": 2035,
      "DA": 2036,
      "Ġdiet": 2037,
      "Ġblot": 2038,
      "operative": 2039,
      "rob": 2040,
      "Ġunderst": 2041,
      "Ġfemale": 2042,
      "ancy": 2043,
      "Ġdifferences": 2044,
      "ingle": 2045,
      "53": 2046,
      "rong": 2047,
      "ount": 2048,
      "Ġrepres": 2049,
      "erature": 2050,
      "EGF": 2051,
      "PV": 2052,
      "Ġoral": 2053,
      "Ġchemotherapy": 2054,
      "arcoma": 2055,
      "mg": 2056,
      "are": 2057,
      "ments": 2058,
      "23": 2059,
      "odies": 2060,
      "Ġstatus": 2061,
      "Ġcontrib": 2062,
      "Ġwhereas": 2063,
      "+)": 2064,
      "Ġseveral": 2065,
      "Ġsal": 2066,
      "ually": 2067,
      "OX": 2068,
      "Ġdo": 2069,
      "Ġovari": 2070,
      "Ġcontrols": 2071,
      "Ġevaluation": 2072,
      "ced": 2073,
      "Ġmembran": 2074,
      "Ġsymptom": 2075,
      "Ġpathological": 2076,
      "cence": 2077,
      "Ġenzym": 2078,
      "Ġdiseases": 2079,
      "Ġshown": 2080,
      "Ġobtained": 2081,
      "ule": 2082,
      "ade": 2083,
      "ept": 2084,
      "icles": 2085,
      "Ġindicated": 2086,
      "Ġprob": 2087,
      "Ġvis": 2088,
      "-cell": 2089,
      "PS": 2090,
      "face": 2091,
      "ras": 2092,
      "Ġconclusion": 2093,
      "ectomy": 2094,
      "Ġhistologically": 2095,
      "Ġbehavi": 2096,
      "Ġfour": 2097,
      "Ġregul": 2098,
      "amine": 2099,
      "ĠMore": 2100,
      "Ġrequi": 2101,
      "Ġcalc": 2102,
      "201": 2103,
      "osin": 2104,
      "Ġgrade": 2105,
      "LC": 2106,
      "Ġhealth": 2107,
      "Ġassay": 2108,
      "andard": 2109,
      "Ġgreat": 2110,
      "chem": 2111,
      "Ġpop": 2112,
      "Ġsingle": 2113,
      "ole": 2114,
      "normal": 2115,
      "vant": 2116,
      "Ġrecurrence": 2117,
      "Ġsupport": 2118,
      "Ġcharacteristics": 2119,
      "Ġadj": 2120,
      "Ġany": 2121,
      "flammatory": 2122,
      "Ġresection": 2123,
      "ately": 2124,
      "Ġconsidered": 2125,
      "rix": 2126,
      "ocyte": 2127,
      "roup": 2128,
      "Ġgran": 2129,
      "Ġpancreat": 2130,
      "Ġgra": 2131,
      "omat": 2132,
      "Ġemb": 2133,
      "Ġcause": 2134,
      "Ġhy": 2135,
      "Ġanalyses": 2136,
      "Ġidentify": 2137,
      "Ġelev": 2138,
      "Ġstrong": 2139,
      "erex": 2140,
      "ogn": 2141,
      "Ġcontrast": 2142,
      "Ġinvasion": 2143,
      "Ġstudied": 2144,
      "ibility": 2145,
      "Ġcompon": 2146,
      "Ġnerve": 2147,
      "regulated": 2148,
      "Ġsynd": 2149,
      "Ġfunctional": 2150,
      "Ġprevent": 2151,
      "Ġangi": 2152,
      "Ġvia": 2153,
      "ĠAd": 2154,
      "Ġcereb": 2155,
      "Ġbiomark": 2156,
      "Ġmeasured": 2157,
      "ĠAfter": 2158,
      "Ġmit": 2159,
      "etal": 2160,
      "Ġdown": 2161,
      "-specific": 2162,
      "Ġendothel": 2163,
      "Ġnode": 2164,
      "Ġexperimental": 2165,
      "Ġatt": 2166,
      "Ġpain": 2167,
      "otype": 2168,
      "Ġspecies": 2169,
      "gl": 2170,
      "ĠAs": 2171,
      "Ġepid": 2172,
      "quam": 2173,
      "term": 2174,
      "ĠER": 2175,
      "Ġdeath": 2176,
      "erived": 2177,
      "Ġpossible": 2178,
      "Ġpolym": 2179,
      "Ġhowever": 2180,
      "Ġmight": 2181,
      "67": 2182,
      "Ġtom": 2183,
      "Ġz": 2184,
      "Ġregion": 2185,
      "60": 2186,
      "ĠImmunohistochem": 2187,
      "rh": 2188,
      "acent": 2189,
      "omes": 2190,
      "Ġstem": 2191,
      "Ġapproach": 2192,
      "Ġless": 2193,
      "br": 2194,
      "Ġpathology": 2195,
      "-based": 2196,
      "28": 2197,
      "osition": 2198,
      "Ġref": 2199,
      "45": 2200,
      "Ġnuclear": 2201,
      "Ġdisord": 2202,
      "Ġcorrelation": 2203,
      "Ġsequ": 2204,
      "ake": 2205,
      "ink": 2206,
      "Ġovarian": 2207,
      "af": 2208,
      "Ġthyroid": 2209,
      "Ġunderwent": 2210,
      "Ġisol": 2211,
      "Ġlymphoma": 2212,
      "-treated": 2213,
      "Ġmethods": 2214,
      "Ġoxidative": 2215,
      "Ġspect": 2216,
      "ochemical": 2217,
      "Ġmicroscopy": 2218,
      "Ġassociation": 2219,
      "Ġstandard": 2220,
      "ĠAt": 2221,
      "Ġdetection": 2222,
      "-ass": 2223,
      "ĠPD": 2224,
      "ĠAlthough": 2225,
      "Ġdeg": 2226,
      "inant": 2227,
      "Ġvol": 2228,
      "Ġapplic": 2229,
      "II": 2230,
      "Ġmutations": 2231,
      "Ġamong": 2232,
      "ysi": 2233,
      "Ġcancers": 2234,
      "quamous": 2235,
      "rine": 2236,
      "Ġendomet": 2237,
      "Ġregen": 2238,
      "dom": 2239,
      "chym": 2240,
      "Ġabnormal": 2241,
      "ST": 2242,
      "Ġderm": 2243,
      "Ġcombination": 2244,
      "ĠSt": 2245,
      "ae": 2246,
      "Ġclinic": 2247,
      "unct": 2248,
      "Ġmarker": 2249,
      "Ġpulmonary": 2250,
      "Ġterm": 2251,
      "ĠOn": 2252,
      "Ġinjection": 2253,
      "olar": 2254,
      "-up": 2255,
      "Ġtomography": 2256,
      "Ġsuper": 2257,
      "artil": 2258,
      "MA": 2259,
      "Ġappear": 2260,
      "Ġextract": 2261,
      "affold": 2262,
      "oad": 2263,
      "Ġoverall": 2264,
      "Ġdirect": 2265,
      "Ġdescribed": 2266,
      "ram": 2267,
      "Ġeither": 2268,
      "ioma": 2269,
      "Ġorig": 2270,
      "ature": 2271,
      "ĠCT": 2272,
      "eld": 2273,
      "Ġindicate": 2274,
      "plasia": 2275,
      "ĠMoreover": 2276,
      "ital": 2277,
      "(-": 2278,
      "ored": 2279,
      "Ġval": 2280,
      "Ġvirus": 2281,
      "ypical": 2282,
      "Ġhighly": 2283,
      "Ġmatrix": 2284,
      "Ġdetect": 2285,
      "Ġcir": 2286,
      "/-": 2287,
      "Ġdefect": 2288,
      "Ġasp": 2289,
      "Ġadenocarcinoma": 2290,
      "Ġcomplex": 2291,
      "Ġplasma": 2292,
      "Ġreceived": 2293,
      "Ġincluded": 2294,
      "teg": 2295,
      "Ġmater": 2296,
      "Ġnecrosis": 2297,
      "Ġfollowed": 2298,
      "Ġvery": 2299,
      "Ġimproved": 2300,
      "Ġchall": 2301,
      "ctal": 2302,
      "Ġ[": 2303,
      "Ġpreviously": 2304,
      "orescence": 2305,
      "Ġfat": 2306,
      "-D": 2307,
      "vers": 2308,
      "Ġreaction": 2309,
      "Ġoften": 2310,
      "Ġsyndrome": 2311,
      "-A": 2312,
      "otox": 2313,
      "/m": 2314,
      "ision": 2315,
      "Ġeffective": 2316,
      "ross": 2317,
      "eful": 2318,
      "ield": 2319,
      "Ġheter": 2320,
      "Ġaccur": 2321,
      "-H": 2322,
      "prod": 2323,
      "Ġpropert": 2324,
      "Ġthey": 2325,
      "RP": 2326,
      "Ġscaffold": 2327,
      "Ġmutation": 2328,
      "Ġliterature": 2329,
      "Ġdecrease": 2330,
      "oint": 2331,
      "Ġcarcinomas": 2332,
      "Ġmetastatic": 2333,
      "lement": 2334,
      "Ġgenetic": 2335,
      "22": 2336,
      "Ġmany": 2337,
      "Ġdistribution": 2338,
      "Ġoverex": 2339,
      "verse": 2340,
      "Ġparticular": 2341,
      "ety": 2342,
      "Ġmanag": 2343,
      "ipp": 2344,
      "Ġneoplasm": 2345,
      "ociated": 2346,
      "Ġuseful": 2347,
      "Ġ-": 2348,
      "Ġremains": 2349,
      "Ġstim": 2350,
      "Ġnan": 2351,
      "IL": 2352,
      "uss": 2353,
      "Ġpa": 2354,
      "Ġkin": 2355,
      "ĠAL": 2356,
      "Ġseen": 2357,
      "lying": 2358,
      "Ġsitu": 2359,
      "<sup": 2360,
      "itone": 2361,
      "Ġareas": 2362,
      "Ġsubj": 2363,
      "okin": 2364,
      "Ġtoxicity": 2365,
      "ĠAll": 2366,
      "ty": 2367,
      "Ġlay": 2368,
      "ĠÎ": 2369,
      "par": 2370,
      "Ġischem": 2371,
      "Ġwound": 2372,
      "Ġalterations": 2373,
      "ĠCh": 2374,
      "Ġsurface": 2375,
      "ording": 2376,
      "de": 2377,
      "ator": 2378,
      "Ġcartil": 2379,
      "Ġur": 2380,
      "Ġmi": 2381,
      "lastic": 2382,
      "xim": 2383,
      "ĠCI": 2384,
      "Ġinform": 2385,
      "rations": 2386,
      "Ġhydro": 2387,
      "Ġsquamous": 2388,
      "ĠEx": 2389,
      "Ġvess": 2390,
      "cler": 2391,
      "-C": 2392,
      "Ġsame": 2393,
      "Ġpur": 2394,
      "-st": 2395,
      "MT": 2396,
      "eling": 2397,
      "Ġmacroph": 2398,
      "Ġbecause": 2399,
      "Ġrang": 2400,
      "inct": 2401,
      "In": 2402,
      "Ġinflu": 2403,
      "Ġoutcome": 2404,
      "erent": 2405,
      "oster": 2406,
      "Ġheart": 2407,
      "Ġendothelial": 2408,
      "ects": 2409,
      "Ġpathogenesis": 2410,
      "Ġsymptoms": 2411,
      "01": 2412,
      "ipher": 2413,
      "Ġreduction": 2414,
      "Ġconc": 2415,
      "Ġintestinal": 2416,
      "AC": 2417,
      "Ġax": 2418,
      "AF": 2419,
      "27": 2420,
      "itions": 2421,
      "NP": 2422,
      "Ġratio": 2423,
      "Ġcardiac": 2424,
      "Ġavail": 2425,
      "rosp": 2426,
      "Ġlipid": 2427,
      "34": 2428,
      "Ġindivid": 2429,
      "Ġbefore": 2430,
      "Ġfoc": 2431,
      "Ġproperties": 2432,
      "omic": 2433,
      "istered": 2434,
      "Ġcerv": 2435,
      "Ġpig": 2436,
      "ided": 2437,
      "-term": 2438,
      "ission": 2439,
      "kn": 2440,
      "SP": 2441,
      "iev": 2442,
      "ner": 2443,
      "Ġhypot": 2444,
      "Ġallow": 2445,
      "rocyt": 2446,
      "Ġvalue": 2447,
      "ixed": 2448,
      "Ġsuggested": 2449,
      "Ġvolum": 2450,
      "Ġbetter": 2451,
      "Ġthick": 2452,
      "Ġabout": 2453,
      "SCC": 2454,
      "Ġdemonstrate": 2455,
      "Ġplay": 2456,
      "Ġgraft": 2457,
      "ĠÂ±": 2458,
      "Ġpancreatic": 2459,
      "Ġaimed": 2460,
      "ĠPCR": 2461,
      "RT": 2462,
      "regulation": 2463,
      "Ġwork": 2464,
      "Ġ\"": 2465,
      "Ġinfiltration": 2466,
      "ether": 2467,
      "viron": 2468,
      "SH": 2469,
      "Ġhealing": 2470,
      "Ġline": 2471,
      "Ġbiological": 2472,
      "Ġstrateg": 2473,
      "-h": 2474,
      "ably": 2475,
      "Ġunderstand": 2476,
      "Ġantioxid": 2477,
      "Ġbiopsies": 2478,
      "Ġprostate": 2479,
      "Ġstrom": 2480,
      "-associated": 2481,
      "Ġmagn": 2482,
      "ray": 2483,
      "Ġvs": 2484,
      "ĠTherefore": 2485,
      "Ġglut": 2486,
      "rag": 2487,
      "Ġcartilage": 2488,
      "Ġhemat": 2489,
      "ious": 2490,
      "Ġestablished": 2491,
      "Ġantibody": 2492,
      "emp": 2493,
      "iate": 2494,
      "Ġquantitative": 2495,
      "Ġrese": 2496,
      "Ġhistory": 2497,
      "ets": 2498,
      "Ġmembrane": 2499,
      "ĠMRI": 2500,
      "adder": 2501,
      "Ġenhanced": 2502,
      "hibition": 2503,
      "Ġinvasive": 2504,
      "ĠÎ²": 2505,
      "Ġsin": 2506,
      "We": 2507,
      "ritis": 2508,
      "hip": 2509,
      "Ġinvolvement": 2510,
      "Ġproduction": 2511,
      "rotein": 2512,
      "Ġelevated": 2513,
      "ey": 2514,
      "ĠWestern": 2515,
      "Ġmanagement": 2516,
      "Ġindividual": 2517,
      "Ġfail": 2518,
      "Ġneph": 2519,
      "ists": 2520,
      "Ġrepresent": 2521,
      "atively": 2522,
      "aken": 2523,
      "Ġperipher": 2524,
      "Ġincreasing": 2525,
      "Ġmetastases": 2526,
      "ĠĠĠĠĠĠĠĠ": 2527,
      "Ġconditions": 2528,
      "Ġmot": 2529,
      "ressing": 2530,
      "Ġrap": 2531,
      "sp": 2532,
      "Ġchol": 2533,
      "Ġmarked": 2534,
      "Ġdistinct": 2535,
      "ĠÎ±": 2536,
      "Ġdensity": 2537,
      "Ġaccum": 2538,
      "rous": 2539,
      "ude": 2540,
      "Ġsystemic": 2541,
      "Ġsite": 2542,
      "ring": 2543,
      "PC": 2544,
      "Ġassessment": 2545,
      "ĠPT": 2546,
      "ucted": 2547,
      "Ġinformation": 2548,
      "Ġthen": 2549,
      "olution": 2550,
      "Ġimprov": 2551,
      "80": 2552,
      "Ġwall": 2553,
      "-type": 2554,
      "Ġduct": 2555,
      "-Î±": 2556,
      "ĠRes": 2557,
      "ĠIg": 2558,
      "Ġwomen": 2559,
      "Ġeosin": 2560,
      "Ġart": 2561,
      "Ġi": 2562,
      "astic": 2563,
      "/d": 2564,
      "MS": 2565,
      "emia": 2566,
      "000": 2567,
      "Ġchild": 2568,
      "/or": 2569,
      "Ġtumours": 2570,
      "Ġdegen": 2571,
      "Ġmorphological": 2572,
      "rem": 2573,
      "(+)": 2574,
      "Ġcentral": 2575,
      "Ġmorphology": 2576,
      "Ġregard": 2577,
      "arm": 2578,
      "-ex": 2579,
      "onic": 2580,
      "Ġshe": 2581,
      "Ġresist": 2582,
      "Ġabdom": 2583,
      "Ġwill": 2584,
      "resp": 2585,
      "Ġrelations": 2586,
      "ivided": 2587,
      "%),": 2588,
      "Ġvi": 2589,
      "Ġsperm": 2590,
      "90": 2591,
      "Ġtra": 2592,
      "Ġbil": 2593,
      "Ġgrad": 2594,
      "NS": 2595,
      "vironment": 2596,
      "Ġsuggesting": 2597,
      "Ġspinal": 2598,
      "lation": 2599,
      "Ġvent": 2600,
      "Ġcount": 2601,
      "CM": 2602,
      "immun": 2603,
      "Ġcombined": 2604,
      "Ġresponses": 2605,
      "Ġsensitivity": 2606,
      "-S": 2607,
      "Ġavailable": 2608,
      "inary": 2609,
      "apt": 2610,
      "mit": 2611,
      "Ġchrom": 2612,
      "Ġimages": 2613,
      "ted": 2614,
      "Ġdescribe": 2615,
      "Ġadvanced": 2616,
      "chymal": 2617,
      "okines": 2618,
      "-ne": 2619,
      "Ġmean": 2620,
      "Ġrelationship": 2621,
      "Ġcomplic": 2622,
      "Ġconcentrations": 2623,
      "Ġadministered": 2624,
      "tenu": 2625,
      "Ġimpact": 2626,
      "Ġinteg": 2627,
      "Ġultras": 2628,
      "hesis": 2629,
      "aps": 2630,
      "Ġproced": 2631,
      "Ġer": 2632,
      "Ġinhibition": 2633,
      "Ġdifferential": 2634,
      "Ġcondition": 2635,
      "Ġantibodies": 2636,
      "Ġmig": 2637,
      "ocard": 2638,
      "Ġve": 2639,
      "ĠThus": 2640,
      "Ġlines": 2641,
      "Ġreal": 2642,
      "Ġepithelium": 2643,
      "-dependent": 2644,
      "26": 2645,
      "-PCR": 2646,
      "Ġtechniques": 2647,
      "erase": 2648,
      "known": 2649,
      "-Î": 2650,
      "AD": 2651,
      "<sub": 2652,
      "Ġfam": 2653,
      "uctive": 2654,
      "Ġposit": 2655,
      "Ġclear": 2656,
      "als": 2657,
      "70": 2658,
      "Ġstill": 2659,
      "Ġcat": 2660,
      "brid": 2661,
      "Ġindex": 2662,
      "IF": 2663,
      "Ġdiscuss": 2664,
      "Ġfew": 2665,
      "orb": 2666,
      "izing": 2667,
      "ven": 2668,
      "Ġsuccess": 2669,
      "Ġexhibited": 2670,
      "Ġhel": 2671,
      "ethyl": 2672,
      "opathy": 2673,
      "Ġhypert": 2674,
      "ippoc": 2675,
      "ophag": 2676,
      "eric": 2677,
      "Ġmeasure": 2678,
      "ester": 2679,
      "Ġlack": 2680,
      "pecially": 2681,
      "ippocamp": 2682,
      "ĠIHC": 2683,
      "Ġattenu": 2684,
      "lin": 2685,
      "BM": 2686,
      "ning": 2687,
      "Ġembry": 2688,
      "ients": 2689,
      "ĠAD": 2690,
      "orectal": 2691,
      "efic": 2692,
      "Ġcollected": 2693,
      "-L": 2694,
      "ĠMMP": 2695,
      "Ġdivided": 2696,
      "IP": 2697,
      "asp": 2698,
      "Ġreprod": 2699,
      "Ġprec": 2700,
      "Ġenc": 2701,
      "ĠCR": 2702,
      "Ġmamm": 2703,
      "35": 2704,
      "ysis": 2705,
      "Ġmaterial": 2706,
      "ocrine": 2707,
      "Ġindependent": 2708,
      "Ġlimited": 2709,
      "ering": 2710,
      "Ġorigin": 2711,
      "Ġx": 2712,
      "roblast": 2713,
      "Ġstructure": 2714,
      "Ġdiabetic": 2715,
      "Ġkinase": 2716,
      "Ġrepair": 2717,
      "38": 2718,
      "Ġregions": 2719,
      "Ġinteract": 2720,
      "aqu": 2721,
      "Ġunderlying": 2722,
      "Ġefficacy": 2723,
      "ucing": 2724,
      "CP": 2725,
      "Ġcycl": 2726,
      "Ġdefic": 2727,
      "Ġresulted": 2728,
      "ĠImmunohistochemistry": 2729,
      "Ġbiochemical": 2730,
      "Ġcord": 2731,
      "hest": 2732,
      "arrow": 2733,
      "Ġperipheral": 2734,
      "Ġchain": 2735,
      "Ġcervical": 2736,
      "Ġresearch": 2737,
      "160": 2738,
      "57": 2739,
      "Ġinhibited": 2740,
      "Ġclassification": 2741,
      "ensive": 2742,
      "OR": 2743,
      "ĠX": 2744,
      "Ġmucosa": 2745,
      "Ġaffected": 2746,
      "-inflammatory": 2747,
      "pha": 2748,
      "Ġcontent": 2749,
      "itive": 2750,
      "ĠNo": 2751,
      "Ġchond": 2752,
      "Ġtechnique": 2753,
      "uk": 2754,
      "Ġbeing": 2755,
      "Ġgluc": 2756,
      "Ġhorm": 2757,
      "Ġneuronal": 2758,
      "GFR": 2759,
      "oreact": 2760,
      "Ġexposed": 2761,
      "ochond": 2762,
      "yc": 2763,
      "Ġconcentration": 2764,
      "Th": 2765,
      "Ġpopulation": 2766,
      "raction": 2767,
      "aging": 2768,
      "oplastic": 2769,
      "LD": 2770,
      "Ġhippocamp": 2771,
      "eding": 2772,
      "Ġwater": 2773,
      "Ġespecially": 2774,
      "Ġvalid": 2775,
      "Ġcomplete": 2776,
      "Ġtool": 2777,
      "Ġdiss": 2778,
      "Ġreceptors": 2779,
      "48": 2780,
      "Ġtend": 2781,
      "Ġtranscription": 2782,
      "Ġsoft": 2783,
      "itary": 2784,
      "ĠZ": 2785,
      "erous": 2786,
      "iency": 2787,
      "Ġwild": 2788,
      "Ġtested": 2789,
      "set": 2790,
      "Ġincidence": 2791,
      "Ġsusp": 2792,
      "Ġculture": 2793,
      "osal": 2794,
      "Ġnerv": 2795,
      "Ġsubsequ": 2796,
      "por": 2797,
      "Ġvolume": 2798,
      "ophil": 2799,
      "ense": 2800,
      "Ġdifference": 2801,
      "erest": 2802,
      "ĠRNA": 2803,
      "Ġdiffic": 2804,
      "Ġmyel": 2805,
      "ĠVEGF": 2806,
      "Ġtransplantation": 2807,
      "Ġcirc": 2808,
      "Ġmelanoma": 2809,
      "BC": 2810,
      "ulating": 2811,
      "mediated": 2812,
      "aw": 2813,
      "olic": 2814,
      "Ġtract": 2815,
      "ĠHistopathological": 2816,
      "Ġher": 2817,
      "-time": 2818,
      "Ġpurp": 2819,
      "Ġmort": 2820,
      "Ġpatterns": 2821,
      "amic": 2822,
      "Ġorgans": 2823,
      "Ġinhibitor": 2824,
      "tic": 2825,
      "fusion": 2826,
      "yst": 2827,
      "Ġintrac": 2828,
      "ĠFor": 2829,
      "Ġisolated": 2830,
      "Ġstatist": 2831,
      "Ġantigen": 2832,
      "Ġunc": 2833,
      "Ġantioxidant": 2834,
      "Ġpers": 2835,
      "rate": 2836,
      "app": 2837,
      "Ġgu": 2838,
      "bb": 2839,
      "onance": 2840,
      "Ġrapid": 2841,
      "uration": 2842,
      "-F": 2843,
      "Ġcytoplasm": 2844,
      "Ġsecret": 2845,
      "Ġpathways": 2846,
      "Ġregeneration": 2847,
      "Ġclinically": 2848,
      "ominant": 2849,
      "sing": 2850,
      "Ġstages": 2851,
      "46": 2852,
      "CI": 2853,
      "oring": 2854,
      "ayed": 2855,
      "Ġactivities": 2856,
      "Ġgranul": 2857,
      "Ġrecom": 2858,
      "Ġalone": 2859,
      "ĠTNF": 2860,
      "Ġprotective": 2861,
      "ances": 2862,
      "-free": 2863,
      "OD": 2864,
      "Ġlig": 2865,
      "ĠNF": 2866,
      "BP": 2867,
      "-T": 2868,
      "Ġdepend": 2869,
      "Ġhybrid": 2870,
      "Ġ+": 2871,
      "Ġdifficult": 2872,
      "Ġdog": 2873,
      "kel": 2874,
      "plied": 2875,
      "Ġset": 2876,
      "gn": 2877,
      "ĠPA": 2878,
      "Ġsw": 2879,
      "Ġdesign": 2880,
      "Ġvac": 2881,
      "Ġstrain": 2882,
      "Ġalong": 2883,
      "Ġunknown": 2884,
      "encing": 2885,
      "Ġsubc": 2886,
      "Ġcolorectal": 2887,
      "ivari": 2888,
      "Ġgastro": 2889,
      "Ġresonance": 2890,
      "Ġendoscop": 2891,
      "31": 2892,
      "enchymal": 2893,
      "Ġlight": 2894,
      "oung": 2895,
      "oz": 2896,
      "29": 2897,
      "Ġinfected": 2898,
      "angi": 2899,
      "820": 2900,
      "-I": 2901,
      "Ġbas": 2902,
      "Ġdispl": 2903,
      "Ġhealthy": 2904,
      "ĠHCC": 2905,
      "Ġver": 2906,
      "-grade": 2907,
      "ension": 2908,
      "overy": 2909,
      "ĠHER": 2910,
      "ison": 2911,
      "ronch": 2912,
      "-Î²": 2913,
      "ational": 2914,
      "ms": 2915,
      "pite": 2916,
      "Ġheterogen": 2917,
      "ermal": 2918,
      "owled": 2919,
      "Ġmade": 2920,
      "Ġgreater": 2921,
      "ospit": 2922,
      "andom": 2923,
      "Ġrabb": 2924,
      "ple": 2925,
      "Ġimprove": 2926,
      "ird": 2927,
      "umor": 2928,
      "Ġbiomarkers": 2929,
      "Ġneut": 2930,
      "Ġtemp": 2931,
      "rit": 2932,
      "ĠmiR": 2933,
      "%).": 2934,
      "tered": 2935,
      "Ġhom": 2936,
      "ifest": 2937,
      "ograft": 2938,
      "ults": 2939,
      "Ġmid": 2940,
      "Ġbladder": 2941,
      "-mediated": 2942,
      "Ġcour": 2943,
      "Ġet": 2944,
      "Ġorder": 2945,
      "ps": 2946,
      "Ġcytokines": 2947,
      "Ġaggressive": 2948,
      "Ġmalignancy": 2949,
      "-re": 2950,
      "Ġwhere": 2951,
      "owledge": 2952,
      "Ġconsistent": 2953,
      "ption": 2954,
      "Ġfac": 2955,
      "Ġobj": 2956,
      "33": 2957,
      "itoneal": 2958,
      "Ġach": 2959,
      "Ġrandom": 2960,
      "Ġadd": 2961,
      "Ġoverexpression": 2962,
      "umin": 2963,
      "Ġsigns": 2964,
      "Ġpoint": 2965,
      "Ġwoman": 2966,
      "read": 2967,
      "upt": 2968,
      "Ġkey": 2969,
      "Ġbacter": 2970,
      "omer": 2971,
      "ene": 2972,
      "Ġtog": 2973,
      "Ġmortality": 2974,
      "Ġphase": 2975,
      "Ġtogether": 2976,
      "Ġmainly": 2977,
      "ĠRT": 2978,
      "Ġcur": 2979,
      "Ġmyocard": 2980,
      "ĠCA": 2981,
      "US": 2982,
      "unctions": 2983,
      "ocytic": 2984,
      "Ġfrequently": 2985,
      "eria": 2986,
      "ier": 2987,
      "ulc": 2988,
      "ĠComp": 2989,
      "ĠSp": 2990,
      "eral": 2991,
      "Ġhead": 2992,
      "Ġrates": 2993,
      "LA": 2994,
      "Ġrecogn": 2995,
      "Ġpoly": 2996,
      "Ġcytok": 2997,
      "Ġstructures": 2998,
      "Ġfish": 2999,
      "etes": 3000,
      "Ġsuggests": 3001,
      "omal": 3002,
      "Ġaccumulation": 3003,
      "Ġachiev": 3004,
      "ĠPC": 3005,
      "week": 3006,
      "Ġmethyl": 3007,
      "Ġif": 3008,
      "Ġadip": 3009,
      "ione": 3010,
      "Ġsites": 3011,
      "ysiological": 3012,
      "iat": 3013,
      "Ġlob": 3014,
      "Ġcutaneous": 3015,
      "PD": 3016,
      "ivers": 3017,
      "Ġyoung": 3018,
      "ivariate": 3019,
      "Ġcerebral": 3020,
      "ºB": 3021,
      "Ġmacrophages": 3022,
      "Ġprofil": 3023,
      "ĠUn": 3024,
      "ĠRec": 3025,
      "Ġapplied": 3026,
      "ired": 3027,
      "Ġability": 3028,
      "eg": 3029,
      "Ġthus": 3030,
      "Ġflow": 3031,
      "Ġscre": 3032,
      "rophy": 3033,
      "ospital": 3034,
      "ifferent": 3035,
      "36": 3036,
      "Ġmigration": 3037,
      "Ġast": 3038,
      "Ġblock": 3039,
      "Ġnit": 3040,
      "Ġeven": 3041,
      "ĠHPV": 3042,
      "function": 3043,
      "erate": 3044,
      "Ġmanifest": 3045,
      "cular": 3046,
      "Ġneu": 3047,
      "Ġabdominal": 3048,
      "Ġknowledge": 3049,
      "SS": 3050,
      "Ġextrac": 3051,
      "line": 3052,
      "EC": 3053,
      "ife": 3054,
      "Ġsex": 3055,
      "eratin": 3056,
      "eren": 3057,
      "eat": 3058,
      "Ġfive": 3059,
      "Ġtests": 3060,
      "uble": 3061,
      "Ġvessels": 3062,
      "aryn": 3063,
      "Ġseg": 3064,
      "Ġpept": 3065,
      "Ġapplication": 3066,
      "Ġuter": 3067,
      "inu": 3068,
      "ones": 3069,
      "az": 3070,
      "uvant": 3071,
      "elling": 3072,
      "Ġvisual": 3073,
      "xt": 3074,
      "Ġconducted": 3075,
      "Ġsynt": 3076,
      "Ġtransform": 3077,
      "-derived": 3078,
      "Ġphenotype": 3079,
      "Ġcontaining": 3080,
      "intestinal": 3081,
      "ĠTGF": 3082,
      "Ġunt": 3083,
      "ĠST": 3084,
      "ergic": 3085,
      "Ġmagnetic": 3086,
      "ward": 3087,
      "vas": 3088,
      "Ġshort": 3089,
      "43": 3090,
      "Ġfocus": 3091,
      "Ġvalues": 3092,
      "Ġrest": 3093,
      "Ġcritical": 3094,
      "Ġalthough": 3095,
      "tle": 3096,
      "SCLC": 3097,
      "âĢĬ": 3098,
      "Ġoutcomes": 3099,
      "Ġimplic": 3100,
      "ean": 3101,
      "Ġvers": 3102,
      "ventional": 3103,
      "Ġusually": 3104,
      "Ġprovides": 3105,
      "Ġwid": 3106,
      "Ġess": 3107,
      "DH": 3108,
      "Ġchange": 3109,
      "Ġmarrow": 3110,
      "Ġsaf": 3111,
      "Ġunderstanding": 3112,
      "ĠKi": 3113,
      "Ġprocesses": 3114,
      "ori": 3115,
      "rotic": 3116,
      "Ġlik": 3117,
      "Ġfree": 3118,
      "aspase": 3119,
      "Ġpregn": 3120,
      "rophil": 3121,
      "Ġresistance": 3122,
      "Ġessential": 3123,
      "Ġed": 3124,
      "osarcoma": 3125,
      "Ġleading": 3126,
      "Ġaccording": 3127,
      "Ġdiffuse": 3128,
      "Ġconfirm": 3129,
      "Ġelectron": 3130,
      "ulations": 3131,
      "inally": 3132,
      "Ġnodes": 3133,
      "Ġlayer": 3134,
      "44": 3135,
      "Ġpercent": 3136,
      "Ġglyc": 3137,
      "ĠInt": 3138,
      "75": 3139,
      "ygen": 3140,
      "Ġsuccessful": 3141,
      "Ġinsulin": 3142,
      "Ġextrem": 3143,
      "Ġischemia": 3144,
      "Ġdeliver": 3145,
      "Ġsignificance": 3146,
      "Ġcortex": 3147,
      "Ġplaqu": 3148,
      "Ġactive": 3149,
      "Ġsubtypes": 3150,
      "Ġdisorders": 3151,
      "Ġdoses": 3152,
      "ema": 3153,
      "Ġinitial": 3154,
      "oxyl": 3155,
      "Ġleuk": 3156,
      "oy": 3157,
      "Ġgli": 3158,
      "Ġscore": 3159,
      "ĠIII": 3160,
      "ĠAT": 3161,
      "urg": 3162,
      "32": 3163,
      "Ġwhole": 3164,
      "rod": 3165,
      ");": 3166,
      "Ġulc": 3167,
      "Ġenzyme": 3168,
      "Ġhelp": 3169,
      "SA": 3170,
      "Ġey": 3171,
      "Ġcommonly": 3172,
      "Ġsix": 3173,
      "Ġcomponents": 3174,
      "Ġsubst": 3175,
      "IV": 3176,
      "rocytes": 3177,
      "65": 3178,
      "Ġauto": 3179,
      "omatous": 3180,
      "PE": 3181,
      "Ġfluid": 3182,
      "erated": 3183,
      "Ġbehavior": 3184,
      "Ġpreval": 3185,
      "Ġdysfunction": 3186,
      "Ġphosphory": 3187,
      "Ġmm": 3188,
      "To": 3189,
      "Ġpresentation": 3190,
      "Ġamel": 3191,
      "Ġdegeneration": 3192,
      "arb": 3193,
      "PT": 3194,
      "Ġtherefore": 3195,
      "Ġinduction": 3196,
      "ld": 3197,
      "ork": 3198,
      "Ġtesting": 3199,
      "Ġsecondary": 3200,
      "urn": 3201,
      "respond": 3202,
      "ferase": 3203,
      "ĠÎ¼": 3204,
      "Ġlater": 3205,
      "enced": 3206,
      "Ġabsence": 3207,
      "Ġregulation": 3208,
      "ubl": 3209,
      "LR": 3210,
      "ences": 3211,
      "imes": 3212,
      "ulate": 3213,
      "Ġpurpose": 3214,
      "Ġcourse": 3215,
      "Ġrecently": 3216,
      "Ġtrial": 3217,
      "rolog": 3218,
      "ogenous": 3219,
      "light": 3220,
      "IHC": 3221,
      "Ġpromising": 3222,
      "Ġrequired": 3223,
      "lt": 3224,
      "imen": 3225,
      "Ġfailure": 3226,
      "uture": 3227,
      "Ġinduce": 3228,
      "Ġrelease": 3229,
      "Ġassays": 3230,
      "ended": 3231,
      "ooth": 3232,
      "EL": 3233,
      "Ġrecent": 3234,
      "ss": 3235,
      "GA": 3236,
      "epithel": 3237,
      "Ġarch": 3238,
      "omorph": 3239,
      "Ġonc": 3240,
      "ophage": 3241,
      "veolar": 3242,
      "Ġreports": 3243,
      "ĠHe": 3244,
      "Ġspecificity": 3245,
      "Ġequ": 3246,
      "ocol": 3247,
      "Ġchalleng": 3248,
      "Ġbasal": 3249,
      "Ġimmunoreact": 3250,
      "Ġcriteria": 3251,
      "ophageal": 3252,
      "Ġrange": 3253,
      "Ġestim": 3254,
      "Ġplays": 3255,
      "Ġresulting": 3256,
      "BV": 3257,
      "activ": 3258,
      "rog": 3259,
      "angl": 3260,
      "Ġgerm": 3261,
      "Ġsil": 3262,
      "Ġhistologic": 3263,
      "Ġmonit": 3264,
      "Ġchildren": 3265,
      "Ġfamily": 3266,
      "Ġtreatments": 3267,
      "Ġfield": 3268,
      "ĠUsing": 3269,
      "Ġextracellular": 3270,
      "Ġdefects": 3271,
      "iform": 3272,
      "ohort": 3273,
      "ĠCon": 3274,
      "ometry": 3275,
      "-r": 3276,
      "Ġneck": 3277,
      "-n": 3278,
      "ĠEn": 3279,
      "Ġartery": 3280,
      "Ġglucose": 3281,
      "Ġstromal": 3282,
      "ancer": 3283,
      "Ġknock": 3284,
      "ales": 3285,
      "ulf": 3286,
      "Ġprogressive": 3287,
      "Ġwould": 3288,
      "ĠCa": 3289,
      "Ġnat": 3290,
      "ling": 3291,
      "Ġgiven": 3292,
      "42": 3293,
      "Ġprote": 3294,
      "Ġenhance": 3295,
      "Ġdiabetes": 3296,
      "ĠIV": 3297,
      "Ġtoxic": 3298,
      "yloid": 3299,
      "Ġgood": 3300,
      "Ġhost": 3301,
      "Ġrh": 3302,
      "Ġanat": 3303,
      "Ġglomer": 3304,
      "Ġcauses": 3305,
      "Ġfibroblast": 3306,
      "ographic": 3307,
      "ĠBR": 3308,
      "Ġenvironment": 3309,
      "Ġfunctions": 3310,
      "Ġradiation": 3311,
      "uces": 3312,
      "oprotein": 3313,
      "NT": 3314,
      "Ġcm": 3315,
      "ĠCC": 3316,
      "aser": 3317,
      "yg": 3318,
      "Ġgeneral": 3319,
      "Ġcontribute": 3320,
      "Ġsignal": 3321,
      "Ġultrasound": 3322,
      "Ġfrequency": 3323,
      "Ġcomparison": 3324,
      "ES": 3325,
      "This": 3326,
      "37": 3327,
      "Ġcomponent": 3328,
      "BL": 3329,
      "Ġthem": 3330,
      "athione": 3331,
      "iving": 3332,
      "Ġfibers": 3333,
      "BA": 3334,
      "Ġdig": 3335,
      "rior": 3336,
      "EM": 3337,
      "Ġcohort": 3338,
      "Ġmesenchymal": 3339,
      "Ġremod": 3340,
      "Ġdefined": 3341,
      "group": 3342,
      "Ġparticularly": 3343,
      "Ġlikely": 3344,
      "FS": 3345,
      "ÃĹ": 3346,
      "Ġmitochond": 3347,
      "Ġampl": 3348,
      "Ġinjected": 3349,
      "phal": 3350,
      "Ġhere": 3351,
      "Ġagents": 3352,
      "oratory": 3353,
      "Ġdiamet": 3354,
      "romb": 3355,
      "Ġimage": 3356,
      "ĠQ": 3357,
      "inked": 3358,
      "Ġagent": 3359,
      "Ġgastrointestinal": 3360,
      "47": 3361,
      "Ġcav": 3362,
      "Ġsarc": 3363,
      "Ġconventional": 3364,
      "Ġglands": 3365,
      "Ġneoplasms": 3366,
      "Ġhybridization": 3367,
      "Ġadditional": 3368,
      "Ġconn": 3369,
      "/c": 3370,
      "clear": 3371,
      "Ġdogs": 3372,
      "Ġcorrespond": 3373,
      "Ġster": 3374,
      "Ġpolyp": 3375,
      "Ġda": 3376,
      "ĠBM": 3377,
      "Ġretrosp": 3378,
      "ĠPat": 3379,
      "Ġscaffolds": 3380,
      ".,": 3381,
      "orrh": 3382,
      "Ġmechanical": 3383,
      "Ġrecovery": 3384,
      "ements": 3385,
      "68": 3386,
      "Ġple": 3387,
      "Ġair": 3388,
      "ĠAddition": 3389,
      "ĠMT": 3390,
      "ining": 3391,
      "ortic": 3392,
      "Ġdrugs": 3393,
      "Ġhypox": 3394,
      "oids": 3395,
      "Ġmarg": 3396,
      "Ġpatholog": 3397,
      "HR": 3398,
      "Ġpress": 3399,
      "Ġrelative": 3400,
      "Ġload": 3401,
      "Ġexpressions": 3402,
      "ina": 3403,
      "Ġunclear": 3404,
      "Ġhighlight": 3405,
      "rated": 3406,
      "ingu": 3407,
      "ĠResults": 3408,
      "iology": 3409,
      "idate": 3410,
      "Ġcompound": 3411,
      "Ġpract": 3412,
      "Ġamin": 3413,
      "Ġeng": 3414,
      "Ġcystic": 3415,
      "Ġcontinu": 3416,
      "Ġbronch": 3417,
      "Ġwhite": 3418,
      "Ġear": 3419,
      "Ġcross": 3420,
      "Ġlocated": 3421,
      "Ġendometrial": 3422,
      "Ġinvestigation": 3423,
      "ofib": 3424,
      "hyd": 3425,
      "Ġrout": 3426,
      "Ġdelivery": 3427,
      "Ġunderg": 3428,
      "Ġventric": 3429,
      "itect": 3430,
      "Ġmedian": 3431,
      "ĠWh": 3432,
      "Ġobjective": 3433,
      "Ġversus": 3434,
      "%.": 3435,
      "Ġprotocol": 3436,
      "Ġproduced": 3437,
      "Ġaltern": 3438,
      "itu": 3439,
      "otoxicity": 3440,
      "Ġlife": 3441,
      "Ġjoint": 3442,
      "ĠY": 3443,
      "Ġnervous": 3444,
      "Ġglutathione": 3445,
      "Ġindicating": 3446,
      "aden": 3447,
      "Ġamount": 3448,
      "EN": 3449,
      "Ġsem": 3450,
      "Ġincreases": 3451,
      "OC": 3452,
      "Ġadjacent": 3453,
      "edd": 3454,
      "Ġnecess": 3455,
      "Ġcaspase": 3456,
      "Ġconstr": 3457,
      "Ġoccurred": 3458,
      "BD": 3459,
      "inated": 3460,
      "Ġprior": 3461,
      "Ġold": 3462,
      "Ġpolymerase": 3463,
      "ii": 3464,
      "Ġstained": 3465,
      "Ġcharacteristic": 3466,
      "Ġendometri": 3467,
      "plastic": 3468,
      "Ġexcision": 3469,
      "Ġfluorescence": 3470,
      "keletal": 3471,
      "Ġseries": 3472,
      "oxylin": 3473,
      "Ġneutrophil": 3474,
      "Ġdifferentiated": 3475,
      "Ġlocalization": 3476,
      "IN": 3477,
      "Ġhormone": 3478,
      "Ġimportance": 3479,
      "roscopic": 3480,
      "ĠIgG": 3481,
      "Ġadhes": 3482,
      "rang": 3483,
      "UC": 3484,
      "Ġcycle": 3485,
      "oflu": 3486,
      "Ġthickness": 3487,
      "Ġseverity": 3488,
      "ocellular": 3489,
      "ĠClin": 3490,
      "-B": 3491,
      "SF": 3492,
      "Ġmetabolic": 3493,
      "Ġcal": 3494,
      "Ġanter": 3495,
      "ogl": 3496,
      "Ġmedic": 3497,
      "ĠEGFR": 3498,
      "-negative": 3499,
      "affin": 3500,
      "leu": 3501,
      "Ġtherapies": 3502,
      "Ġpubl": 3503,
      "Ġlaser": 3504,
      "fficient": 3505,
      "clerosis": 3506,
      "Ġaltered": 3507,
      "leukin": 3508,
      "Ġlum": 3509,
      "Ġwestern": 3510,
      "Ġplacent": 3511,
      "Ġprofile": 3512,
      "PR": 3513,
      "63": 3514,
      "Ġperformance": 3515,
      "Ġdent": 3516,
      "Ġdetail": 3517,
      "Ġinfluence": 3518,
      "Ġpredictive": 3519,
      "-R": 3520,
      "AM": 3521,
      "-ÎºB": 3522,
      "Ġsac": 3523,
      "Ġexamine": 3524,
      "Ġsple": 3525,
      "Ġidentification": 3526,
      "ĠGroup": 3527,
      "ĠBoth": 3528,
      "ites": 3529,
      "Ġsubcutaneous": 3530,
      "Ġcomputed": 3531,
      "Ġselected": 3532,
      "Ġtreat": 3533,
      "thritis": 3534,
      "iagn": 3535,
      "Ġside": 3536,
      "Ġbasis": 3537,
      "Ġinclude": 3538,
      "iments": 3539,
      "GC": 3540,
      "rat": 3541,
      "ĠPR": 3542,
      "Ġdaily": 3543,
      "ried": 3544,
      "Ġpredominant": 3545,
      "ĠNe": 3546,
      "Ġderived": 3547,
      "Ġdeveloping": 3548,
      "fected": 3549,
      "ompan": 3550,
      "Ġabnormalities": 3551,
      "-regulated": 3552,
      "Ġnuclei": 3553,
      "Ġdiameter": 3554,
      "Ġmen": 3555,
      "72": 3556,
      "Ġupper": 3557,
      "oxide": 3558,
      "Ġphot": 3559,
      "Ġcortical": 3560,
      "Ġquality": 3561,
      "Ġsum": 3562,
      "mission": 3563,
      "Ġwidely": 3564,
      "Ġhyperplasia": 3565,
      "Ġangiogenesis": 3566,
      "isc": 3567,
      "oblastoma": 3568,
      "epithelial": 3569,
      "ercul": 3570,
      "Ġtrig": 3571,
      "urine": 3572,
      "ontrol": 3573,
      "rum": 3574,
      "Ġenzymes": 3575,
      "Ġpressure": 3576,
      "ucts": 3577,
      "Ġdisorder": 3578,
      "-exp": 3579,
      "Ġmild": 3580,
      "Ġrol": 3581,
      "ectin": 3582,
      "Ġsurround": 3583,
      "Ġparas": 3584,
      "SI": 3585,
      "Ġaccompan": 3586,
      "iratory": 3587,
      "Ġrelevant": 3588,
      "Ġled": 3589,
      "Ġdegree": 3590,
      "Ġnucleus": 3591,
      "Ġclinicopathological": 3592,
      "vasive": 3593,
      "49": 3594,
      "Ġgo": 3595,
      "Ġintrap": 3596,
      "resh": 3597,
      "/day": 3598,
      "Ġcultured": 3599,
      "Ġpoorly": 3600,
      "ransferase": 3601,
      "iveness": 3602,
      "pri": 3603,
      "Ġestablish": 3604,
      "Ġperm": 3605,
      "enge": 3606,
      "Ġviral": 3607,
      "Ġmetabolism": 3608,
      "ique": 3609,
      "/-)": 3610,
      "Ġeth": 3611,
      "Ġmedical": 3612,
      "Ġsolid": 3613,
      "Ġdeposition": 3614,
      "ives": 3615,
      "Ġimpair": 3616,
      "Ġbel": 3617,
      "ertain": 3618,
      "BI": 3619,
      "Ġactivated": 3620,
      "ilit": 3621,
      "Ġeosinophil": 3622,
      "Ġaccuracy": 3623,
      "Ġdom": 3624,
      "Ġlungs": 3625,
      "Ġhumans": 3626,
      "Ġproposed": 3627,
      "Ġfrequent": 3628,
      "fact": 3629,
      "Ġimmunos": 3630,
      "Ġtesticular": 3631,
      "Ġsubtype": 3632,
      "osing": 3633,
      "ke": 3634,
      "ival": 3635,
      "56": 3636,
      "genic": 3637,
      "ument": 3638,
      "ĠOne": 3639,
      "opic": 3640,
      "ru": 3641,
      "Ġure": 3642,
      "Ġprocedure": 3643,
      "Ġoccurs": 3644,
      "Ġatypical": 3645,
      "NOS": 3646,
      "Ġmening": 3647,
      "Ġcolitis": 3648,
      "Ġcarb": 3649,
      "âī": 3650,
      "Ġsepar": 3651,
      "Ġattenuated": 3652,
      "aries": 3653,
      "cine": 3654,
      "Ġsaline": 3655,
      "ruct": 3656,
      "Ġpotentially": 3657,
      "Ġtargeted": 3658,
      "Ġnodules": 3659,
      "otyp": 3660,
      "Ġlocation": 3661,
      "ximately": 3662,
      "Ġexcl": 3663,
      "Ġoff": 3664,
      "Ġmedi": 3665,
      "Ġmim": 3666,
      "ytic": 3667,
      "ĠLPS": 3668,
      "utes": 3669,
      "Ġsubsequent": 3670,
      "Ġspermat": 3671,
      "immune": 3672,
      "Ġonset": 3673,
      "Ġadverse": 3674,
      "Ġstrongly": 3675,
      "Ġleast": 3676,
      "rophic": 3677,
      "-th": 3678,
      "Ġlocalized": 3679,
      "Ġsarcoma": 3680,
      "Ġfocal": 3681,
      "Ġrecurrent": 3682,
      "Ġblotting": 3683,
      "Ġshows": 3684,
      "istic": 3685,
      "onad": 3686,
      "Ġstructural": 3687,
      "Ġamyloid": 3688,
      "stitial": 3689,
      "Ġroles": 3690,
      "Ġstrategy": 3691,
      "erence": 3692,
      "Ġspleen": 3693,
      "neum": 3694,
      "Ġmolecules": 3695,
      "Ġyet": 3696,
      "Ġanterior": 3697,
      "SD": 3698,
      "ĠCK": 3699,
      "Ġpapillary": 3700,
      "Ġthromb": 3701,
      "osomal": 3702,
      "renal": 3703,
      "Ġcomplications": 3704,
      "Ġprevalence": 3705,
      "39": 3706,
      "Ġfuture": 3707,
      "Ġcompare": 3708,
      "ancies": 3709,
      "ISH": 3710,
      "UN": 3711,
      "ocomp": 3712,
      "arv": 3713,
      "Ġhospital": 3714,
      "Ġbiomarker": 3715,
      "Ġvariant": 3716,
      "Ġregression": 3717,
      "Ġdistingu": 3718,
      "ovascular": 3719,
      "Ġmucosal": 3720,
      "Ġsmooth": 3721,
      "-G": 3722,
      "mitted": 3723,
      "Ġbenef": 3724,
      "Ġcare": 3725,
      "Ġstatistically": 3726,
      "Ġeluc": 3727,
      "ire": 3728,
      "aches": 3729,
      "Ġtypical": 3730,
      "Ġinvolving": 3731,
      "Ġsumm": 3732,
      "Ġ&#": 3733,
      "Ġaround": 3734,
      "ength": 3735,
      "Ġcarried": 3736,
      "Ġintensity": 3737,
      "Ġhepatitis": 3738,
      "Ġbinding": 3739,
      "Ġchallenge": 3740,
      "Ġprep": 3741,
      "Ġexperiments": 3742,
      "HO": 3743,
      "vascular": 3744,
      "take": 3745,
      "istar": 3746,
      "Ġrelatively": 3747,
      "rological": 3748,
      "Ġreli": 3749,
      "uded": 3750,
      "Ġremain": 3751,
      "GE": 3752,
      "Ġpersist": 3753,
      "ĠPI": 3754,
      "edded": 3755,
      "PO": 3756,
      "emat": 3757,
      "Ġremodeling": 3758,
      "enin": 3759,
      "work": 3760,
      "ern": 3761,
      "Ġunique": 3762,
      "Ġmicroar": 3763,
      "PN": 3764,
      "Ġproport": 3765,
      "Ġpe": 3766,
      "Ġsystems": 3767,
      "Ġamelior": 3768,
      "Ġauth": 3769,
      "Ġmyocardial": 3770,
      "ĠCO": 3771,
      "Ġshowing": 3772,
      "Ġdefin": 3773,
      "-res": 3774,
      "Ġexist": 3775,
      "Ġrecord": 3776,
      "Ġneurop": 3777,
      "Ġsegment": 3778,
      "acity": 3779,
      "otypes": 3780,
      "Ġperoxid": 3781,
      "ĠNSCLC": 3782,
      "Ġinterleukin": 3783,
      "Ġabund": 3784,
      "Ġlymphocytes": 3785,
      "aired": 3786,
      "Ġretinal": 3787,
      "priate": 3788,
      "rant": 3789,
      "Ġextent": 3790,
      "Ġtrac": 3791,
      "Ġuptake": 3792,
      "Ġreproductive": 3793,
      "iatric": 3794,
      ";&#": 3795,
      "iol": 3796,
      "Ġregarding": 3797,
      "Ġrecomm": 3798,
      "Ġ.": 3799,
      "onin": 3800,
      "ention": 3801,
      "Ġpresenting": 3802,
      "ommon": 3803,
      "Ġdev": 3804,
      "Ġhighest": 3805,
      "Ġspat": 3806,
      "ranial": 3807,
      "Ġfed": 3808,
      "urs": 3809,
      "Ġexperi": 3810,
      "Ġcalcium": 3811,
      "Ġxen": 3812,
      "Ġappearance": 3813,
      "Ġ>": 3814,
      "Ġtop": 3815,
      "55": 3816,
      "Ġstrategies": 3817,
      "way": 3818,
      "Ġsupplement": 3819,
      "Ġimprovement": 3820,
      "Ġbest": 3821,
      "Ġfemales": 3822,
      "Ġarchitect": 3823,
      "Ġalb": 3824,
      "anning": 3825,
      "Ġdermat": 3826,
      "Ġoxygen": 3827,
      "platin": 3828,
      "ĠAdditionally": 3829,
      "Ġcytokine": 3830,
      "iary": 3831,
      "/R": 3832,
      "Ġextensive": 3833,
      "Ġmethylation": 3834,
      "usions": 3835,
      "Ġfatty": 3836,
      "Ġendoscopic": 3837,
      "Ġproble": 3838,
      "ascul": 3839,
      "oscopy": 3840,
      "ĠWistar": 3841,
      "prot": 3842,
      "Ġestrogen": 3843,
      "Ġnumbers": 3844,
      "Ġparaffin": 3845,
      ">-": 3846,
      "ĠIF": 3847,
      "ane": 3848,
      "Ġgangl": 3849,
      "Ġbilateral": 3850,
      "IT": 3851,
      "Ġpharm": 3852,
      "itional": 3853,
      "clin": 3854,
      "ofluorescence": 3855,
      "Ġfract": 3856,
      "Ġmajority": 3857,
      "Ġinfections": 3858,
      "ament": 3859,
      "Ġhippocampus": 3860,
      "rier": 3861,
      "eta": 3862,
      "Ġcand": 3863,
      "Ġdoc": 3864,
      "Ġtoward": 3865,
      "Ġseem": 3866,
      "ferred": 3867,
      "Ġnanop": 3868,
      "Ġreduce": 3869,
      "Ġable": 3870,
      "Ġrefl": 3871,
      "eared": 3872,
      "Ġnet": 3873,
      "uclear": 3874,
      "sc": 3875,
      "orn": 3876,
      "ĠCX": 3877,
      "Ġprovided": 3878,
      "eled": 3879,
      "Ġinterest": 3880,
      "verage": 3881,
      "Ġreactive": 3882,
      "Ġhow": 3883,
      "iot": 3884,
      "Ġsubjected": 3885,
      "Ġneoplastic": 3886,
      "Ġworld": 3887,
      "Ġextra": 3888,
      "Ġhypothes": 3889,
      "Ġscreening": 3890,
      "Ġurinary": 3891,
      "AR": 3892,
      "Ġrespiratory": 3893,
      "Ġphysiological": 3894,
      "Ġinterval": 3895,
      "Ġport": 3896,
      "Ġradiotherapy": 3897,
      "ĠTwo": 3898,
      "Ġlate": 3899,
      "Ġextremely": 3900,
      "Ġremo": 3901,
      "Ġimmunoreactivity": 3902,
      "ats": 3903,
      "Ġpreserv": 3904,
      "Ġplat": 3905,
      "Ġmicroscopic": 3906,
      "Ġintraper": 3907,
      "AA": 3908,
      "ximal": 3909,
      "IR": 3910,
      "Ġneeded": 3911,
      "Ġbr": 3912,
      "Ġmoderate": 3913,
      "Ġphys": 3914,
      "bs": 3915,
      "Ġpartial": 3916,
      "seud": 3917,
      "iological": 3918,
      "hetic": 3919,
      "Ġspecimen": 3920,
      "Ġoxide": 3921,
      "Ġnatural": 3922,
      "opathology": 3923,
      "eb": 3924,
      "adher": 3925,
      "Ġclassified": 3926,
      "ving": 3927,
      "orption": 3928,
      "Ġlaboratory": 3929,
      "MR": 3930,
      "Ġmotor": 3931,
      "Ġconstit": 3932,
      "ĠBy": 3933,
      "Ġpercentage": 3934,
      "Ġneural": 3935,
      "Ġlittle": 3936,
      "Ġaccompanied": 3937,
      "Ġpostoperative": 3938,
      "ellar": 3939,
      "Ġcurrently": 3940,
      "ĠPatients": 3941,
      "Ġradiological": 3942,
      "atenin": 3943,
      "Ġsequencing": 3944,
      "Ġmales": 3945,
      "Ġepidermal": 3946,
      "Ġimplantation": 3947,
      "ontaneous": 3948,
      "esterol": 3949,
      "Ġadhesion": 3950,
      "Ġlast": 3951,
      "lor": 3952,
      "ĠAp": 3953,
      "ours": 3954,
      "Ġcreat": 3955,
      "occ": 3956,
      "Ġprofiles": 3957,
      "PP": 3958,
      "Ġimmunost": 3959,
      "NK": 3960,
      "Ġadjuvant": 3961,
      "Ġpeptide": 3962,
      "Ġcomposed": 3963,
      "Ġinhibitors": 3964,
      "Ġauthors": 3965,
      "Ġresected": 3966,
      "ĠPre": 3967,
      "Ġapproaches": 3968,
      "Ġdegrad": 3969,
      "jection": 3970,
      "Ġmurine": 3971,
      "Ġpancreas": 3972,
      "Ġnanopart": 3973,
      "aking": 3974,
      "agon": 3975,
      "ters": 3976,
      "Ġbio": 3977,
      "Ġthough": 3978,
      "Ġcapacity": 3979,
      "alin": 3980,
      "85": 3981,
      "hydro": 3982,
      "Ġpregnancy": 3983,
      "Ġesophageal": 3984,
      "Ġnoted": 3985,
      "arily": 3986,
      "hicle": 3987,
      "Ġchann": 3988,
      "Ġsens": 3989,
      "Ġeff": 3990,
      "Ġreviewed": 3991,
      "inc": 3992,
      "Ġrandomly": 3993,
      "Ġhepatocellular": 3994,
      "Ġped": 3995,
      "adherin": 3996,
      "Ġsection": 3997,
      "Ġmarkedly": 3998,
      "/L": 3999,
      "den": 4000,
      "ese": 4001,
      "romet": 4002,
      "ower": 4003,
      "Ġreconstr": 4004,
      "Ġthroughout": 4005,
      "Ġrabbits": 4006,
      "Ġalpha": 4007,
      "Ġdisr": 4008,
      "Ġsuppressed": 4009,
      "Ġtimes": 4010,
      "Ġaction": 4011,
      "Ġengine": 4012,
      "Ġapoptotic": 4013,
      "Ġpal": 4014,
      "Ġintervent": 4015,
      "Ġachieved": 4016,
      "ĠWith": 4017,
      "ĠRA": 4018,
      "eline": 4019,
      "Ġalternative": 4020,
      "Ġlateral": 4021,
      "pat": 4022,
      "DM": 4023,
      "days": 4024,
      "aring": 4025,
      "Ġintest": 4026,
      "NM": 4027,
      "ĠDes": 4028,
      "Ġdesigned": 4029,
      "onia": 4030,
      "Ġscores": 4031,
      "Ġundergo": 4032,
      "Ġcavity": 4033,
      "Ġcorresponding": 4034,
      "Ġsuscept": 4035,
      "iant": 4036,
      "odium": 4037,
      "Ġinfiltr": 4038,
      "EG": 4039,
      "Ġfacilit": 4040,
      "Ġmitochondrial": 4041,
      "inous": 4042,
      "Ġhair": 4043,
      "Ġexplore": 4044,
      "Ġnecessary": 4045,
      "ched": 4046,
      "inine": 4047,
      "utive": 4048,
      "Ġmanner": 4049,
      "(-/-)": 4050,
      "PCR": 4051,
      "Ġlimit": 4052,
      "ĠCRC": 4053,
      "orad": 4054,
      "ĠPET": 4055,
      "yr": 4056,
      "Ġconsider": 4057,
      "Ġgonad": 4058,
      "isp": 4059,
      "umerous": 4060,
      "Ġuncommon": 4061,
      "anol": 4062,
      "Ġappropriate": 4063,
      "orac": 4064,
      "Ġhand": 4065,
      "Ġsour": 4066,
      "Ġfav": 4067,
      "Ġdors": 4068,
      "orescent": 4069,
      "ifferentiated": 4070,
      "Ġaccurate": 4071,
      "Ġstimulation": 4072,
      "41": 4073,
      "-sm": 4074,
      "Ġdisplayed": 4075,
      "ators": 4076,
      "au": 4077,
      "Ġinfar": 4078,
      "DG": 4079,
      "Ġlat": 4080,
      "Ġcop": 4081,
      "icul": 4082,
      "ypt": 4083,
      "geal": 4084,
      "Ġfetal": 4085,
      "Ġbro": 4086,
      "Ġirrad": 4087,
      "Ġhemorrh": 4088,
      "Ġuterine": 4089,
      "Ġreverse": 4090,
      "Ġglioma": 4091,
      "Ġwide": 4092,
      "ISA": 4093,
      "active": 4094,
      "Ġmixed": 4095,
      "CH": 4096,
      "Ġheterogeneous": 4097,
      "Ġentity": 4098,
      "BS": 4099,
      "Ġsensitive": 4100,
      "Ġgel": 4101,
      "Ġcytology": 4102,
      "ĠĠĠĠĠĠĠĠĠĠĠĠ": 4103,
      "Ġswelling": 4104,
      "aged": 4105,
      "Ġfollicular": 4106,
      "Ġindividuals": 4107,
      "emic": 4108,
      "Ġaccount": 4109,
      "Ġdistal": 4110,
      "LP": 4111,
      "ĠOver": 4112,
      "Ġdelet": 4113,
      "Ġsaliv": 4114,
      "Ġnetwork": 4115,
      "Ġcruc": 4116,
      "ĠMR": 4117,
      "Ġremained": 4118,
      "Ġapproximately": 4119,
      "Ġaspir": 4120,
      "Ġautoimmune": 4121,
      "atase": 4122,
      "Ġmature": 4123,
      "Ġdoes": 4124,
      "Ġskeletal": 4125,
      "clusion": 4126,
      "Ġsubjects": 4127,
      "opo": 4128,
      "ley": 4129,
      "Ġhypoxia": 4130,
      "erculosis": 4131,
      "Ġsubstant": 4132,
      "Ġtargets": 4133,
      "Ġpneum": 4134,
      "Ġneurot": 4135,
      "Ġevents": 4136,
      "Ġdyn": 4137,
      "Ġvariety": 4138,
      "Ġsince": 4139,
      "Ġgenerated": 4140,
      "athy": 4141,
      "isplatin": 4142,
      "ĠOS": 4143,
      "ingly": 4144,
      "Ġdeep": 4145,
      "Ġnasal": 4146,
      "amide": 4147,
      "Ġble": 4148,
      "Ġhypothesis": 4149,
      "endocrine": 4150,
      "Ġarticle": 4151,
      "iRNA": 4152,
      "LT": 4153,
      "EA": 4154,
      "dle": 4155,
      "78": 4156,
      "Ġtubular": 4157,
      "Ġbar": 4158,
      "ĠFinally": 4159,
      "âĢ¯": 4160,
      "dehyd": 4161,
      "Ġspontaneous": 4162,
      "Ġweak": 4163,
      "Ġacet": 4164,
      "wide": 4165,
      "Ġrevers": 4166,
      "Ġsinus": 4167,
      "+</": 4168,
      "Ġsteat": 4169,
      "ĠAR": 4170,
      "oglob": 4171,
      "Ġrarely": 4172,
      "avage": 4173,
      "mm": 4174,
      "illed": 4175,
      "ĠBased": 4176,
      "ened": 4177,
      "Ġphosphorylation": 4178,
      "less": 4179,
      "ĠHistologically": 4180,
      "Ġrepresents": 4181,
      "ves": 4182,
      "Ġimm": 4183,
      "Ġdat": 4184,
      "ĠGA": 4185,
      "Ġradical": 4186,
      "Ġpromoter": 4187,
      "Ġinterstitial": 4188,
      "ream": 4189,
      "Ġsuppress": 4190,
      "orbid": 4191,
      "other": 4192,
      "Ġfung": 4193,
      "Ġsample": 4194,
      "Ġroutine": 4195,
      "oration": 4196,
      "Ġunus": 4197,
      "Ġupregulated": 4198,
      "Ps": 4199,
      "Ġdon": 4200,
      "ĠTreatment": 4201,
      "dehyde": 4202,
      "Ġtaken": 4203,
      "Ġpolymorph": 4204,
      "Ġfrag": 4205,
      "Ġformed": 4206,
      "oprot": 4207,
      "irus": 4208,
      "ĠTR": 4209,
      "ices": 4210,
      "aryngeal": 4211,
      "MC": 4212,
      "Ġsecretion": 4213,
      "issue": 4214,
      "Ġdirectly": 4215,
      "mediate": 4216,
      "coh": 4217,
      "Ġtestis": 4218,
      "62": 4219,
      "99": 4220,
      "Ġthym": 4221,
      "-fold": 4222,
      "-N": 4223,
      "LE": 4224,
      "177": 4225,
      "Ġvascul": 4226,
      "-to": 4227,
      "-catenin": 4228,
      "Ġalveolar": 4229,
      "Ġfibrous": 4230,
      "Ġpen": 4231,
      "Ġpharmac": 4232,
      "Ġinn": 4233,
      "Ġsham": 4234,
      "Ġconsequ": 4235,
      "oden": 4236,
      "ĠSer": 4237,
      "-en": 4238,
      "Ġutil": 4239,
      "ĠAm": 4240,
      "Ġtargeting": 4241,
      "ogenetic": 4242,
      "obacter": 4243,
      "overed": 4244,
      "Ġsuccessfully": 4245,
      "Ġarchitecture": 4246,
      "Ġscar": 4247,
      "ometric": 4248,
      "larg": 4249,
      "eal": 4250,
      "Ġ(<": 4251,
      "ploy": 4252,
      "Ġischemic": 4253,
      "ĠTLR": 4254,
      "Ġemerg": 4255,
      "Ġpaper": 4256,
      "Ġremoved": 4257,
      "Ġlarger": 4258,
      "uoden": 4259,
      "ĠÂ": 4260,
      "Ġexaminations": 4261,
      "mal": 4262,
      "Ġconclude": 4263,
      "ĠMic": 4264,
      "Ġdecreas": 4265,
      "ifically": 4266,
      "Ġfollicles": 4267,
      "Ġtrials": 4268,
      "Ġ'": 4269,
      "Ġfusion": 4270,
      "Ġlike": 4271,
      "Ġlength": 4272,
      "Ġobservations": 4273,
      "-e": 4274,
      "Ġolig": 4275,
      "Ġhematoxylin": 4276,
      "oro": 4277,
      ":</": 4278,
      "Ġful": 4279,
      "Ġvehicle": 4280,
      "ĠOf": 4281,
      "Ġmedium": 4282,
      "Ġthird": 4283,
      "rotid": 4284,
      "DC": 4285,
      "Ġtraum": 4286,
      "Ġtransl": 4287,
      "roscopy": 4288,
      "Ġoccurrence": 4289,
      "Ġedema": 4290,
      "UT": 4291,
      "ables": 4292,
      "Ġanalyze": 4293,
      "Ġneurological": 4294,
      "Ġgross": 4295,
      "Ġsurrounding": 4296,
      "ĠInc": 4297,
      "Ġven": 4298,
      "Ġadults": 4299,
      "Ġill": 4300,
      "Ġroot": 4301,
      "Ġforms": 4302,
      "natal": 4303,
      "Ġconj": 4304,
      "Ġchemical": 4305,
      "Ġmineral": 4306,
      "Ġscan": 4307,
      "apse": 4308,
      "aline": 4309,
      "ĠAmong": 4310,
      "66": 4311,
      "HA": 4312,
      "Ġupon": 4313,
      "Ġunusual": 4314,
      "Ġperi": 4315,
      "LN": 4316,
      "apa": 4317,
      "Ġsmok": 4318,
      "Ġpopulations": 4319,
      "Ġmicrogl": 4320,
      "Ġdouble": 4321,
      "Ġcompr": 4322,
      "-mon": 4323,
      "let": 4324,
      "Ġmalignancies": 4325,
      "izes": 4326,
      "thel": 4327,
      "Ġsuspected": 4328,
      "Ġcytoplasmic": 4329,
      "Ġclus": 4330,
      "Ġathe": 4331,
      "Ġfibroblasts": 4332,
      "Ġmast": 4333,
      "ĠEL": 4334,
      "ĠBec": 4335,
      "ĠWhile": 4336,
      "Ġspind": 4337,
      "osterior": 4338,
      "Ġpapill": 4339,
      "PM": 4340,
      "Ġmediated": 4341,
      "Ġcompletely": 4342,
      "Ġmetall": 4343,
      "Ġkidneys": 4344,
      "Ġspl": 4345,
      "Ġpigs": 4346,
      "pret": 4347,
      "Ġcysts": 4348,
      "))": 4349,
      "Ġstart": 4350,
      "arent": 4351,
      "imensional": 4352,
      "Ġstaging": 4353,
      "Ġexcept": 4354,
      "88": 4355,
      "Ġdied": 4356,
      "Ġmem": 4357,
      "urb": 4358,
      "Ġimplants": 4359,
      "anth": 4360,
      "Al": 4361,
      "-cadherin": 4362,
      "Ġresolution": 4363,
      "Ġcho": 4364,
      "by": 4365,
      "osome": 4366,
      "upp": 4367,
      "down": 4368,
      "Ġpyl": 4369,
      "Ġbeta": 4370,
      "inate": 4371,
      "Ġunderstood": 4372,
      "Ġdiscussed": 4373,
      "Ġenlarg": 4374,
      "ecting": 4375,
      "most": 4376,
      "ĠThey": 4377,
      "Ġinst": 4378,
      "Ġduration": 4379,
      "idine": 4380,
      "Ġmeta": 4381,
      "mia": 4382,
      "Ġrepl": 4383,
      "Ġclos": 4384,
      "96": 4385,
      "Ġkeratin": 4386,
      "Ġspatial": 4387,
      "52": 4388,
      "Ġiron": 4389,
      "Ġpret": 4390,
      "Ġcry": 4391,
      "ituitary": 4392,
      "Ġintestine": 4393,
      "ĠDM": 4394,
      "Ġsubm": 4395,
      "Ġterms": 4396,
      "Ġpromote": 4397,
      "PI": 4398,
      "icip": 4399,
      "isms": 4400,
      "ĠWT": 4401,
      "Ġdysplasia": 4402,
      "estr": 4403,
      "Ġmammary": 4404,
      "Ġsetting": 4405,
      "Ġlabeling": 4406,
      "NPs": 4407,
      "Ġfore": 4408,
      "Ġimpaired": 4409,
      "Ġappeared": 4410,
      "Ġxenograft": 4411,
      "ĠExpression": 4412,
      "rague": 4413,
      "omit": 4414,
      "Ġrod": 4415,
      "ĠClinical": 4416,
      "Ġimmunofluorescence": 4417,
      "Ġinsight": 4418,
      "tain": 4419,
      "Ġprocedures": 4420,
      "-ch": 4421,
      "owel": 4422,
      "CAM": 4423,
      "-week": 4424,
      "fish": 4425,
      "omach": 4426,
      "yte": 4427,
      "Ġte": 4428,
      "Ch": 4429,
      "Ġlamin": 4430,
      "clinical": 4431,
      "Ġtol": 4432,
      "Ġfraction": 4433,
      "Ġpreoperative": 4434,
      "oxic": 4435,
      "artment": 4436,
      "Ġtransgenic": 4437,
      "Ġinteraction": 4438,
      "Î¼": 4439,
      "Ġmand": 4440,
      "Ġmultivariate": 4441,
      "Ġguid": 4442,
      "awley": 4443,
      "Ġalg": 4444,
      "Ġsalivary": 4445,
      "Ġimplanted": 4446,
      "eficient": 4447,
      "ĠPh": 4448,
      "Ġobstr": 4449,
      "Ġoc": 4450,
      "ios": 4451,
      "Ġaverage": 4452,
      "Ġcall": 4453,
      "Ġremov": 4454,
      "osterone": 4455,
      "Ġdistinguish": 4456,
      "Ġnumerous": 4457,
      "Ġnanoparticles": 4458,
      "Ġmiddle": 4459,
      "anine": 4460,
      "omical": 4461,
      "Ġglob": 4462,
      "Ġemploy": 4463,
      "ĠWhen": 4464,
      "opsy": 4465,
      "Ġlact": 4466,
      "Ġbenefic": 4467,
      "ĠSprague": 4468,
      "Ġfood": 4469,
      "Ġdocument": 4470,
      "ucible": 4471,
      "58": 4472,
      "Ġcrucial": 4473,
      "cles": 4474,
      "Ġgiant": 4475,
      "Ġbacterial": 4476,
      "equ": 4477,
      "otoxic": 4478,
      "Ġpan": 4479,
      "Ġmeasurements": 4480,
      "ria": 4481,
      "Ġoverl": 4482,
      "Ġfil": 4483,
      "Ġresid": 4484,
      "Ġamplification": 4485,
      "Ġpractice": 4486,
      "Ġps": 4487,
      "Ġadenoma": 4488,
      "Ġplaque": 4489,
      "Ġmulti": 4490,
      "Ġpresents": 4491,
      "Ġpromin": 4492,
      "Ġhome": 4493,
      "Ġvariable": 4494,
      "Ġresponsible": 4495,
      "Ġpotent": 4496,
      "Ġmatter": 4497,
      "Ġpy": 4498,
      "Ġcateg": 4499,
      "Ġbeneficial": 4500,
      "Ġcogn": 4501,
      "Ġactin": 4502,
      "Ġbac": 4503,
      "Ġductal": 4504,
      "64": 4505,
      "Ġcharacterize": 4506,
      "Ġacross": 4507,
      "iomy": 4508,
      "elv": 4509,
      "Ġdeficiency": 4510,
      "man": 4511,
      "Ġmutant": 4512,
      "DL": 4513,
      "ioid": 4514,
      "Ġstroma": 4515,
      "Ġprepared": 4516,
      "Ġmemory": 4517,
      "Ġ%": 4518,
      "Ġpseud": 4519,
      "Ġefficient": 4520,
      "MRI": 4521,
      "ĠNO": 4522,
      "orter": 4523,
      "Ġchick": 4524,
      "ĠMed": 4525,
      "uch": 4526,
      "Ġcisplatin": 4527,
      "kground": 4528,
      "mut": 4529,
      "Ġadipose": 4530,
      "ysiology": 4531,
      "Ġoccurring": 4532,
      "alpha": 4533,
      "Ġdim": 4534,
      "Ġintegr": 4535,
      "Ġnow": 4536,
      "Ġsubgroup": 4537,
      "inflammatory": 4538,
      "Ġfull": 4539,
      "Ġcytometry": 4540,
      "Ġvessel": 4541,
      "Ġpredominantly": 4542,
      "Ġbowel": 4543,
      "Ġsafety": 4544,
      "Ġarising": 4545,
      "Ġdil": 4546,
      "ĠGC": 4547,
      "Ġproximal": 4548,
      "Ġglial": 4549,
      "Ġspectrum": 4550,
      "otal": 4551,
      "Ġbecome": 4552,
      "Ġposterior": 4553,
      "61": 4554,
      "Ġaged": 4555,
      "ergy": 4556,
      "Ġantagon": 4557,
      "rest": 4558,
      "Ġstomach": 4559,
      "rastruct": 4560,
      "erior": 4561,
      "ocl": 4562,
      "Ġregulatory": 4563,
      "Ġpositivity": 4564,
      "Ġsulf": 4565,
      "ĠBMP": 4566,
      "Ġcut": 4567,
      "itable": 4568,
      "Ġinvestigations": 4569,
      "Ġneuroendocrine": 4570,
      "Ġcorne": 4571,
      "ibular": 4572,
      "Ġepile": 4573,
      "Ġstri": 4574,
      "Ġzone": 4575,
      "Ġtransmission": 4576,
      "onary": 4577,
      "Ġfinal": 4578,
      "Ġfully": 4579,
      "-month": 4580,
      "Ġpituitary": 4581,
      "Ġesophag": 4582,
      "Ġcore": 4583,
      "Ġprosp": 4584,
      "venous": 4585,
      "ending": 4586,
      ".e": 4587,
      "Ġsch": 4588,
      "ĠDespite": 4589,
      "Ġstate": 4590,
      "ians": 4591,
      "Ġapplications": 4592,
      "Ġhours": 4593,
      "Ġarthritis": 4594,
      "Ġspindle": 4595,
      ".)": 4596,
      "hood": 4597,
      "Ġhippocampal": 4598,
      "oplasia": 4599,
      "kt": 4600,
      "Ġplus": 4601,
      "Ġadrenal": 4602,
      "Ġimmunostaining": 4603,
      "ince": 4604,
      "Ġnature": 4605,
      "Ġneedle": 4606,
      "Ġod": 4607,
      "Ġemph": 4608,
      "Ġrestr": 4609,
      "oper": 4610,
      "acement": 4611,
      "Ġleads": 4612,
      "Ġslow": 4613,
      "Ġinoc": 4614,
      "Ġverte": 4615,
      "HL": 4616,
      "uria": 4617,
      "ĠMost": 4618,
      "Ġligand": 4619,
      "RA": 4620,
      "Ġdegradation": 4621,
      "Ġmicrob": 4622,
      "MG": 4623,
      "Ġalcoh": 4624,
      "ultaneous": 4625,
      "-O": 4626,
      "ilateral": 4627,
      "Ġspecial": 4628,
      "ĠHC": 4629,
      "Ġgenerally": 4630,
      "rific": 4631,
      "Ġcarcinogenesis": 4632,
      "Ġoverexp": 4633,
      "Ġtrad": 4634,
      "Ġorally": 4635,
      "iotic": 4636,
      "ĠInd": 4637,
      "Ġstrat": 4638,
      "Ġpossibility": 4639,
      "wenty": 4640,
      "yros": 4641,
      "Ġadapt": 4642,
      "Ġintracellular": 4643,
      "RS": 4644,
      "Ġnitric": 4645,
      "Ġtemporal": 4646,
      "ĠRCC": 4647,
      "Ġconsec": 4648,
      "Ġsodium": 4649,
      "Ġserve": 4650,
      "Âłmg": 4651,
      "thm": 4652,
      "Ġlayers": 4653,
      "Ġrestrict": 4654,
      "eity": 4655,
      "oding": 4656,
      "Ġcomposition": 4657,
      "fl": 4658,
      "Ġdiver": 4659,
      "phosph": 4660,
      "Ġviability": 4661,
      "Ġdevelopmental": 4662,
      "Ġrecognized": 4663,
      "Ġoil": 4664,
      "Ġsacrific": 4665,
      "ove": 4666,
      "ĠSub": 4667,
      "Ġtransformation": 4668,
      "Ġhaving": 4669,
      "itation": 4670,
      "ĠSCC": 4671,
      "Ġautophag": 4672,
      "Ġhypertension": 4673,
      "Ġdespite": 4674,
      "Ġâī": 4675,
      "rec": 4676,
      "Ġprogress": 4677,
      "urop": 4678,
      "Ġdone": 4679,
      "ĠHistopathology": 4680,
      "Ġpublished": 4681,
      "ĠIFN": 4682,
      "-regulation": 4683,
      "VA": 4684,
      "uli": 4685,
      "Ġyield": 4686,
      "Ġrequire": 4687,
      "Ġvalidated": 4688,
      "FD": 4689,
      "ĠBcl": 4690,
      "oxy": 4691,
      "GS": 4692,
      "Ġcholesterol": 4693,
      "Ġexert": 4694,
      "Ġintrod": 4695,
      "Ġappears": 4696,
      "mented": 4697,
      "Ġventricular": 4698,
      "Ġmicroarray": 4699,
      "-trans": 4700,
      "-E": 4701,
      "Ġhydrox": 4702,
      "Ġuntil": 4703,
      ">P": 4704,
      "KT": 4705,
      "71": 4706,
      "raz": 4707,
      "Ġaber": 4708,
      "put": 4709,
      "-emb": 4710,
      "Ġimpairment": 4711,
      "Ġinterpret": 4712,
      "Ġretrospective": 4713,
      "Ġlymphoid": 4714,
      "otrop": 4715,
      "Ġpylori": 4716,
      "Ġeight": 4717,
      "Ġstep": 4718,
      "Ġoptim": 4719,
      "ĠLC": 4720,
      "54": 4721,
      "GR": 4722,
      "FA": 4723,
      "ĠTaken": 4724,
      "Ġosteoc": 4725,
      "Ġdorsal": 4726,
      "Ġsynapt": 4727,
      "Ġstrains": 4728,
      "ifying": 4729,
      "ulatory": 4730,
      "ĠBi": 4731,
      "Ġcorrect": 4732,
      "ĠShe": 4733,
      "Ġendogenous": 4734,
      "Ġtyp": 4735,
      "ĠMult": 4736,
      "Ġnewly": 4737,
      "Ġprotection": 4738,
      "Ġtuberculosis": 4739,
      "Ġneon": 4740,
      "Ġapparent": 4741,
      "NO": 4742,
      "Ġbur": 4743,
      "Ġcomplement": 4744,
      "Ġbenefit": 4745,
      "not": 4746,
      "ĠCOX": 4747,
      "Ġdermal": 4748,
      "Ġect": 4749,
      "Ġsuperf": 4750,
      "umab": 4751,
      "text": 4752,
      "Ġhydrog": 4753,
      "Ġgeneration": 4754,
      "ĠBRAF": 4755,
      "ollow": 4756,
      "-dimensional": 4757,
      "Ġseven": 4758,
      "erb": 4759,
      "ĠELISA": 4760,
      "king": 4761,
      "Ġmolecule": 4762,
      "ĠCompared": 4763,
      "orable": 4764,
      "51": 4765,
      "Ġconsum": 4766,
      "Ġfluorescent": 4767,
      "omatic": 4768,
      "73": 4769,
      "Ġmodified": 4770,
      "isation": 4771,
      "Ġpathoph": 4772,
      "Ġhal": 4773,
      "Ġcaps": 4774,
      "Ġrequires": 4775,
      "ED": 4776,
      "Ġaortic": 4777,
      "antly": 4778,
      "Ġmasses": 4779,
      "Ġoperation": 4780,
      "Ġimplicated": 4781,
      "fection": 4782,
      "activated": 4783,
      "Ġpositively": 4784,
      "Ġcharacterization": 4785,
      "ĠMS": 4786,
      "Ġevent": 4787,
      "Ġvariants": 4788,
      "Ġparen": 4789,
      "eratively": 4790,
      "ode": 4791,
      "Ġcolonic": 4792,
      "Ġrabbit": 4793,
      "Ġaffects": 4794,
      "Ġmorbid": 4795,
      "Ġdismut": 4796,
      "BB": 4797,
      "ĠAcc": 4798,
      "Ġhis": 4799,
      "-pro": 4800,
      "land": 4801,
      "Ġprevented": 4802,
      "enic": 4803,
      "Ġfiber": 4804,
      "Ġdeposit": 4805,
      "Ġaminot": 4806,
      "Ġserv": 4807,
      "Ġhistopathologically": 4808,
      "IC": 4809,
      "ologous": 4810,
      "Ġprominent": 4811,
      "An": 4812,
      "Ġplant": 4813,
      "Ġcatal": 4814,
      "ĠHigh": 4815,
      "Ġana": 4816,
      "Ġprolong": 4817,
      "ĠOverall": 4818,
      "ason": 4819,
      "Ġeye": 4820,
      "Ġbarrier": 4821,
      "Ġinternal": 4822,
      "Ġsolution": 4823,
      "Ġspectromet": 4824,
      "Ġsuperoxide": 4825,
      "Ġclosely": 4826,
      "Ġatheros": 4827,
      "Ġrapidly": 4828,
      "Ġdismutase": 4829,
      "Ġsynthesis": 4830,
      "ested": 4831,
      "Ġmanifestations": 4832,
      "Ġclar": 4833,
      "Ġtendon": 4834,
      "lated": 4835,
      "Ġexpressing": 4836,
      "199": 4837,
      "Ġcorrelate": 4838,
      "Ġresemb": 4839,
      "Ġsuperior": 4840,
      "Ġremoval": 4841,
      "ape": 4842,
      "Ġproportion": 4843,
      "59": 4844,
      "Ġreferred": 4845,
      "Ġdelayed": 4846,
      "Ġmacrophage": 4847,
      "Ġaffecting": 4848,
      "Ġexpress": 4849,
      "Ġmuscles": 4850,
      "aces": 4851,
      "ĠGen": 4852,
      "Ġfeature": 4853,
      "Ġdate": 4854,
      "ĠPer": 4855,
      "Ġobservation": 4856,
      "Ġproliferative": 4857,
      "Ġpoints": 4858,
      "ĠÃĹ": 4859,
      "ext": 4860,
      "Ġpossib": 4861,
      "Ġperme": 4862,
      ">+</": 4863,
      "ula": 4864,
      "oracic": 4865,
      "ritic": 4866,
      "weight": 4867,
      "Ġreducing": 4868,
      "rimary": 4869,
      "Ġpediatric": 4870,
      "Ġprimarily": 4871,
      "Ġmuch": 4872,
      "Ġconsecutive": 4873,
      "erating": 4874,
      "Ġdetailed": 4875,
      "-k": 4876,
      "Ġaqu": 4877,
      "operatively": 4878,
      "uption": 4879,
      "iversity": 4880,
      "DS": 4881,
      "Ġpelv": 4882,
      "Ġbiology": 4883,
      "ĠMSCs": 4884,
      "87": 4885,
      "ĠTrans": 4886,
      "ĠNot": 4887,
      "yrosine": 4888,
      "Ġlapa": 4889,
      "Ġrecomb": 4890,
      "omyc": 4891,
      "Ġslight": 4892,
      "Ġsequence": 4893,
      "Ġembryonic": 4894,
      "orpor": 4895,
      "Ġcultures": 4896,
      "Ġbehavioral": 4897,
      "Ġfar": 4898,
      "protective": 4899,
      "Ġdistant": 4900,
      "Ġoptimal": 4901,
      "Ġfo": 4902,
      "elet": 4903,
      "ame": 4904,
      "Ġalmost": 4905,
      "ĠBC": 4906,
      "ipid": 4907,
      "umoral": 4908,
      "Ġasc": 4909,
      "Ġevident": 4910,
      "Ġetiology": 4911,
      "-embedded": 4912,
      "Ġarterial": 4913,
      "ifications": 4914,
      "Ġcontext": 4915,
      "genital": 4916,
      "oclonal": 4917,
      "ĠFour": 4918,
      "Ġclearly": 4919,
      "arr": 4920,
      "Ġcoronary": 4921,
      "-day": 4922,
      "Ġrespond": 4923,
      "Ġuntreated": 4924,
      "iomas": 4925,
      "ymptomatic": 4926,
      "Ġatrophy": 4927,
      "hens": 4928,
      "Ġsubsequently": 4929,
      "Ġaspects": 4930,
      "Ġairway": 4931,
      "79": 4932,
      "degen": 4933,
      "ĠBecause": 4934,
      "PAR": 4935,
      "-deficient": 4936,
      "Ġintact": 4937,
      "Ġlobe": 4938,
      "Ġrecorded": 4939,
      "urgical": 4940,
      "icin": 4941,
      "antitative": 4942,
      "Ġoptical": 4943,
      "ĠThree": 4944,
      "rocyte": 4945,
      "Ġformalin": 4946,
      "Ġcompounds": 4947,
      "cephal": 4948,
      "Ġhypothesized": 4949,
      "Ġintravenous": 4950,
      "Ġinduces": 4951,
      "Ġpathologic": 4952,
      "Ġsimultaneous": 4953,
      "Ġcandidate": 4954,
      "rogl": 4955,
      "Ġeas": 4956,
      "rolif": 4957,
      "Ġchallenging": 4958,
      "Ġallows": 4959,
      "PF": 4960,
      "Ġcontained": 4961,
      "rogenic": 4962,
      "69": 4963,
      "uter": 4964,
      "roma": 4965,
      "ĠSim": 4966,
      "uth": 4967,
      "Ġspace": 4968,
      "Ġminim": 4969,
      "ozyg": 4970,
      "SR": 4971,
      "Ġspecifically": 4972,
      "-ad": 4973,
      "idi": 4974,
      "Ġseed": 4975,
      "mic": 4976,
      "ĠSc": 4977,
      "wann": 4978,
      "char": 4979,
      "Ġscanning": 4980,
      "Ġaggreg": 4981,
      "esterone": 4982,
      "Ġadenomas": 4983,
      "Ġspread": 4984,
      "Ġaims": 4985,
      "Ġ&": 4986,
      "imentin": 4987,
      "Ġheterogeneity": 4988,
      "ries": 4989,
      "ĠBAL": 4990,
      "DR": 4991,
      "Ġterminal": 4992,
      "Ġgenomic": 4993,
      "Ġbile": 4994,
      "Ġplaques": 4995,
      "Ġdemonstrates": 4996,
      "Ġvitamin": 4997,
      "oles": 4998,
      "Ġtransd": 4999,
      "Ġepiderm": 5000,
      "Ġcirrh": 5001,
      "Ġpr": 5002,
      "Ġtumorigen": 5003,
      "ached": 5004,
      "Ġsept": 5005,
      "Ġcardiomy": 5006,
      "ĠAA": 5007,
      "Ġgliomas": 5008,
      "Ġion": 5009,
      "Ġoper": 5010,
      "ologies": 5011,
      "ĠCNS": 5012,
      "Ġcomm": 5013,
      "Ġsteroid": 5014,
      "eated": 5015,
      "stream": 5016,
      "roz": 5017,
      "oli": 5018,
      "ĠGF": 5019,
      "Ġaff": 5020,
      "Ġfron": 5021,
      "osp": 5022,
      "used": 5023,
      "ĠDuring": 5024,
      "Ġcertain": 5025,
      "ĠIGF": 5026,
      "iral": 5027,
      "Ġalk": 5028,
      "Ġprepar": 5029,
      "Ġsource": 5030,
      "etin": 5031,
      "Ġmedicine": 5032,
      "Ġlear": 5033,
      "Ġtransloc": 5034,
      "Ġenhancement": 5035,
      "-w": 5036,
      "ĠCl": 5037,
      "Ġmeans": 5038,
      "Ġbrow": 5039,
      "apan": 5040,
      "arrang": 5041,
      "ĠHA": 5042,
      "Ġvul": 5043,
      "PH": 5044,
      "ods": 5045,
      "imer": 5046,
      "Ġneurodegen": 5047,
      "mentation": 5048,
      "Ġmostly": 5049,
      "Ġsynov": 5050,
      "ĠAr": 5051,
      "Ġupregulation": 5052,
      "Ġcognitive": 5053,
      "Ġtransition": 5054,
      "Ġmedull": 5055,
      "DNA": 5056,
      "Ġsuitable": 5057,
      "Ġphosphatase": 5058,
      "Ġarteries": 5059,
      "Ġaminotransferase": 5060,
      "Ġaccel": 5061,
      "Ġlargely": 5062,
      "/ml": 5063,
      "Cl": 5064,
      "Ġlinked": 5065,
      "icial": 5066,
      "Ġfeas": 5067,
      "Ġanatomical": 5068,
      "factory": 5069,
      "Ġiso": 5070,
      "Ġindicates": 5071,
      "roke": 5072,
      "ythem": 5073,
      "Ġlymphomas": 5074,
      "Ġparticip": 5075,
      "Ġmorbidity": 5076,
      "odes": 5077,
      "APK": 5078,
      "ND": 5079,
      "Ġmust": 5080,
      "Ġdiffusion": 5081,
      "ie": 5082,
      "utions": 5083,
      "virus": 5084,
      "Ġgest": 5085,
      "ĠPM": 5086,
      "iding": 5087,
      "Ġuro": 5088,
      "ĠMC": 5089,
      "Ġcomparable": 5090,
      "Ġmis": 5091,
      "Ġcanine": 5092,
      "Ġopen": 5093,
      "to": 5094,
      "Ġanalysed": 5095,
      "Ġimmunop": 5096,
      "Ġpeak": 5097,
      "Ġstable": 5098,
      "yel": 5099,
      "Ġproblem": 5100,
      "HD": 5101,
      "lot": 5102,
      "ĠAb": 5103,
      "Ġevolution": 5104,
      "Ġavoid": 5105,
      "ele": 5106,
      "Ġpower": 5107,
      "Ġmonoclonal": 5108,
      "rical": 5109,
      "-stage": 5110,
      "TNF": 5111,
      "Ġthin": 5112,
      "Ġvag": 5113,
      "83": 5114,
      "aph": 5115,
      "Ġintervention": 5116,
      "ĠCell": 5117,
      "acet": 5118,
      "reng": 5119,
      "Ġlymphatic": 5120,
      "946": 5121,
      "Ġmonitoring": 5122,
      "Ġmyofib": 5123,
      "Ġneoplasia": 5124,
      "Ġexcised": 5125,
      "Ġdependent": 5126,
      "Ġseiz": 5127,
      "ĠFollow": 5128,
      "Ġpromoted": 5129,
      "Ġvary": 5130,
      "89": 5131,
      "ortem": 5132,
      "Ġhypoth": 5133,
      "ĠPl": 5134,
      "lets": 5135,
      "Ġvein": 5136,
      "ignific": 5137,
      "-risk": 5138,
      "Ġaspiration": 5139,
      "ostasis": 5140,
      "rehens": 5141,
      "-cont": 5142,
      "ways": 5143,
      "ĠHIF": 5144,
      "Ġves": 5145,
      "Ġinteractions": 5146,
      "Ġcreatinine": 5147,
      "TR": 5148,
      "Ġrather": 5149,
      "VEGF": 5150,
      "acchar": 5151,
      "ĠPro": 5152,
      "Ġquest": 5153,
      "Ġhepatocytes": 5154,
      "Ġcortic": 5155,
      "Ġethanol": 5156,
      "Ġsimple": 5157,
      "omen": 5158,
      "Ġentire": 5159,
      "Ġreliable": 5160,
      ".g": 5161,
      "ĠNa": 5162,
      "oxicity": 5163,
      "/A": 5164,
      "ĠCS": 5165,
      "nex": 5166,
      "enz": 5167,
      "Ġstreng": 5168,
      "Ġmaturation": 5169,
      "TA": 5170,
      "ĠPath": 5171,
      "Ġsubset": 5172,
      "Ġsacrificed": 5173,
      "Ġrecip": 5174,
      "EP": 5175,
      "ĠHIV": 5176,
      "ĠImmunohistochemical": 5177,
      "ts": 5178,
      "itin": 5179,
      "Ġleiomy": 5180,
      "ĠInterest": 5181,
      "Ġovary": 5182,
      "Ġju": 5183,
      "Ġbodies": 5184,
      "abil": 5185,
      "Ġacqui": 5186,
      "BCL": 5187,
      "Ġprecurs": 5188,
      "Ġirradiation": 5189,
      "92": 5190,
      "Ġexplored": 5191,
      "ector": 5192,
      "ĠHistology": 5193,
      "ĠSince": 5194,
      "Ġmetalloprotein": 5195,
      "Ġmaxim": 5196,
      "500": 5197,
      "ocytosis": 5198,
      "Ġpathologists": 5199,
      "otypic": 5200,
      "ĠCol": 5201,
      "ĠAC": 5202,
      "-Dawley": 5203,
      "Ġworldwide": 5204,
      "Ġabundant": 5205,
      "KO": 5206,
      "Ġproduce": 5207,
      "Ġspectrometry": 5208,
      "Ġchest": 5209,
      "RNAs": 5210,
      "Ġultrastruct": 5211,
      "-dose": 5212,
      "aced": 5213,
      "Ġhistopathologic": 5214,
      "osite": 5215,
      "DP": 5216,
      "YP": 5217,
      "olved": 5218,
      "zard": 5219,
      "everal": 5220,
      "Ġappend": 5221,
      "ialdehyde": 5222,
      "Ġearl": 5223,
      "&E": 5224,
      "Ġregulated": 5225,
      ")/": 5226,
      "Ġsubun": 5227,
      "Ġdissection": 5228,
      "oprotective": 5229,
      "Ġaccess": 5230,
      "77": 5231,
      "oblasts": 5232,
      "osomes": 5233,
      "Ġconcluded": 5234,
      "-Î³": 5235,
      "Ġduoden": 5236,
      "Ġfibr": 5237,
      "Ġreference": 5238,
      "Ġgre": 5239,
      "ydrox": 5240,
      "Ġincorpor": 5241,
      "Ġastrocyt": 5242,
      "Ġproven": 5243,
      "Ġconnective": 5244,
      "Ġlo": 5245,
      "Ġestimated": 5246,
      "ĠInterestingly": 5247,
      "Ġdend": 5248,
      "02": 5249,
      "Ġpostnatal": 5250,
      "Ġcompl": 5251,
      "Ġlonger": 5252,
      "ĠOA": 5253,
      "Ġmicroen": 5254,
      "Ġnear": 5255,
      "Ġgrafts": 5256,
      "Ġasymptomatic": 5257,
      "ĠSix": 5258,
      "ocompat": 5259,
      "amb": 5260,
      "Ġphysical": 5261,
      "ĠJapan": 5262,
      "Ġdiagnoses": 5263,
      "Ġrelation": 5264,
      "Ġminimal": 5265,
      "cy": 5266,
      "ternal": 5267,
      "Ġq": 5268,
      "Ġintrat": 5269,
      "Ns": 5270,
      "organ": 5271,
      "Ġdehydro": 5272,
      "Ġrob": 5273,
      "ystem": 5274,
      "thase": 5275,
      "opathologic": 5276,
      "Ġile": 5277,
      "Ġblue": 5278,
      "Ġinterfer": 5279,
      "Ġdietary": 5280,
      "ĠAP": 5281,
      "Ġdescribes": 5282,
      "Ġalcohol": 5283,
      "Ġtraditional": 5284,
      "ĠNAF": 5285,
      "Ġinhibitory": 5286,
      "Ġbroad": 5287,
      "Ġissu": 5288,
      "Ġurine": 5289,
      "Ġtransplanted": 5290,
      "Ġtrigg": 5291,
      "Ġfine": 5292,
      "Ġenvironmental": 5293,
      "Ġgrowing": 5294,
      "ĠAM": 5295,
      "Ġeffectively": 5296,
      "Ġelast": 5297,
      "76": 5298,
      "ank": 5299,
      "Ġemployed": 5300,
      "ĠLe": 5301,
      "ondialdehyde": 5302,
      "Ġpossibly": 5303,
      "TOR": 5304,
      "Ġprogesterone": 5305,
      "Ġtypically": 5306,
      "Ġprogram": 5307,
      "Ġbleeding": 5308,
      "Ġscler": 5309,
      "Ġretina": 5310,
      "weeks": 5311,
      "Ġane": 5312,
      "Ġcontrolled": 5313,
      "oin": 5314,
      "ĠOr": 5315,
      "Ġdifferentiate": 5316,
      "Ġsuspic": 5317,
      "Ġdeplet": 5318,
      "rozen": 5319,
      "Ġutility": 5320,
      "Ġfresh": 5321,
      "Ġrepeated": 5322,
      "Ġrecru": 5323,
      "Ġmonth": 5324,
      "ochemistry": 5325,
      "Ġerythem": 5326,
      "Ġnodule": 5327,
      "Ġselective": 5328,
      "Ġdestr": 5329,
      "ĠTwenty": 5330,
      "/CT": 5331,
      "onography": 5332,
      "ĠBl": 5333,
      "Ġendocrine": 5334,
      "Ġperitoneal": 5335,
      "irect": 5336,
      "esity": 5337,
      "Ġallograft": 5338,
      "Ġadvant": 5339,
      "Ġsuperficial": 5340,
      "Ġcontact": 5341,
      "Ġmultif": 5342,
      "III": 5343,
      "Ġenter": 5344,
      "Ġinitially": 5345,
      "Ġround": 5346,
      "Ġsusceptibility": 5347,
      "orith": 5348,
      "ĠAF": 5349,
      "Ġperoxidation": 5350,
      "Ġdissem": 5351,
      "IST": 5352,
      "Ġvacu": 5353,
      "Ġanother": 5354,
      "Ġnodular": 5355,
      "ĠEnd": 5356,
      "Ġprogen": 5357,
      "genase": 5358,
      "Ġretin": 5359,
      "IM": 5360,
      "NC": 5361,
      "Ġsuppression": 5362,
      "Ġsurgically": 5363,
      "74": 5364,
      "Ġvar": 5365,
      "ĠCM": 5366,
      "82": 5367,
      "Ġinfiltrate": 5368,
      "Ġattrib": 5369,
      "Ġgall": 5370,
      "/mL": 5371,
      "Ġcontinuous": 5372,
      "Ġorth": 5373,
      "93": 5374,
      "Ġabove": 5375,
      "Ġreceiving": 5376,
      "Ġdatab": 5377,
      "oscopic": 5378,
      "Ġglomerular": 5379,
      "Ġreconstruction": 5380,
      "ĠWnt": 5381,
      "Ġhyd": 5382,
      "opathic": 5383,
      "Ġclose": 5384,
      "Ġcomprehens": 5385,
      "Ġtransport": 5386,
      "ave": 5387,
      "Ġgold": 5388,
      "Ġdocumented": 5389,
      "ĠCom": 5390,
      "ĠMDA": 5391,
      "-small": 5392,
      "Ġinner": 5393,
      "Ġpast": 5394,
      "Ġbir": 5395,
      "Ġrearrang": 5396,
      "Ġech": 5397,
      "945": 5398,
      "arin": 5399,
      "ĠCd": 5400,
      "ĠHep": 5401,
      "ĠGl": 5402,
      "84": 5403,
      "Ġsufficient": 5404,
      "Ġview": 5405,
      "Ġbord": 5406,
      "RCC": 5407,
      "ĠPL": 5408,
      "fib": 5409,
      "ropathy": 5410,
      "-v": 5411,
      "amma": 5412,
      "ĠNAFLD": 5413,
      "Ġsynthase": 5414,
      "Ġadenocarcinomas": 5415,
      "Ġtools": 5416,
      "ĠCancer": 5417,
      "Ġgrading": 5418,
      "ulus": 5419,
      "âĢīmg": 5420,
      "Ġcytological": 5421,
      "Ġcausing": 5422,
      "Ġregulating": 5423,
      "Ġdop": 5424,
      "ĠDC": 5425,
      "Ġlymphaden": 5426,
      "Ġautophagy": 5427,
      "Ġcoun": 5428,
      "Ġalgorith": 5429,
      "Ġrecombinant": 5430,
      "Ġmediast": 5431,
      "86": 5432,
      "ĠEp": 5433,
      "Ġhypertrophy": 5434,
      "ĠIR": 5435,
      "ication": 5436,
      "Ġlimb": 5437,
      "Ġengineering": 5438,
      "point": 5439,
      "Ġhaem": 5440,
      "Ġvacc": 5441,
      "Ġpartially": 5442,
      "Ġtransient": 5443,
      "Ġmesothel": 5444,
      "-ind": 5445,
      "urys": 5446,
      "rovers": 5447,
      "Ġdehydrogenase": 5448,
      "itor": 5449,
      "Ġsummary": 5450,
      "hea": 5451,
      "Ġenergy": 5452,
      "Ġstatistical": 5453,
      "ella": 5454,
      "Ġwounds": 5455,
      "ĠSerum": 5456,
      "Ġrecommended": 5457,
      "MDA": 5458,
      "Ġgain": 5459,
      "Ġobvious": 5460,
      "Ġsuff": 5461,
      "tenance": 5462,
      "olytic": 5463,
      "Ġvimentin": 5464,
      "HP": 5465,
      "ych": 5466,
      "TC": 5467,
      "ĠsiRNA": 5468,
      "Ġsignals": 5469,
      "Ġreper": 5470,
      "Ġcirrhosis": 5471,
      "Ġmicroenvironment": 5472,
      "Ġlearning": 5473,
      "Ġcost": 5474,
      "Ġback": 5475,
      "Ġknockdown": 5476,
      "for": 5477,
      "Ġconserv": 5478,
      "Ġsafe": 5479,
      "Ġtit": 5480,
      "orcine": 5481,
      "DAC": 5482,
      "bl": 5483,
      "oar": 5484,
      "RAS": 5485,
      "sin": 5486,
      "Ġprolonged": 5487,
      "Ġsat": 5488,
      "teen": 5489,
      "Ġagon": 5490,
      "Ġdomain": 5491,
      "Ġstroke": 5492,
      "Ġsurve": 5493,
      "Ġpossess": 5494,
      "Ġintraperitoneal": 5495,
      "cal": 5496,
      "UNEL": 5497,
      "Ġhemorrhage": 5498,
      "ica": 5499,
      "rend": 5500,
      "Ġtestes": 5501,
      "ises": 5502,
      "usive": 5503,
      "Ġpersistent": 5504,
      "IO": 5505,
      "Ġmaterials": 5506,
      "Ġnev": 5507,
      "Ġproducts": 5508,
      "Ġintermediate": 5509,
      "ebra": 5510,
      "Ġsteatosis": 5511,
      "Ġbov": 5512,
      "PL": 5513,
      "ellent": 5514,
      "actic": 5515,
      "Ġbackground": 5516,
      "utr": 5517,
      "ĠSm": 5518,
      "-linked": 5519,
      "olym": 5520,
      "Ġevid": 5521,
      ".p": 5522,
      "apping": 5523,
      "rach": 5524,
      "range": 5525,
      "Ġevery": 5526,
      "Ġkne": 5527,
      "ĠSD": 5528,
      "81": 5529,
      "Ġvaluable": 5530,
      "iations": 5531,
      "atically": 5532,
      "rays": 5533,
      "-invasive": 5534,
      "Ġintake": 5535,
      "Ġput": 5536,
      "Ġsupported": 5537,
      "/C": 5538,
      "empt": 5539,
      "Ġcontrovers": 5540,
      "inking": 5541,
      "Ġrelapse": 5542,
      "itud": 5543,
      "Ġhomeostasis": 5544,
      "Ġcategor": 5545,
      "Ġquantified": 5546,
      "Ġgenotype": 5547,
      "Ġplacental": 5548,
      "600": 5549,
      "Ġnons": 5550,
      "Ġdeficits": 5551,
      "ysacchar": 5552,
      "Ġbrains": 5553,
      "Ġfast": 5554,
      "uff": 5555,
      "Ġalle": 5556,
      "Ġexerc": 5557,
      "002": 5558,
      "Ġinhibiting": 5559,
      "Ġprocessed": 5560,
      "juvant": 5561,
      "athyroid": 5562,
      "Ġprocessing": 5563,
      "300": 5564,
      "-ray": 5565,
      "ethods": 5566,
      "ĠSC": 5567,
      "Ġremark": 5568,
      "Ġvas": 5569,
      "odyn": 5570,
      "ĠMA": 5571,
      "gal": 5572,
      "Ġmaintenance": 5573,
      "ues": 5574,
      "Ġpneumonia": 5575,
      "Ġsubmuc": 5576,
      "ĠMI": 5577,
      "Ġundergoing": 5578,
      "olin": 5579,
      "Ġvill": 5580,
      "Ġrejection": 5581,
      "Ġagre": 5582,
      "aterial": 5583,
      "Ġfracture": 5584,
      "rinc": 5585,
      "Ġos": 5586,
      "ĠHerein": 5587,
      "Ġreperfusion": 5588,
      "Ġsensory": 5589,
      "Ġoptions": 5590,
      "Ġdonor": 5591,
      "DI": 5592,
      "Ġmalondialdehyde": 5593,
      "Ġprofiling": 5594,
      "lim": 5595,
      "Ġelucidate": 5596,
      "ĠSA": 5597,
      "Ġretrospectively": 5598,
      "Ġganglion": 5599,
      "Ġfibro": 5600,
      "alities": 5601,
      "Ġtyrosine": 5602,
      "Ġlys": 5603,
      "Ġseems": 5604,
      "loride": 5605,
      "-&#": 5606,
      "Ġtail": 5607,
      "igned": 5608,
      "Ġtranspor": 5609,
      "Ġresidual": 5610,
      "-hydrox": 5611,
      "Ġneutrophils": 5612,
      "Ġnor": 5613,
      "ococc": 5614,
      "iagnosis": 5615,
      "EB": 5616,
      "Ġrectal": 5617,
      "Ġfix": 5618,
      "-sh": 5619,
      "Ġsmaller": 5620,
      "Ġprevention": 5621,
      "ĠCCl": 5622,
      "Ġsclerosis": 5623,
      "Ġtechnology": 5624,
      "Ġtubules": 5625,
      "94": 5626,
      "Ġdepth": 5627,
      "Ġintegrity": 5628,
      "Ġdescript": 5629,
      "oglyc": 5630,
      "Ġhisti": 5631,
      "Ġbacteria": 5632,
      "Ġneonatal": 5633,
      "-binding": 5634,
      "Ġmembranes": 5635,
      "MSCs": 5636,
      "VD": 5637,
      "HCC": 5638,
      "Ġdiscrim": 5639,
      "ĠRecently": 5640,
      "Ġmedial": 5641,
      "Ġreactions": 5642,
      "Ġexcellent": 5643,
      "-co": 5644,
      "Ġoverexpressed": 5645,
      "ĠAccording": 5646,
      "Ġfamil": 5647,
      "Ġpretreatment": 5648,
      "Ġhalf": 5649,
      "ECs": 5650,
      "ĠFISH": 5651,
      "Ġconsisted": 5652,
      "-lab": 5653,
      "Ġself": 5654,
      "Ġhomogen": 5655,
      "Ġprobably": 5656,
      "ĠColl": 5657,
      "Ġefficiency": 5658,
      "eryth": 5659,
      "Ġnerves": 5660,
      "Ġjunction": 5661,
      "hanced": 5662,
      "-infected": 5663,
      "91": 5664,
      "ware": 5665,
      "Ġten": 5666,
      "Ġec": 5667,
      "Ġmeasurement": 5668,
      "ĠÎ¼g": 5669,
      "(+": 5670,
      "Ġdigital": 5671,
      "Ġtrain": 5672,
      "Ġglutam": 5673,
      "Ġchondrocytes": 5674,
      "ancing": 5675,
      "Ġmeasuring": 5676,
      "olysis": 5677,
      "igens": 5678,
      "ignant": 5679,
      "Ġelements": 5680,
      "Ġeosinophilic": 5681,
      "Ġdynamic": 5682,
      "iac": 5683,
      "rept": 5684,
      "120": 5685,
      "ĠAc": 5686,
      "Ġimplications": 5687,
      "Ġsynovial": 5688,
      "Ġisoform": 5689,
      "gg": 5690,
      "Ġstain": 5691,
      "Ġpostm": 5692,
      "Ġslides": 5693,
      "Ġexternal": 5694,
      "ips": 5695,
      "Ġacquired": 5696,
      "Ġdermis": 5697,
      "Ġthought": 5698,
      "iety": 5699,
      "chol": 5700,
      "Ġmyx": 5701,
      "Ġneg": 5702,
      "-CT": 5703,
      "Ġparall": 5704,
      "urgery": 5705,
      "Ġbirth": 5706,
      "Ġtw": 5707,
      "Ġexpans": 5708,
      "Ġproviding": 5709,
      "Ġserous": 5710,
      "-fixed": 5711,
      "Ġelucid": 5712,
      "Ġabsent": 5713,
      "ebrafish": 5714,
      "Ġexperience": 5715,
      "/T": 5716,
      "raw": 5717,
      "Ġdental": 5718,
      "Ġadmitted": 5719,
      "ĠRats": 5720,
      "Ġadequ": 5721,
      "atus": 5722,
      "Ġmucinous": 5723,
      "FT": 5724,
      "Ġharv": 5725,
      "ĠCP": 5726,
      "met": 5727,
      "Ġfoci": 5728,
      "03": 5729,
      "ycl": 5730,
      "Ġproved": 5731,
      "Ġastrocytes": 5732,
      "Ġcalculated": 5733,
      "Ġcongenital": 5734,
      "apl": 5735,
      "ĠTP": 5736,
      "Ġknockout": 5737,
      "odend": 5738,
      "Ġphenotypes": 5739,
      "Ġmargins": 5740,
      "stitution": 5741,
      "Ġexpand": 5742,
      "ĠRecent": 5743,
      "omorphic": 5744,
      "Ġeuth": 5745,
      "Ġturn": 5746,
      "alian": 5747,
      "Ġpropose": 5748,
      "SM": 5749,
      "Î³": 5750,
      "Ġche": 5751,
      "Ġleth": 5752,
      "Ġmuscular": 5753,
      "Ġtrend": 5754,
      "Ġtranslocation": 5755,
      "agnetic": 5756,
      "Ġmaintained": 5757,
      "uary": 5758,
      "any": 5759,
      "Ġexcess": 5760,
      "ependently": 5761,
      "Ġfeeding": 5762,
      "uting": 5763,
      "BR": 5764,
      "ĠCox": 5765,
      "ades": 5766,
      ">C": 5767,
      "Ġbaseline": 5768,
      "uries": 5769,
      "Ġmax": 5770,
      "Ġpass": 5771,
      "Ġrobust": 5772,
      "Ġtel": 5773,
      "Ġconcept": 5774,
      "perfusion": 5775,
      "ologists": 5776,
      "Ġnephropathy": 5777,
      "Ġtransfer": 5778,
      "Ġfocused": 5779,
      "Ġmicroglia": 5780,
      "ĠAlso": 5781,
      "98": 5782,
      "nd": 5783,
      "Ġfixed": 5784,
      "ĠEC": 5785,
      "rectomy": 5786,
      "Ġdigest": 5787,
      "SV": 5788,
      "ĠTr": 5789,
      "ĠRad": 5790,
      "Ġplace": 5791,
      "Ġaging": 5792,
      "Ġextracted": 5793,
      "Ġearlier": 5794,
      "%;": 5795,
      "mark": 5796,
      "Ġreplic": 5797,
      "osine": 5798,
      "appa": 5799,
      "Ġnonin": 5800,
      "Ġacids": 5801,
      "Ġprospective": 5802,
      "Ġdifferentially": 5803,
      "-activated": 5804,
      "97": 5805,
      "alance": 5806,
      "Ġfemoral": 5807,
      "Ġallowed": 5808,
      "Ġvariables": 5809,
      "otide": 5810,
      "Ġnic": 5811,
      "opa": 5812,
      "echanical": 5813,
      "Ġsuggestive": 5814,
      "Ġluminal": 5815,
      "Ġtowards": 5816,
      "bec": 5817,
      "class": 5818,
      "Ġsearch": 5819,
      "Ġaort": 5820,
      "Ġconcomit": 5821,
      "Ġhypothal": 5822,
      "Ġporcine": 5823,
      "ĠSur": 5824,
      "Ġaneurys": 5825,
      "iating": 5826,
      "istant": 5827,
      "Ġvaccine": 5828,
      "lit": 5829,
      "Ġhind": 5830,
      "rowth": 5831,
      "Ġperfusion": 5832,
      "Ġdownregulated": 5833,
      "Ġvariation": 5834,
      "Ġemission": 5835,
      "Ġodont": 5836,
      "OP": 5837,
      "Ġread": 5838,
      "Ġobesity": 5839,
      "GD": 5840,
      "ĠTumor": 5841,
      "Ġcommun": 5842,
      "Ġantit": 5843,
      "Ġregional": 5844,
      "-,": 5845,
      "UV": 5846,
      "Ġremaining": 5847,
      "Ġlam": 5848,
      "Ġpolyps": 5849,
      "Ġstrength": 5850,
      "Ġretro": 5851,
      "Ġneuropath": 5852,
      "/p": 5853,
      "Ġder": 5854,
      "ALT": 5855,
      "onuclear": 5856,
      "anal": 5857,
      "artate": 5858,
      "Ġonce": 5859,
      "ĠHR": 5860,
      "ogene": 5861,
      "Ġtumorigenesis": 5862,
      "Ġtemperature": 5863,
      "zhe": 5864,
      "Ġembryos": 5865,
      "Ġbird": 5866,
      "Ġgill": 5867,
      "Ġdisturb": 5868,
      "Ġattempt": 5869,
      "Ġeuthan": 5870,
      "Ġu": 5871,
      "isted": 5872,
      "Ġcarbon": 5873,
      "Ġwhose": 5874,
      "Ġdeletion": 5875,
      "zheimer": 5876,
      "Ġdyst": 5877,
      "ulmonary": 5878,
      "Ġvisc": 5879,
      "Ġinjections": 5880,
      "het": 5881,
      "ordance": 5882,
      "Ġnam": 5883,
      "Ġlivers": 5884,
      "Ġmake": 5885,
      "Ġnative": 5886,
      "Ġulcer": 5887,
      "Ġgoal": 5888,
      "Ġther": 5889,
      "Ġgut": 5890,
      "Ġconsumption": 5891,
      "Ġtrauma": 5892,
      "Ġhistomorph": 5893,
      "Ġmicrov": 5894,
      "Ġsolitary": 5895,
      "Ġdistributed": 5896,
      "elines": 5897,
      "Ġpref": 5898,
      "Ġnecrotic": 5899,
      "Ġasthm": 5900,
      "Ġcardiovascular": 5901,
      "ocarcinoma": 5902,
      "Ġcomprehensive": 5903,
      "Ġtib": 5904,
      "lycer": 5905,
      "oic": 5906,
      "igm": 5907,
      "Ġtau": 5908,
      "ĠDL": 5909,
      "Ġlacking": 5910,
      "Ġtoler": 5911,
      "ĠAnal": 5912,
      "ipl": 5913,
      "Ġburn": 5914,
      "medi": 5915,
      "ges": 5916,
      "ĠSeveral": 5917,
      "Ġepithelioid": 5918,
      "Ġcatalase": 5919,
      "Ġproinflammatory": 5920,
      "ASH": 5921,
      "Ġalteration": 5922,
      "ulates": 5923,
      "Ġneuroprotective": 5924,
      "ĠALK": 5925,
      "Ġdefinitive": 5926,
      "ĠNK": 5927,
      "Ġconfidence": 5928,
      "Ġdiffer": 5929,
      "Ġfasc": 5930,
      "Ġzebrafish": 5931,
      "Ġfrozen": 5932,
      "Ġharb": 5933,
      "Ġosteogenic": 5934,
      "ĠQu": 5935,
      "Ġcyclin": 5936,
      "QP": 5937,
      "Ġsupplementation": 5938,
      "Ġpelvic": 5939,
      "optotic": 5940,
      "odal": 5941,
      "Ġgenome": 5942,
      "regular": 5943,
      "Ġdefine": 5944,
      "iquid": 5945,
      "Ġelevation": 5946,
      "Ġacetyl": 5947,
      "iab": 5948,
      "-sc": 5949,
      "Ġglobal": 5950,
      "Ġobtain": 5951,
      "Ġtet": 5952,
      "ĠNew": 5953,
      "Ġmicroc": 5954,
      "ĠFollowing": 5955,
      "taining": 5956,
      "ampl": 5957,
      "Ġdeposits": 5958,
      "ozygous": 5959,
      "ash": 5960,
      "Ġorb": 5961,
      "Ġthereby": 5962,
      "weighted": 5963,
      "Ġmaximum": 5964,
      "aped": 5965,
      "ocyst": 5966,
      "ĠAnimal": 5967,
      "ignificant": 5968,
      "Ġcontract": 5969,
      "Ġcirculating": 5970,
      "Ġendoscopy": 5971,
      "ensitivity": 5972,
      "ĠCons": 5973,
      "Ġeryth": 5974,
      "Ġantigens": 5975,
      "Ġselection": 5976,
      "Ġpathogenic": 5977,
      "Ġpermeability": 5978,
      "Ġautopsy": 5979,
      "Ġexercise": 5980,
      "ĠAÎ²": 5981,
      "Ġincident": 5982,
      "months": 5983,
      "Ġdimin": 5984,
      "upus": 5985,
      "Ġchannels": 5986,
      "Ġcounts": 5987,
      "Ġcomplication": 5988,
      "Ġobstruction": 5989,
      "Ġaug": 5990,
      "Ġtreating": 5991,
      "Ġurothel": 5992,
      "vit": 5993,
      "Ġshorter": 5994,
      "Ġsustained": 5995,
      "acc": 5996,
      "Ġbasic": 5997,
      "Ġfavorable": 5998,
      "Ġprinc": 5999,
      "vance": 6000,
      "wh": 6001,
      "odg": 6002,
      "Ġmitotic": 6003,
      "Ġsheep": 6004,
      "Ġinjuries": 6005,
      "Ġmaternal": 6006,
      "ĠMean": 6007,
      "Ġectopic": 6008,
      "ĠSh": 6009,
      "Ġinterf": 6010,
      "olecular": 6011,
      "ĠPTEN": 6012,
      "ĠGABA": 6013,
      "Ġattention": 6014,
      "ID": 6015,
      "Ġrespect": 6016,
      "Ġphosphorylated": 6017,
      "ĠESCC": 6018,
      "Ġcrypt": 6019,
      "Ġcontributes": 6020,
      "Ġfungal": 6021,
      "roliferative": 6022,
      "Ġclassical": 6023,
      "Ġfacilitate": 6024,
      "oun": 6025,
      "ĠCH": 6026,
      "Ġrupt": 6027,
      "Ġregulate": 6028,
      "Ġdisplay": 6029,
      "ĠPrevious": 6030,
      "150": 6031,
      "vivo": 6032,
      "ĠOnly": 6033,
      "ycin": 6034,
      "Ġtri": 6035,
      "ĠSCI": 6036,
      "Ġintracranial": 6037,
      "ricular": 6038,
      "-gl": 6039,
      "SE": 6040,
      "ĠAnt": 6041,
      "atum": 6042,
      "Ġtranscriptional": 6043,
      "AK": 6044,
      "ze": 6045,
      "ocin": 6046,
      "irty": 6047,
      "Ġconfocal": 6048,
      "cm": 6049,
      "Ġsym": 6050,
      "oidal": 6051,
      "Ġincludes": 6052,
      "Ġpapilloma": 6053,
      "-im": 6054,
      "Ġpolar": 6055,
      "ĠAmeric": 6056,
      "ĠAg": 6057,
      "Ġphosphate": 6058,
      "Ġarticular": 6059,
      "here": 6060,
      "enter": 6061,
      "Ġintr": 6062,
      "ĠEBV": 6063,
      "exp": 6064,
      "ember": 6065,
      "Ġquantification": 6066,
      "otor": 6067,
      "-line": 6068,
      "lyce": 6069,
      "Ġthoracic": 6070,
      "ĠUC": 6071,
      "Ġcommerc": 6072,
      "oal": 6073,
      "omics": 6074,
      "Ġencephal": 6075,
      "Ġirregular": 6076,
      "Ġgranulomatous": 6077,
      "MMP": 6078,
      "Ġlog": 6079,
      "reshold": 6080,
      "Ġham": 6081,
      "-rich": 6082,
      "Ġinfarct": 6083,
      "Ġagreement": 6084,
      "Ġnorm": 6085,
      "Ġdownstream": 6086,
      "ots": 6087,
      "ĠDec": 6088,
      "Ġdetecting": 6089,
      "Ġsampling": 6090,
      "Ġkerat": 6091,
      "Ġparticles": 6092,
      "Ġminor": 6093,
      "Ġcounter": 6094,
      "ecal": 6095,
      "Ġrelevance": 6096,
      "Ġepidermis": 6097,
      "Ġcreated": 6098,
      "Ġcoup": 6099,
      "Ġcapt": 6100,
      "ĠSM": 6101,
      "ĠSP": 6102,
      "Ġpathogen": 6103,
      "Ġevaluating": 6104,
      "Ġoligodend": 6105,
      "ĠSR": 6106,
      "etus": 6107,
      "Ġlocally": 6108,
      "Ġinfectious": 6109,
      "ĠCB": 6110,
      "Ġperic": 6111,
      "Ġsarcomas": 6112,
      "Ġimmunosupp": 6113,
      "Ġassociations": 6114,
      "Ġvalidation": 6115,
      "IMP": 6116,
      "ias": 6117,
      "ĠPost": 6118,
      "ĠSch": 6119,
      "thal": 6120,
      "ĠFrom": 6121,
      "Ġpleural": 6122,
      "Ġosteosarcoma": 6123,
      "Ġworse": 6124,
      "odgkin": 6125,
      "itus": 6126,
      "Ġchromosome": 6127,
      "Ġreversed": 6128,
      "-immun": 6129,
      "WT": 6130,
      "Ġaccept": 6131,
      "Ġfibrin": 6132,
      "ontal": 6133,
      "Ġalanine": 6134,
      "Ġfeed": 6135,
      "Ġpreclinical": 6136,
      "years": 6137,
      "Ġdownregulation": 6138,
      "Ġfind": 6139,
      "Ġantagonist": 6140,
      "ĠTBI": 6141,
      "Ġtestosterone": 6142,
      "Ġpharmacological": 6143,
      "low": 6144,
      "part": 6145,
      "osan": 6146,
      "Ġextended": 6147,
      "Ġway": 6148,
      "abd": 6149,
      "Ġserious": 6150,
      "Ġdisruption": 6151,
      "Ġillust": 6152,
      "Ġbovine": 6153,
      "Ġknee": 6154,
      "opol": 6155,
      "ensin": 6156,
      "Ġelectroph": 6157,
      "Ġdestruction": 6158,
      "Ġmeasures": 6159,
      "Â°": 6160,
      "etically": 6161,
      "Ġbiocompat": 6162,
      "Ġdiverse": 6163,
      "ĠCYP": 6164,
      "ertility": 6165,
      "-a": 6166,
      "ĠMice": 6167,
      "Ġâī¥": 6168,
      "Ġocular": 6169,
      "rf": 6170,
      "Ġtooth": 6171,
      "Ġexpected": 6172,
      "Ġesophagus": 6173,
      "Ġcytokeratin": 6174,
      "oon": 6175,
      "Ġfever": 6176,
      "jun": 6177,
      "Ġdual": 6178,
      "ilarly": 6179,
      "ĠSS": 6180,
      "Ġcats": 6181,
      "Ġconsisting": 6182,
      "-gen": 6183,
      "uided": 6184,
      "isol": 6185,
      "formation": 6186,
      "Âłdays": 6187,
      "chyma": 6188,
      "Ġextracts": 6189,
      "inese": 6190,
      "psy": 6191,
      "rd": 6192,
      "astatin": 6193,
      "Ġkg": 6194,
      "ĠÎ¼m": 6195,
      "Ġparasite": 6196,
      "ns": 6197,
      "Ġmix": 6198,
      "Ġborder": 6199,
      "OH": 6200,
      "hep": 6201,
      "Ġidentifying": 6202,
      ">&#": 6203,
      "rost": 6204,
      "rops": 6205,
      "Ġsporad": 6206,
      "cumin": 6207,
      "Ġrs": 6208,
      "Ġdram": 6209,
      "ĠEA": 6210,
      "Ġchannel": 6211,
      "Ġsuppressor": 6212,
      "bral": 6213,
      "ĠBD": 6214,
      "radiol": 6215,
      "Ġconst": 6216,
      "-treatment": 6217,
      "Ġprecursor": 6218,
      "gin": 6219,
      "Ġsk": 6220,
      "Ġmaking": 6221,
      "ovirus": 6222,
      "alcoh": 6223,
      "Ġtransforming": 6224,
      "pr": 6225,
      "Ġneuron": 6226,
      "Ġaxonal": 6227,
      "Ġprecise": 6228,
      "Ġpenet": 6229,
      "ĠSev": 6230,
      "Ġdepletion": 6231,
      "ĠTN": 6232,
      "ĠEurop": 6233,
      "OT": 6234,
      "ĠCL": 6235,
      "Ġmyc": 6236,
      "oplasmic": 6237,
      "ĠReg": 6238,
      "chang": 6239,
      "Ġintraepithelial": 6240,
      "oxidase": 6241,
      "Ġphenomen": 6242,
      "Ġing": 6243,
      "ochle": 6244,
      "Ġbranc": 6245,
      "Ġinvolves": 6246,
      "Ġglomerul": 6247,
      "Ġbiliary": 6248,
      "hing": 6249,
      "ĠSOD": 6250,
      "Ġpredicting": 6251,
      "Ġalkaline": 6252,
      "125": 6253,
      "Ġrecommend": 6254,
      "atch": 6255,
      "Ġantic": 6256,
      "Ġendometriosis": 6257,
      "ils": 6258,
      "Ġratios": 6259,
      "ids": 6260,
      "Ġolder": 6261,
      "Ġdecreases": 6262,
      "Ġpanel": 6263,
      "ĠCyt": 6264,
      "akes": 6265,
      "Ġnm": 6266,
      "ĠChinese": 6267,
      "Ġameliorated": 6268,
      "ĠET": 6269,
      "Ġcountries": 6270,
      "mean": 6271,
      "Ġcarotid": 6272,
      "ophosph": 6273,
      "wing": 6274,
      "Ġlink": 6275,
      "Ġconcern": 6276,
      "ĠSTAT": 6277,
      "Ġcorneal": 6278,
      "ribed": 6279,
      "plete": 6280,
      "uls": 6281,
      "Ġrib": 6282,
      "Ġclinicopathologic": 6283,
      "],": 6284,
      "okine": 6285,
      "GP": 6286,
      "Ġocclusion": 6287,
      "ĠMET": 6288,
      "ensis": 6289,
      "oglobulin": 6290,
      "SOD": 6291,
      "Ġmil": 6292,
      "ask": 6293,
      "Ġging": 6294,
      "Ġcorrelations": 6295,
      "Ġamino": 6296,
      "Ġarrang": 6297,
      "Ġparenchyma": 6298,
      "Ġmodalities": 6299,
      "Ġfollicle": 6300,
      "ĠCo": 6301,
      "Ġcircum": 6302,
      "Ca": 6303,
      "Ġaxis": 6304,
      "Ġfailed": 6305,
      "osus": 6306,
      "ogether": 6307,
      "Ġcluster": 6308,
      "ĠTM": 6309,
      "urally": 6310,
      "Ġoccas": 6311,
      "Ġnodal": 6312,
      "Ġjuven": 6313,
      "Gs": 6314,
      "ĠMy": 6315,
      "Ġpromotes": 6316,
      "-ap": 6317,
      "ĠpH": 6318,
      "ministration": 6319,
      "Ġmonitored": 6320,
      "Ġtrabec": 6321,
      "Ġlupus": 6322,
      "idym": 6323,
      "Ġouter": 6324,
      "Ġdetectable": 6325,
      "Ġinfarction": 6326,
      "Ġpredicted": 6327,
      "Ġmacroscopic": 6328,
      "Ġmammalian": 6329,
      "ĠMY": 6330,
      "ĠWHO": 6331,
      "Ġepidem": 6332,
      "ĠTissue": 6333,
      "Ġthreshold": 6334,
      "Ġosteoclast": 6335,
      "ylase": 6336,
      "Ġpancreatitis": 6337,
      "ctomy": 6338,
      "Ġng": 6339,
      "idyl": 6340,
      "Ġburden": 6341,
      "ĠCurrent": 6342,
      "hepatic": 6343,
      "Ab": 6344,
      "Ġshape": 6345,
      "Ġguidelines": 6346,
      "ervation": 6347,
      "Ġevidenced": 6348,
      "Ġinitiation": 6349,
      "Ġaberrant": 6350,
      "ysaccharide": 6351,
      "Ġexpansion": 6352,
      "Ġinjured": 6353,
      "ensitive": 6354,
      "Ġurea": 6355,
      "ĠÂµ": 6356,
      "ĠNP": 6357,
      "Ġinsert": 6358,
      "alcoholic": 6359,
      "Ġalbumin": 6360,
      "Ġlarv": 6361,
      "Ġremission": 6362,
      "Ġhydrogel": 6363,
      "Ġvector": 6364,
      "ĠECM": 6365,
      "Ġgender": 6366,
      "Ġentities": 6367,
      "Ġrecognition": 6368,
      "Ġepilepsy": 6369,
      "ĠCXCR": 6370,
      "Ġcomparing": 6371,
      "Ġimmuno": 6372,
      "plantation": 6373,
      "mediately": 6374,
      "04": 6375,
      "Ġprotocols": 6376,
      "Ġnutr": 6377,
      "Ġstimulated": 6378,
      "823": 6379,
      "heum": 6380,
      "Ġadvances": 6381,
      "St": 6382,
      "ĠMSC": 6383,
      "ĠSome": 6384,
      "Ġclarify": 6385,
      "-containing": 6386,
      "uding": 6387,
      "Âłh": 6388,
      "Ġaddress": 6389,
      "OL": 6390,
      "Ġportal": 6391,
      "oblastic": 6392,
      "ortical": 6393,
      "Ġmorphologic": 6394,
      "Ġresistant": 6395,
      "Ġinh": 6396,
      "Ġsequences": 6397,
      "ĠAlzheimer": 6398,
      "ĠERK": 6399,
      "efined": 6400,
      "Ġeyes": 6401,
      "Ġchoice": 6402,
      "âĤ": 6403,
      "orage": 6404,
      "Ġbase": 6405,
      "astric": 6406,
      "Ġimproving": 6407,
      "Ġgradually": 6408,
      "Ġconcomitant": 6409,
      "Ġolfactory": 6410,
      "Ġbones": 6411,
      "elic": 6412,
      "Ġpathophysiology": 6413,
      "BMP": 6414,
      "ĠTUNEL": 6415,
      "ĠMale": 6416,
      "ĠRe": 6417,
      "outh": 6418,
      "Ġretri": 6419,
      "ivation": 6420,
      "ĠÎ³": 6421,
      "Ġtopical": 6422,
      "eter": 6423,
      "alling": 6424,
      "Ġlatter": 6425,
      "usal": 6426,
      "Ġproper": 6427,
      "Ġprobe": 6428,
      "-expression": 6429,
      "Ġquestion": 6430,
      "oadjuvant": 6431,
      "Ġmimic": 6432,
      "Ġbul": 6433,
      "Ġsubs": 6434,
      "Ġproduct": 6435,
      "ejun": 6436,
      "Ġspectroscopy": 6437,
      "ohistological": 6438,
      "Ġbehaviour": 6439,
      "250": 6440,
      "Ġmargin": 6441,
      "itoneally": 6442,
      "rex": 6443,
      "Ġreplacement": 6444,
      "Ġmedia": 6445,
      "Ġorganization": 6446,
      "-Me": 6447,
      "Ġscoring": 6448,
      "ĠUlt": 6449,
      "ture": 6450,
      "itic": 6451,
      "Ġcholangi": 6452,
      "amus": 6453,
      "ĠROS": 6454,
      "Ġsynaptic": 6455,
      "Ġablation": 6456,
      "Ġslightly": 6457,
      "Ġharvested": 6458,
      "Ġmodulation": 6459,
      "Ġepididym": 6460,
      "Ġdetermination": 6461,
      "Ġcenter": 6462,
      "Ġpulp": 6463,
      "iators": 6464,
      "itude": 6465,
      "rug": 6466,
      "sh": 6467,
      "ongue": 6468,
      "Ġincreasingly": 6469,
      "Ġimmature": 6470,
      "Ġfold": 6471,
      "ĠTC": 6472,
      "Ġmember": 6473,
      "Ġlabeled": 6474,
      "uz": 6475,
      "ĠTF": 6476,
      "rab": 6477,
      "Ġcontroversial": 6478,
      "-alpha": 6479,
      "Ġprostatic": 6480,
      "TP": 6481,
      "insic": 6482,
[...]
