{
  "version": "1.0",
  "truncation": null,
  "padding": null,
  "added_tokens": [
    {
      "id": 0,
      "content": "<|begin_of_text|>",
      "single_word": false,
      "lstrip": false,
      "rstrip": false,
      "normalized": false,
      "special": true
    },
    {
      "id": 1,
      "content": "<|end_of_text|>",
      "single_word": false,
      "lstrip": false,
      "rstrip": false,
      "normalized": false,
      "special": true
    },
    {
      "id": 2,
      "content": "<|reserved_special_token_0|>",
      "single_word": false,
      "lstrip": false,
      "rstrip": false,
      "normalized": false,
      "special": true
    },
    {
      "id": 3,
      "content": "<|reserved_special_token_1|>",
      "single_word": false,
      "lstrip": false,
      "rstrip": false,
      "normalized": false,
      "special": true
    },
    {
      "id": 4,
      "content": "<|reserved_special_token_2|>",
      "single_word": false,
      "lstrip": false,
      "rstrip": false,
      "normalized": false,
      "special": true
    },
    {
      "id": 5,
      "content": "<|reserved_special_token_3|>",
      "single_word": false,
      "lstrip": false,
      "rstrip": false,
      "normalized": false,
      "special": true
    },
    {
      "id": 6,
      "content": "<|start_header_id|>",
      "single_word": false,
      "lstrip": false,
      "rstrip": false,
      "normalized": false,
      "special": true
    },
    {
      "id": 7,
      "content": "<|end_header_id|>",
      "single_word": false,
      "lstrip": false,
      "rstrip": false,
      "normalized": false,
      "special": true
    },
    {
      "id": 8,
      "content": "<|reserved_special_token_4|>",
      "single_word": false,
      "lstrip": false,
      "rstrip": false,
      "normalized": false,
      "special": true
    },
    {
      "id": 9,
      "content": "<|eot_id|>",
      "single_word": false,
      "lstrip": false,
      "rstrip": false,
      "normalized": false,
      "special": true
    },
    {
      "id": 10,
      "content": "<|reserved_special_token_5|>",
      "single_word": false,
      "lstrip": false,
      "rstrip": false,
      "normalized": false,
      "special": true
    },
    {
      "id": 11,
      "content": "<|reserved_special_token_6|>",
      "single_word": false,
      "lstrip": false,
      "rstrip": false,
      "normalized": false,
      "special": true
    },
    {
      "id": 12,
      "content": "<|reserved_special_token_7|>",
      "single_word": false,
      "lstrip": false,
      "rstrip": false,
      "normalized": false,
      "special": true
    },
    {
      "id": 13,
      "content": "<|reserved_special_token_8|>",
      "single_word": false,
      "lstrip": false,
      "rstrip": false,
      "normalized": false,
      "special": true
    },
    {
      "id": 14,
      "content": "<|reserved_special_token_9|>",
      "single_word": false,
      "lstrip": false,
      "rstrip": false,
      "normalized": false,
      "special": true
    },
    {
      "id": 15,
      "content": "<|reserved_special_token_10|>",
      "single_word": false,
      "lstrip": false,
      "rstrip": false,
      "normalized": false,
      "special": true
    },
    {
      "id": 16,
      "content": "<|reserved_special_token_11|>",
      "single_word": false,
      "lstrip": false,
      "rstrip": false,
      "normalized": false,
      "special": true
    },
    {
      "id": 17,
      "content": "<|reserved_special_token_12|>",
      "single_word": false,
      "lstrip": false,
      "rstrip": false,
      "normalized": false,
      "special": true
    },
    {
      "id": 18,
      "content": "<|reserved_special_token_13|>",
      "single_word": false,
      "lstrip": false,
      "rstrip": false,
      "normalized": false,
      "special": true
    },
    {
      "id": 19,
      "content": "<|reserved_special_token_14|>",
      "single_word": false,
      "lstrip": false,
      "rstrip": false,
      "normalized": false,
      "special": true
    },
    {
      "id": 20,
      "content": "<|reserved_special_token_15|>",
      "single_word": false,
      "lstrip": false,
      "rstrip": false,
      "normalized": false,
      "special": true
    },
    {
      "id": 21,
      "content": "<|reserved_special_token_16|>",
      "single_word": false,
      "lstrip": false,
      "rstrip": false,
      "normalized": false,
      "special": true
    },
    {
      "id": 22,
      "content": "<|reserved_special_token_17|>",
      "single_word": false,
      "lstrip": false,
      "rstrip": false,
      "normalized": false,
      "special": true
    },
    {
      "id": 23,
      "content": "<|reserved_special_token_18|>",
      "single_word": false,
      "lstrip": false,
      "rstrip": false,
      "normalized": false,
      "special": true
    },
    {
      "id": 24,
      "content": "<|reserved_special_token_19|>",
      "single_word": false,
      "lstrip": false,
      "rstrip": false,
      "normalized": false,
      "special": true
    },
    {
      "id": 25,
      "content": "<|reserved_special_token_20|>",
      "single_word": false,
      "lstrip": false,
      "rstrip": false,
      "normalized": false,
      "special": true
    },
    {
      "id": 26,
      "content": "<|reserved_special_token_21|>",
      "single_word": false,
      "lstrip": false,
      "rstrip": false,
      "normalized": false,
      "special": true
    },
    {
      "id": 27,
      "content": "<|reserved_special_token_22|>",
      "single_word": false,
      "lstrip": false,
      "rstrip": false,
      "normalized": false,
      "special": true
    },
    {
      "id": 28,
      "content": "<|reserved_special_token_23|>",
      "single_word": false,
      "lstrip": false,
      "rstrip": false,
      "normalized": false,
      "special": true
    },
    {
      "id": 29,
      "content": "<|reserved_special_token_24|>",
      "single_word": false,
      "lstrip": false,
      "rstrip": false,
      "normalized": false,
      "special": true
    },
    {
      "id": 30,
      "content": "<|reserved_special_token_25|>",
      "single_word": false,
      "lstrip": false,
      "rstrip": false,
      "normalized": false,
      "special": true
    },
    {
      "id": 31,
      "content": "<|reserved_special_token_26|>",
      "single_word": false,
      "lstrip": false,
      "rstrip": false,
      "normalized": false,
      "special": true
    },
    {
      "id": 32,
      "content": "<|reserved_special_token_27|>",
      "single_word": false,
      "lstrip": false,
      "rstrip": false,
      "normalized": false,
      "special": true
    },
    {
      "id": 33,
      "content": "<|reserved_special_token_28|>",
      "single_word": false,
      "lstrip": false,
      "rstrip": false,
      "normalized": false,
      "special": true
    },
    {
      "id": 34,
      "content": "<|reserved_special_token_29|>",
      "single_word": false,
      "lstrip": false,
      "rstrip": false,
      "normalized": false,
      "special": true
    },
    {
      "id": 35,
      "content": "<|reserved_special_token_30|>",
      "single_word": false,
      "lstrip": false,
      "rstrip": false,
      "normalized": false,
      "special": true
    },
    {
      "id": 36,
      "content": "<|reserved_special_token_31|>",
      "single_word": false,
      "lstrip": false,
      "rstrip": false,
      "normalized": false,
      "special": true
    },
    {
      "id": 37,
      "content": "<|reserved_special_token_32|>",
      "single_word": false,
      "lstrip": false,
      "rstrip": false,
      "normalized": false,
      "special": true
    },
    {
      "id": 38,
      "content": "<|reserved_special_token_33|>",
      "single_word": false,
      "lstrip": false,
      "rstrip": false,
      "normalized": false,
      "special": true
    },
    {
      "id": 39,
      "content": "<|reserved_special_token_34|>",
      "single_word": false,
      "lstrip": false,
      "rstrip": false,
      "normalized": false,
      "special": true
    },
    {
      "id": 40,
      "content": "<|reserved_special_token_35|>",
      "single_word": false,
      "lstrip": false,
      "rstrip": false,
      "normalized": false,
      "special": true
    },
    {
      "id": 41,
      "content": "<|reserved_special_token_36|>",
      "single_word": false,
      "lstrip": false,
      "rstrip": false,
      "normalized": false,
      "special": true
    },
    {
      "id": 42,
      "content": "<|reserved_special_token_37|>",
      "single_word": false,
      "lstrip": false,
      "rstrip": false,
      "normalized": false,
      "special": true
    },
    {
      "id": 43,
      "content": "<|reserved_special_token_38|>",
      "single_word": false,
      "lstrip": false,
      "rstrip": false,
      "normalized": false,
      "special": true
    },
    {
      "id": 44,
      "content": "<|reserved_special_token_39|>",
      "single_word": false,
      "lstrip": false,
      "rstrip": false,
      "normalized": false,
      "special": true
    },
    {
      "id": 45,
      "content": "<|reserved_special_token_40|>",
      "single_word": false,
      "lstrip": false,
      "rstrip": false,
      "normalized": false,
      "special": true
    },
    {
      "id": 46,
      "content": "<|reserved_special_token_41|>",
      "single_word": false,
      "lstrip": false,
      "rstrip": false,
      "normalized": false,
      "special": true
    },
    {
      "id": 47,
      "content": "<|reserved_special_token_42|>",
      "single_word": false,
      "lstrip": false,
      "rstrip": false,
      "normalized": false,
      "special": true
    },
    {
      "id": 48,
      "content": "<|reserved_special_token_43|>",
      "single_word": false,
      "lstrip": false,
      "rstrip": false,
      "normalized": false,
      "special": true
    },
    {
      "id": 49,
      "content": "<|reserved_special_token_44|>",
      "single_word": false,
      "lstrip": false,
      "rstrip": false,
      "normalized": false,
      "special": true
    },
    {
      "id": 50,
      "content": "<|reserved_special_token_45|>",
      "single_word": false,
      "lstrip": false,
      "rstrip": false,
      "normalized": false,
      "special": true
    },
    {
      "id": 51,
      "content": "<|reserved_special_token_46|>",
      "single_word": false,
      "lstrip": false,
      "rstrip": false,
      "normalized": false,
      "special": true
    },
    {
      "id": 52,
      "content": "<|reserved_special_token_47|>",
      "single_word": false,
      "lstrip": false,
      "rstrip": false,
      "normalized": false,
      "special": true
    },
    {
      "id": 53,
      "content": "<|reserved_special_token_48|>",
      "single_word": false,
      "lstrip": false,
      "rstrip": false,
      "normalized": false,
      "special": true
    },
    {
      "id": 54,
      "content": "<|reserved_special_token_49|>",
      "single_word": false,
      "lstrip": false,
      "rstrip": false,
      "normalized": false,
      "special": true
    },
    {
      "id": 55,
      "content": "<|reserved_special_token_50|>",
      "single_word": false,
      "lstrip": false,
      "rstrip": false,
      "normalized": false,
      "special": true
    },
    {
      "id": 56,
      "content": "<|reserved_special_token_51|>",
      "single_word": false,
      "lstrip": false,
      "rstrip": false,
      "normalized": false,
      "special": true
    },
    {
      "id": 57,
      "content": "<|reserved_special_token_52|>",
      "single_word": false,
      "lstrip": false,
      "rstrip": false,
      "normalized": false,
      "special": true
    },
    {
      "id": 58,
      "content": "<|reserved_special_token_53|>",
      "single_word": false,
      "lstrip": false,
      "rstrip": false,
      "normalized": false,
      "special": true
    },
    {
      "id": 59,
      "content": "<|reserved_special_token_54|>",
      "single_word": false,
      "lstrip": false,
      "rstrip": false,
      "normalized": false,
      "special": true
    },
    {
      "id": 60,
      "content": "<|reserved_special_token_55|>",
      "single_word": false,
      "lstrip": false,
      "rstrip": false,
      "normalized": false,
      "special": true
    },
    {
      "id": 61,
      "content": "<|reserved_special_token_56|>",
      "single_word": false,
      "lstrip": false,
      "rstrip": false,
      "normalized": false,
      "special": true
    },
    {
      "id": 62,
      "content": "<|reserved_special_token_57|>",
      "single_word": false,
      "lstrip": false,
      "rstrip": false,
      "normalized": false,
      "special": true
    },
    {
      "id": 63,
      "content": "<|reserved_special_token_58|>",
      "single_word": false,
      "lstrip": false,
      "rstrip": false,
      "normalized": false,
      "special": true
    },
    {
      "id": 64,
      "content": "<|reserved_special_token_59|>",
      "single_word": false,
      "lstrip": false,
      "rstrip": false,
      "normalized": false,
      "special": true
    },
    {
      "id": 65,
      "content": "<|reserved_special_token_60|>",
      "single_word": false,
      "lstrip": false,
      "rstrip": false,
      "normalized": false,
      "special": true
    },
    {
      "id": 66,
      "content": "<|reserved_special_token_61|>",
      "single_word": false,
      "lstrip": false,
      "rstrip": false,
      "normalized": false,
      "special": true
    },
    {
      "id": 67,
      "content": "<|reserved_special_token_62|>",
      "single_word": false,
      "lstrip": false,
      "rstrip": false,
      "normalized": false,
      "special": true
    },
    {
      "id": 68,
      "content": "<|reserved_special_token_63|>",
      "single_word": false,
      "lstrip": false,
      "rstrip": false,
      "normalized": false,
      "special": true
    },
    {
      "id": 69,
      "content": "<|reserved_special_token_64|>",
      "single_word": false,
      "lstrip": false,
      "rstrip": false,
      "normalized": false,
      "special": true
    },
    {
      "id": 70,
      "content": "<|reserved_special_token_65|>",
      "single_word": false,
      "lstrip": false,
      "rstrip": false,
      "normalized": false,
      "special": true
    },
    {
      "id": 71,
      "content": "<|reserved_special_token_66|>",
      "single_word": false,
      "lstrip": false,
      "rstrip": false,
      "normalized": false,
      "special": true
    },
    {
      "id": 72,
      "content": "<|reserved_special_token_67|>",
      "single_word": false,
      "lstrip": false,
      "rstrip": false,
      "normalized": false,
      "special": true
    },
    {
      "id": 73,
      "content": "<|reserved_special_token_68|>",
      "single_word": false,
      "lstrip": false,
      "rstrip": false,
      "normalized": false,
      "special": true
    },
    {
      "id": 74,
      "content": "<|reserved_special_token_69|>",
      "single_word": false,
      "lstrip": false,
      "rstrip": false,
      "normalized": false,
      "special": true
    },
    {
      "id": 75,
      "content": "<|reserved_special_token_70|>",
      "single_word": false,
      "lstrip": false,
      "rstrip": false,
      "normalized": false,
      "special": true
    },
    {
      "id": 76,
      "content": "<|reserved_special_token_71|>",
      "single_word": false,
      "lstrip": false,
      "rstrip": false,
      "normalized": false,
      "special": true
    },
    {
      "id": 77,
      "content": "<|reserved_special_token_72|>",
      "single_word": false,
      "lstrip": false,
      "rstrip": false,
      "normalized": false,
      "special": true
    },
    {
      "id": 78,
      "content": "<|reserved_special_token_73|>",
      "single_word": false,
      "lstrip": false,
      "rstrip": false,
      "normalized": false,
      "special": true
    },
    {
      "id": 79,
      "content": "<|reserved_special_token_74|>",
      "single_word": false,
      "lstrip": false,
      "rstrip": false,
      "normalized": false,
      "special": true
    },
    {
      "id": 80,
      "content": "<|reserved_special_token_75|>",
      "single_word": false,
      "lstrip": false,
      "rstrip": false,
      "normalized": false,
      "special": true
    },
    {
      "id": 81,
      "content": "<|reserved_special_token_76|>",
      "single_word": false,
      "lstrip": false,
      "rstrip": false,
      "normalized": false,
      "special": true
    },
    {
      "id": 82,
      "content": "<|reserved_special_token_77|>",
      "single_word": false,
      "lstrip": false,
      "rstrip": false,
      "normalized": false,
      "special": true
    },
    {
      "id": 83,
      "content": "<|reserved_special_token_78|>",
      "single_word": false,
      "lstrip": false,
      "rstrip": false,
      "normalized": false,
      "special": true
    },
    {
      "id": 84,
      "content": "<|reserved_special_token_79|>",
      "single_word": false,
      "lstrip": false,
      "rstrip": false,
      "normalized": false,
      "special": true
    },
    {
      "id": 85,
      "content": "<|reserved_special_token_80|>",
      "single_word": false,
      "lstrip": false,
      "rstrip": false,
      "normalized": false,
      "special": true
    },
    {
      "id": 86,
      "content": "<|reserved_special_token_81|>",
      "single_word": false,
      "lstrip": false,
      "rstrip": false,
      "normalized": false,
      "special": true
    },
    {
      "id": 87,
      "content": "<|reserved_special_token_82|>",
      "single_word": false,
      "lstrip": false,
      "rstrip": false,
      "normalized": false,
      "special": true
    },
    {
      "id": 88,
      "content": "<|reserved_special_token_83|>",
      "single_word": false,
      "lstrip": false,
      "rstrip": false,
      "normalized": false,
      "special": true
    },
    {
      "id": 89,
      "content": "<|reserved_special_token_84|>",
      "single_word": false,
      "lstrip": false,
      "rstrip": false,
      "normalized": false,
      "special": true
    },
    {
      "id": 90,
      "content": "<|reserved_special_token_85|>",
      "single_word": false,
      "lstrip": false,
      "rstrip": false,
      "normalized": false,
      "special": true
    },
    {
      "id": 91,
      "content": "<|reserved_special_token_86|>",
      "single_word": false,
      "lstrip": false,
      "rstrip": false,
      "normalized": false,
      "special": true
    },
    {
      "id": 92,
      "content": "<|reserved_special_token_87|>",
      "single_word": false,
      "lstrip": false,
      "rstrip": false,
      "normalized": false,
      "special": true
    },
    {
      "id": 93,
      "content": "<|reserved_special_token_88|>",
      "single_word": false,
      "lstrip": false,
      "rstrip": false,
      "normalized": false,
      "special": true
    },
    {
      "id": 94,
      "content": "<|reserved_special_token_89|>",
      "single_word": false,
      "lstrip": false,
      "rstrip": false,
      "normalized": false,
      "special": true
    },
    {
      "id": 95,
      "content": "<|reserved_special_token_90|>",
      "single_word": false,
      "lstrip": false,
      "rstrip": false,
      "normalized": false,
      "special": true
    },
    {
      "id": 96,
      "content": "<|reserved_special_token_91|>",
      "single_word": false,
      "lstrip": false,
      "rstrip": false,
      "normalized": false,
      "special": true
    },
    {
      "id": 97,
      "content": "<|reserved_special_token_92|>",
      "single_word": false,
      "lstrip": false,
      "rstrip": false,
      "normalized": false,
      "special": true
    },
    {
      "id": 98,
      "content": "<|reserved_special_token_93|>",
      "single_word": false,
      "lstrip": false,
      "rstrip": false,
      "normalized": false,
      "special": true
    },
    {
      "id": 99,
      "content": "<|reserved_special_token_94|>",
      "single_word": false,
      "lstrip": false,
      "rstrip": false,
      "normalized": false,
      "special": true
    },
    {
      "id": 100,
      "content": "<|reserved_special_token_95|>",
      "single_word": false,
      "lstrip": false,
      "rstrip": false,
      "normalized": false,
      "special": true
    },
    {
      "id": 101,
      "content": "<|reserved_special_token_96|>",
      "single_word": false,
      "lstrip": false,
      "rstrip": false,
      "normalized": false,
      "special": true
    },
    {
      "id": 102,
      "content": "<|reserved_special_token_97|>",
      "single_word": false,
      "lstrip": false,
      "rstrip": false,
      "normalized": false,
      "special": true
    },
    {
      "id": 103,
      "content": "<|reserved_special_token_98|>",
      "single_word": false,
      "lstrip": false,
      "rstrip": false,
      "normalized": false,
      "special": true
    },
    {
      "id": 104,
      "content": "<|reserved_special_token_99|>",
      "single_word": false,
      "lstrip": false,
      "rstrip": false,
      "normalized": false,
      "special": true
    },
    {
      "id": 105,
      "content": "<|reserved_special_token_100|>",
      "single_word": false,
      "lstrip": false,
      "rstrip": false,
      "normalized": false,
      "special": true
    },
    {
      "id": 106,
      "content": "<|reserved_special_token_101|>",
      "single_word": false,
      "lstrip": false,
      "rstrip": false,
      "normalized": false,
      "special": true
    },
    {
      "id": 107,
      "content": "<|reserved_special_token_102|>",
      "single_word": false,
      "lstrip": false,
      "rstrip": false,
      "normalized": false,
      "special": true
    },
    {
      "id": 108,
      "content": "<|reserved_special_token_103|>",
      "single_word": false,
      "lstrip": false,
      "rstrip": false,
      "normalized": false,
      "special": true
    },
    {
      "id": 109,
      "content": "<|reserved_special_token_104|>",
      "single_word": false,
      "lstrip": false,
      "rstrip": false,
      "normalized": false,
      "special": true
    },
    {
      "id": 110,
      "content": "<|reserved_special_token_105|>",
      "single_word": false,
      "lstrip": false,
      "rstrip": false,
      "normalized": false,
      "special": true
    },
    {
      "id": 111,
      "content": "<|reserved_special_token_106|>",
      "single_word": false,
      "lstrip": false,
      "rstrip": false,
      "normalized": false,
      "special": true
    },
    {
      "id": 112,
      "content": "<|reserved_special_token_107|>",
      "single_word": false,
      "lstrip": false,
      "rstrip": false,
      "normalized": false,
      "special": true
    },
    {
      "id": 113,
      "content": "<|reserved_special_token_108|>",
      "single_word": false,
      "lstrip": false,
      "rstrip": false,
      "normalized": false,
      "special": true
    },
    {
      "id": 114,
      "content": "<|reserved_special_token_109|>",
      "single_word": false,
      "lstrip": false,
      "rstrip": false,
      "normalized": false,
      "special": true
    },
    {
      "id": 115,
      "content": "<|reserved_special_token_110|>",
      "single_word": false,
      "lstrip": false,
      "rstrip": false,
      "normalized": false,
      "special": true
    },
    {
      "id": 116,
      "content": "<|reserved_special_token_111|>",
      "single_word": false,
      "lstrip": false,
      "rstrip": false,
      "normalized": false,
      "special": true
    },
    {
      "id": 117,
      "content": "<|reserved_special_token_112|>",
      "single_word": false,
      "lstrip": false,
      "rstrip": false,
      "normalized": false,
      "special": true
    },
    {
      "id": 118,
      "content": "<|reserved_special_token_113|>",
      "single_word": false,
      "lstrip": false,
      "rstrip": false,
      "normalized": false,
      "special": true
    },
    {
      "id": 119,
      "content": "<|reserved_special_token_114|>",
      "single_word": false,
      "lstrip": false,
      "rstrip": false,
      "normalized": false,
      "special": true
    },
    {
      "id": 120,
      "content": "<|reserved_special_token_115|>",
      "single_word": false,
      "lstrip": false,
      "rstrip": false,
      "normalized": false,
      "special": true
    },
    {
      "id": 121,
      "content": "<|reserved_special_token_116|>",
      "single_word": false,
      "lstrip": false,
      "rstrip": false,
      "normalized": false,
      "special": true
    },
    {
      "id": 122,
      "content": "<|reserved_special_token_117|>",
      "single_word": false,
      "lstrip": false,
      "rstrip": false,
      "normalized": false,
      "special": true
    },
    {
      "id": 123,
      "content": "<|reserved_special_token_118|>",
      "single_word": false,
      "lstrip": false,
      "rstrip": false,
      "normalized": false,
      "special": true
    },
    {
      "id": 124,
      "content": "<|reserved_special_token_119|>",
      "single_word": false,
      "lstrip": false,
      "rstrip": false,
      "normalized": false,
      "special": true
    },
    {
      "id": 125,
      "content": "<|reserved_special_token_120|>",
      "single_word": false,
      "lstrip": false,
      "rstrip": false,
      "normalized": false,
      "special": true
    },
    {
      "id": 126,
      "content": "<|reserved_special_token_121|>",
      "single_word": false,
      "lstrip": false,
      "rstrip": false,
      "normalized": false,
      "special": true
    },
    {
      "id": 127,
      "content": "<|reserved_special_token_122|>",
      "single_word": false,
      "lstrip": false,
      "rstrip": false,
      "normalized": false,
      "special": true
    },
    {
      "id": 128,
      "content": "<|reserved_special_token_123|>",
      "single_word": false,
      "lstrip": false,
      "rstrip": false,
      "normalized": false,
      "special": true
    },
    {
      "id": 129,
      "content": "<|reserved_special_token_124|>",
      "single_word": false,
      "lstrip": false,
      "rstrip": false,
      "normalized": false,
      "special": true
    },
    {
      "id": 130,
      "content": "<|reserved_special_token_125|>",
      "single_word": false,
      "lstrip": false,
      "rstrip": false,
      "normalized": false,
      "special": true
    },
    {
      "id": 131,
      "content": "<|reserved_special_token_126|>",
      "single_word": false,
      "lstrip": false,
      "rstrip": false,
      "normalized": false,
      "special": true
    },
    {
      "id": 132,
      "content": "<|reserved_special_token_127|>",
      "single_word": false,
      "lstrip": false,
      "rstrip": false,
      "normalized": false,
      "special": true
    },
    {
      "id": 133,
      "content": "<|reserved_special_token_128|>",
      "single_word": false,
      "lstrip": false,
      "rstrip": false,
      "normalized": false,
      "special": true
    },
    {
      "id": 134,
      "content": "<|reserved_special_token_129|>",
      "single_word": false,
      "lstrip": false,
      "rstrip": false,
      "normalized": false,
      "special": true
    },
    {
      "id": 135,
      "content": "<|reserved_special_token_130|>",
      "single_word": false,
      "lstrip": false,
      "rstrip": false,
      "normalized": false,
      "special": true
    },
    {
      "id": 136,
      "content": "<|reserved_special_token_131|>",
      "single_word": false,
      "lstrip": false,
      "rstrip": false,
      "normalized": false,
      "special": true
    },
    {
      "id": 137,
      "content": "<|reserved_special_token_132|>",
      "single_word": false,
      "lstrip": false,
      "rstrip": false,
      "normalized": false,
      "special": true
    },
    {
      "id": 138,
      "content": "<|reserved_special_token_133|>",
      "single_word": false,
      "lstrip": false,
      "rstrip": false,
      "normalized": false,
      "special": true
    },
    {
      "id": 139,
      "content": "<|reserved_special_token_134|>",
      "single_word": false,
      "lstrip": false,
      "rstrip": false,
      "normalized": false,
      "special": true
    },
    {
      "id": 140,
      "content": "<|reserved_special_token_135|>",
      "single_word": false,
      "lstrip": false,
      "rstrip": false,
      "normalized": false,
      "special": true
    },
    {
      "id": 141,
      "content": "<|reserved_special_token_136|>",
      "single_word": false,
      "lstrip": false,
      "rstrip": false,
      "normalized": false,
      "special": true
    },
    {
      "id": 142,
      "content": "<|reserved_special_token_137|>",
      "single_word": false,
      "lstrip": false,
      "rstrip": false,
      "normalized": false,
      "special": true
    },
    {
      "id": 143,
      "content": "<|reserved_special_token_138|>",
      "single_word": false,
      "lstrip": false,
      "rstrip": false,
      "normalized": false,
      "special": true
    },
    {
      "id": 144,
      "content": "<|reserved_special_token_139|>",
      "single_word": false,
      "lstrip": false,
      "rstrip": false,
      "normalized": false,
      "special": true
    },
    {
      "id": 145,
      "content": "<|reserved_special_token_140|>",
      "single_word": false,
      "lstrip": false,
      "rstrip": false,
      "normalized": false,
      "special": true
    },
    {
      "id": 146,
      "content": "<|reserved_special_token_141|>",
      "single_word": false,
      "lstrip": false,
      "rstrip": false,
      "normalized": false,
      "special": true
    },
    {
      "id": 147,
      "content": "<|reserved_special_token_142|>",
      "single_word": false,
      "lstrip": false,
      "rstrip": false,
      "normalized": false,
      "special": true
    },
    {
      "id": 148,
      "content": "<|reserved_special_token_143|>",
      "single_word": false,
      "lstrip": false,
      "rstrip": false,
      "normalized": false,
      "special": true
    },
    {
      "id": 149,
      "content": "<|reserved_special_token_144|>",
      "single_word": false,
      "lstrip": false,
      "rstrip": false,
      "normalized": false,
      "special": true
    },
    {
      "id": 150,
      "content": "<|reserved_special_token_145|>",
      "single_word": false,
      "lstrip": false,
      "rstrip": false,
      "normalized": false,
      "special": true
    },
    {
      "id": 151,
      "content": "<|reserved_special_token_146|>",
      "single_word": false,
      "lstrip": false,
      "rstrip": false,
      "normalized": false,
      "special": true
    },
    {
      "id": 152,
      "content": "<|reserved_special_token_147|>",
      "single_word": false,
      "lstrip": false,
      "rstrip": false,
      "normalized": false,
      "special": true
    },
    {
      "id": 153,
      "content": "<|reserved_special_token_148|>",
      "single_word": false,
      "lstrip": false,
      "rstrip": false,
      "normalized": false,
      "special": true
    },
    {
      "id": 154,
      "content": "<|reserved_special_token_149|>",
      "single_word": false,
      "lstrip": false,
      "rstrip": false,
      "normalized": false,
      "special": true
    },
    {
      "id": 155,
      "content": "<|reserved_special_token_150|>",
      "single_word": false,
      "lstrip": false,
      "rstrip": false,
      "normalized": false,
      "special": true
    },
    {
      "id": 156,
      "content": "<|reserved_special_token_151|>",
      "single_word": false,
      "lstrip": false,
      "rstrip": false,
      "normalized": false,
      "special": true
    },
    {
      "id": 157,
      "content": "<|reserved_special_token_152|>",
      "single_word": false,
      "lstrip": false,
      "rstrip": false,
      "normalized": false,
      "special": true
    },
    {
      "id": 158,
      "content": "<|reserved_special_token_153|>",
      "single_word": false,
      "lstrip": false,
      "rstrip": false,
      "normalized": false,
      "special": true
    },
    {
      "id": 159,
      "content": "<|reserved_special_token_154|>",
      "single_word": false,
      "lstrip": false,
      "rstrip": false,
      "normalized": false,
      "special": true
    },
    {
      "id": 160,
      "content": "<|reserved_special_token_155|>",
      "single_word": false,
      "lstrip": false,
      "rstrip": false,
      "normalized": false,
      "special": true
    },
    {
      "id": 161,
      "content": "<|reserved_special_token_156|>",
      "single_word": false,
      "lstrip": false,
      "rstrip": false,
      "normalized": false,
      "special": true
    },
    {
      "id": 162,
      "content": "<|reserved_special_token_157|>",
      "single_word": false,
      "lstrip": false,
      "rstrip": false,
      "normalized": false,
      "special": true
    },
    {
      "id": 163,
      "content": "<|reserved_special_token_158|>",
      "single_word": false,
      "lstrip": false,
      "rstrip": false,
      "normalized": false,
      "special": true
    },
    {
      "id": 164,
      "content": "<|reserved_special_token_159|>",
      "single_word": false,
      "lstrip": false,
      "rstrip": false,
      "normalized": false,
      "special": true
    },
    {
      "id": 165,
      "content": "<|reserved_special_token_160|>",
      "single_word": false,
      "lstrip": false,
      "rstrip": false,
      "normalized": false,
      "special": true
    },
    {
      "id": 166,
      "content": "<|reserved_special_token_161|>",
      "single_word": false,
      "lstrip": false,
      "rstrip": false,
      "normalized": false,
      "special": true
    },
    {
      "id": 167,
      "content": "<|reserved_special_token_162|>",
      "single_word": false,
      "lstrip": false,
      "rstrip": false,
      "normalized": false,
      "special": true
    },
    {
      "id": 168,
      "content": "<|reserved_special_token_163|>",
      "single_word": false,
      "lstrip": false,
      "rstrip": false,
      "normalized": false,
      "special": true
    },
    {
      "id": 169,
      "content": "<|reserved_special_token_164|>",
      "single_word": false,
      "lstrip": false,
      "rstrip": false,
      "normalized": false,
      "special": true
    },
    {
      "id": 170,
      "content": "<|reserved_special_token_165|>",
      "single_word": false,
      "lstrip": false,
      "rstrip": false,
      "normalized": false,
      "special": true
    },
    {
      "id": 171,
      "content": "<|reserved_special_token_166|>",
      "single_word": false,
      "lstrip": false,
      "rstrip": false,
      "normalized": false,
      "special": true
    },
    {
      "id": 172,
      "content": "<|reserved_special_token_167|>",
      "single_word": false,
      "lstrip": false,
      "rstrip": false,
      "normalized": false,
      "special": true
    },
    {
      "id": 173,
      "content": "<|reserved_special_token_168|>",
      "single_word": false,
      "lstrip": false,
      "rstrip": false,
      "normalized": false,
      "special": true
    },
    {
      "id": 174,
      "content": "<|reserved_special_token_169|>",
      "single_word": false,
      "lstrip": false,
      "rstrip": false,
      "normalized": false,
      "special": true
    },
    {
      "id": 175,
      "content": "<|reserved_special_token_170|>",
      "single_word": false,
      "lstrip": false,
      "rstrip": false,
      "normalized": false,
      "special": true
    },
    {
      "id": 176,
      "content": "<|reserved_special_token_171|>",
      "single_word": false,
      "lstrip": false,
      "rstrip": false,
      "normalized": false,
      "special": true
    },
    {
      "id": 177,
      "content": "<|reserved_special_token_172|>",
      "single_word": false,
      "lstrip": false,
      "rstrip": false,
      "normalized": false,
      "special": true
    },
    {
      "id": 178,
      "content": "<|reserved_special_token_173|>",
      "single_word": false,
      "lstrip": false,
      "rstrip": false,
      "normalized": false,
      "special": true
    },
    {
      "id": 179,
      "content": "<|reserved_special_token_174|>",
      "single_word": false,
      "lstrip": false,
      "rstrip": false,
      "normalized": false,
      "special": true
    },
    {
      "id": 180,
      "content": "<|reserved_special_token_175|>",
      "single_word": false,
      "lstrip": false,
      "rstrip": false,
      "normalized": false,
      "special": true
    },
    {
      "id": 181,
      "content": "<|reserved_special_token_176|>",
      "single_word": false,
      "lstrip": false,
      "rstrip": false,
      "normalized": false,
      "special": true
    },
    {
      "id": 182,
      "content": "<|reserved_special_token_177|>",
      "single_word": false,
      "lstrip": false,
      "rstrip": false,
      "normalized": false,
      "special": true
    },
    {
      "id": 183,
      "content": "<|reserved_special_token_178|>",
      "single_word": false,
      "lstrip": false,
      "rstrip": false,
      "normalized": false,
      "special": true
    },
    {
      "id": 184,
      "content": "<|reserved_special_token_179|>",
      "single_word": false,
      "lstrip": false,
      "rstrip": false,
      "normalized": false,
      "special": true
    },
    {
      "id": 185,
      "content": "<|reserved_special_token_180|>",
      "single_word": false,
      "lstrip": false,
      "rstrip": false,
      "normalized": false,
      "special": true
    },
    {
      "id": 186,
      "content": "<|reserved_special_token_181|>",
      "single_word": false,
      "lstrip": false,
      "rstrip": false,
      "normalized": false,
      "special": true
    },
    {
      "id": 187,
      "content": "<|reserved_special_token_182|>",
      "single_word": false,
      "lstrip": false,
      "rstrip": false,
      "normalized": false,
      "special": true
    },
    {
      "id": 188,
      "content": "<|reserved_special_token_183|>",
      "single_word": false,
      "lstrip": false,
      "rstrip": false,
      "normalized": false,
      "special": true
    },
    {
      "id": 189,
      "content": "<|reserved_special_token_184|>",
      "single_word": false,
      "lstrip": false,
      "rstrip": false,
      "normalized": false,
      "special": true
    },
    {
      "id": 190,
      "content": "<|reserved_special_token_185|>",
      "single_word": false,
      "lstrip": false,
      "rstrip": false,
      "normalized": false,
      "special": true
    },
    {
      "id": 191,
      "content": "<|reserved_special_token_186|>",
      "single_word": false,
      "lstrip": false,
      "rstrip": false,
      "normalized": false,
      "special": true
    },
    {
      "id": 192,
      "content": "<|reserved_special_token_187|>",
      "single_word": false,
      "lstrip": false,
      "rstrip": false,
      "normalized": false,
      "special": true
    },
    {
      "id": 193,
      "content": "<|reserved_special_token_188|>",
      "single_word": false,
      "lstrip": false,
      "rstrip": false,
      "normalized": false,
      "special": true
    },
    {
      "id": 194,
      "content": "<|reserved_special_token_189|>",
      "single_word": false,
      "lstrip": false,
      "rstrip": false,
      "normalized": false,
      "special": true
    },
    {
      "id": 195,
      "content": "<|reserved_special_token_190|>",
      "single_word": false,
      "lstrip": false,
      "rstrip": false,
      "normalized": false,
      "special": true
    },
    {
      "id": 196,
      "content": "<|reserved_special_token_191|>",
      "single_word": false,
      "lstrip": false,
      "rstrip": false,
      "normalized": false,
      "special": true
    },
    {
      "id": 197,
      "content": "<|reserved_special_token_192|>",
      "single_word": false,
      "lstrip": false,
      "rstrip": false,
      "normalized": false,
      "special": true
    },
    {
      "id": 198,
      "content": "<|reserved_special_token_193|>",
      "single_word": false,
      "lstrip": false,
      "rstrip": false,
      "normalized": false,
      "special": true
    },
    {
      "id": 199,
      "content": "<|reserved_special_token_194|>",
      "single_word": false,
      "lstrip": false,
      "rstrip": false,
      "normalized": false,
      "special": true
    },
    {
      "id": 200,
      "content": "<|reserved_special_token_195|>",
      "single_word": false,
      "lstrip": false,
      "rstrip": false,
      "normalized": false,
      "special": true
    },
    {
      "id": 201,
      "content": "<|reserved_special_token_196|>",
      "single_word": false,
      "lstrip": false,
      "rstrip": false,
      "normalized": false,
      "special": true
    },
    {
      "id": 202,
      "content": "<|reserved_special_token_197|>",
      "single_word": false,
      "lstrip": false,
      "rstrip": false,
      "normalized": false,
      "special": true
    },
    {
      "id": 203,
      "content": "<|reserved_special_token_198|>",
      "single_word": false,
      "lstrip": false,
      "rstrip": false,
      "normalized": false,
      "special": true
    },
    {
      "id": 204,
      "content": "<|reserved_special_token_199|>",
      "single_word": false,
      "lstrip": false,
      "rstrip": false,
      "normalized": false,
      "special": true
    },
    {
      "id": 205,
      "content": "<|reserved_special_token_200|>",
      "single_word": false,
      "lstrip": false,
      "rstrip": false,
      "normalized": false,
      "special": true
    },
    {
      "id": 206,
      "content": "<|reserved_special_token_201|>",
      "single_word": false,
      "lstrip": false,
      "rstrip": false,
      "normalized": false,
      "special": true
    },
    {
      "id": 207,
      "content": "<|reserved_special_token_202|>",
      "single_word": false,
      "lstrip": false,
      "rstrip": false,
      "normalized": false,
      "special": true
    },
    {
      "id": 208,
      "content": "<|reserved_special_token_203|>",
      "single_word": false,
      "lstrip": false,
      "rstrip": false,
      "normalized": false,
      "special": true
    },
    {
      "id": 209,
      "content": "<|reserved_special_token_204|>",
      "single_word": false,
      "lstrip": false,
      "rstrip": false,
      "normalized": false,
      "special": true
    },
    {
      "id": 210,
      "content": "<|reserved_special_token_205|>",
      "single_word": false,
      "lstrip": false,
      "rstrip": false,
      "normalized": false,
      "special": true
    },
    {
      "id": 211,
      "content": "<|reserved_special_token_206|>",
      "single_word": false,
      "lstrip": false,
      "rstrip": false,
      "normalized": false,
      "special": true
    },
    {
      "id": 212,
      "content": "<|reserved_special_token_207|>",
      "single_word": false,
      "lstrip": false,
      "rstrip": false,
      "normalized": false,
      "special": true
    },
    {
      "id": 213,
      "content": "<|reserved_special_token_208|>",
      "single_word": false,
      "lstrip": false,
      "rstrip": false,
      "normalized": false,
      "special": true
    },
    {
      "id": 214,
      "content": "<|reserved_special_token_209|>",
      "single_word": false,
      "lstrip": false,
      "rstrip": false,
      "normalized": false,
      "special": true
    },
    {
      "id": 215,
      "content": "<|reserved_special_token_210|>",
      "single_word": false,
      "lstrip": false,
      "rstrip": false,
      "normalized": false,
      "special": true
    },
    {
      "id": 216,
      "content": "<|reserved_special_token_211|>",
      "single_word": false,
      "lstrip": false,
      "rstrip": false,
      "normalized": false,
      "special": true
    },
    {
      "id": 217,
      "content": "<|reserved_special_token_212|>",
      "single_word": false,
      "lstrip": false,
      "rstrip": false,
      "normalized": false,
      "special": true
    },
    {
      "id": 218,
      "content": "<|reserved_special_token_213|>",
      "single_word": false,
      "lstrip": false,
      "rstrip": false,
      "normalized": false,
      "special": true
    },
    {
      "id": 219,
      "content": "<|reserved_special_token_214|>",
      "single_word": false,
      "lstrip": false,
      "rstrip": false,
      "normalized": false,
      "special": true
    },
    {
      "id": 220,
      "content": "<|reserved_special_token_215|>",
      "single_word": false,
      "lstrip": false,
      "rstrip": false,
      "normalized": false,
      "special": true
    },
    {
      "id": 221,
      "content": "<|reserved_special_token_216|>",
      "single_word": false,
      "lstrip": false,
      "rstrip": false,
      "normalized": false,
      "special": true
    },
    {
      "id": 222,
      "content": "<|reserved_special_token_217|>",
      "single_word": false,
      "lstrip": false,
      "rstrip": false,
      "normalized": false,
      "special": true
    },
    {
      "id": 223,
      "content": "<|reserved_special_token_218|>",
      "single_word": false,
      "lstrip": false,
      "rstrip": false,
      "normalized": false,
      "special": true
    },
    {
      "id": 224,
      "content": "<|reserved_special_token_219|>",
      "single_word": false,
      "lstrip": false,
      "rstrip": false,
      "normalized": false,
      "special": true
    },
    {
      "id": 225,
      "content": "<|reserved_special_token_220|>",
      "single_word": false,
      "lstrip": false,
      "rstrip": false,
      "normalized": false,
      "special": true
    },
    {
      "id": 226,
      "content": "<|reserved_special_token_221|>",
      "single_word": false,
      "lstrip": false,
      "rstrip": false,
      "normalized": false,
      "special": true
    },
    {
      "id": 227,
      "content": "<|reserved_special_token_222|>",
      "single_word": false,
      "lstrip": false,
      "rstrip": false,
      "normalized": false,
      "special": true
    },
    {
      "id": 228,
      "content": "<|reserved_special_token_223|>",
      "single_word": false,
      "lstrip": false,
      "rstrip": false,
      "normalized": false,
      "special": true
    },
    {
      "id": 229,
      "content": "<|reserved_special_token_224|>",
      "single_word": false,
      "lstrip": false,
      "rstrip": false,
      "normalized": false,
      "special": true
    },
    {
      "id": 230,
      "content": "<|reserved_special_token_225|>",
      "single_word": false,
      "lstrip": false,
      "rstrip": false,
      "normalized": false,
      "special": true
    },
    {
      "id": 231,
      "content": "<|reserved_special_token_226|>",
      "single_word": false,
      "lstrip": false,
      "rstrip": false,
      "normalized": false,
      "special": true
    },
    {
      "id": 232,
      "content": "<|reserved_special_token_227|>",
      "single_word": false,
      "lstrip": false,
      "rstrip": false,
      "normalized": false,
      "special": true
    },
    {
      "id": 233,
      "content": "<|reserved_special_token_228|>",
      "single_word": false,
      "lstrip": false,
      "rstrip": false,
      "normalized": false,
      "special": true
    },
    {
      "id": 234,
      "content": "<|reserved_special_token_229|>",
      "single_word": false,
      "lstrip": false,
      "rstrip": false,
      "normalized": false,
      "special": true
    },
    {
      "id": 235,
      "content": "<|reserved_special_token_230|>",
      "single_word": false,
      "lstrip": false,
      "rstrip": false,
      "normalized": false,
      "special": true
    },
    {
      "id": 236,
      "content": "<|reserved_special_token_231|>",
      "single_word": false,
      "lstrip": false,
      "rstrip": false,
      "normalized": false,
      "special": true
    },
    {
      "id": 237,
      "content": "<|reserved_special_token_232|>",
      "single_word": false,
      "lstrip": false,
      "rstrip": false,
      "normalized": false,
      "special": true
    },
    {
      "id": 238,
      "content": "<|reserved_special_token_233|>",
      "single_word": false,
      "lstrip": false,
      "rstrip": false,
      "normalized": false,
      "special": true
    },
    {
      "id": 239,
      "content": "<|reserved_special_token_234|>",
      "single_word": false,
      "lstrip": false,
      "rstrip": false,
      "normalized": false,
      "special": true
    },
    {
      "id": 240,
      "content": "<|reserved_special_token_235|>",
      "single_word": false,
      "lstrip": false,
      "rstrip": false,
      "normalized": false,
      "special": true
    },
    {
      "id": 241,
      "content": "<|reserved_special_token_236|>",
      "single_word": false,
      "lstrip": false,
      "rstrip": false,
      "normalized": false,
      "special": true
    },
    {
      "id": 242,
      "content": "<|reserved_special_token_237|>",
      "single_word": false,
      "lstrip": false,
      "rstrip": false,
      "normalized": false,
      "special": true
    },
    {
      "id": 243,
      "content": "<|reserved_special_token_238|>",
      "single_word": false,
      "lstrip": false,
      "rstrip": false,
      "normalized": false,
      "special": true
    },
    {
      "id": 244,
      "content": "<|reserved_special_token_239|>",
      "single_word": false,
      "lstrip": false,
      "rstrip": false,
      "normalized": false,
      "special": true
    },
    {
      "id": 245,
      "content": "<|reserved_special_token_240|>",
      "single_word": false,
      "lstrip": false,
      "rstrip": false,
      "normalized": false,
      "special": true
    },
    {
      "id": 246,
      "content": "<|reserved_special_token_241|>",
      "single_word": false,
      "lstrip": false,
      "rstrip": false,
      "normalized": false,
      "special": true
    },
    {
      "id": 247,
      "content": "<|reserved_special_token_242|>",
      "single_word": false,
      "lstrip": false,
      "rstrip": false,
      "normalized": false,
      "special": true
    },
    {
      "id": 248,
      "content": "<|reserved_special_token_243|>",
      "single_word": false,
      "lstrip": false,
      "rstrip": false,
      "normalized": false,
      "special": true
    },
    {
      "id": 249,
      "content": "<|reserved_special_token_244|>",
      "single_word": false,
      "lstrip": false,
      "rstrip": false,
      "normalized": false,
      "special": true
    },
    {
      "id": 250,
      "content": "<|reserved_special_token_245|>",
      "single_word": false,
      "lstrip": false,
      "rstrip": false,
      "normalized": false,
      "special": true
    },
    {
      "id": 251,
      "content": "<|reserved_special_token_246|>",
      "single_word": false,
      "lstrip": false,
      "rstrip": false,
      "normalized": false,
      "special": true
    },
    {
      "id": 252,
      "content": "<|reserved_special_token_247|>",
      "single_word": false,
      "lstrip": false,
      "rstrip": false,
      "normalized": false,
      "special": true
    },
    {
      "id": 253,
      "content": "<|reserved_special_token_248|>",
      "single_word": false,
      "lstrip": false,
      "rstrip": false,
      "normalized": false,
      "special": true
    },
    {
      "id": 254,
      "content": "<|reserved_special_token_249|>",
      "single_word": false,
      "lstrip": false,
      "rstrip": false,
      "normalized": false,
      "special": true
    },
    {
      "id": 255,
      "content": "<|reserved_special_token_250|>",
      "single_word": false,
      "lstrip": false,
      "rstrip": false,
      "normalized": false,
      "special": true
    }
  ],
  "normalizer": null,
  "pre_tokenizer": {
    "type": "Sequence",
    "pretokenizers": [
      {
        "type": "Split",
        "pattern": {
          "Regex": "(?i:'s|'t|'re|'ve|'m|'ll|'d)|[^\\r\\n\\p{L}\\p{N}]?\\p{L}+|\\p{N}{1,3}| ?[^\\s\\p{L}\\p{N}]+[\\r\\n]*|\\s*[\\r\\n]+|\\s+(?!\\S)|\\s+"
        },
        "behavior": "Isolated",
        "invert": false
      },
      {
        "type": "ByteLevel",
        "add_prefix_space": false,
        "trim_offsets": true,
        "use_regex": false
      }
    ]
  },
  "post_processor": {
    "type": "Sequence",
    "processors": [
      {
        "type": "ByteLevel",
        "add_prefix_space": true,
        "trim_offsets": false,
        "use_regex": true
      },
      {
        "type": "TemplateProcessing",
        "single": [
          {
            "SpecialToken": {
              "id": "<|begin_of_text|>",
              "type_id": 0
            }
          },
          {
            "Sequence": {
              "id": "A",
              "type_id": 0
            }
          }
        ],
        "pair": [
          {
            "SpecialToken": {
              "id": "<|begin_of_text|>",
              "type_id": 0
            }
          },
          {
            "Sequence": {
              "id": "A",
              "type_id": 0
            }
          },
          {
            "SpecialToken": {
              "id": "<|begin_of_text|>",
              "type_id": 1
            }
          },
          {
            "Sequence": {
              "id": "B",
              "type_id": 1
            }
          }
        ],
        "special_tokens": {
          "<|begin_of_text|>": {
            "id": "<|begin_of_text|>",
            "ids": [
              128000
            ],
            "tokens": [
              "<|begin_of_text|>"
            ]
          }
        }
      }
    ]
  },
  "decoder": {
    "type": "ByteLevel",
    "add_prefix_space": true,
    "trim_offsets": true,
    "use_regex": true
  },
  "model": {
    "type": "BPE",
    "dropout": null,
    "unk_token": null,
    "continuing_subword_prefix": null,
    "end_of_word_suffix": null,
    "fuse_unk": false,
    "byte_fallback": false,
    "ignore_merges": true,
    "vocab": {
      "<|begin_of_text|>": 0,
      "<|end_of_text|>": 1,
      "<|reserved_special_token_0|>": 2,
      "<|reserved_special_token_1|>": 3,
      "<|reserved_special_token_2|>": 4,
      "<|reserved_special_token_3|>": 5,
      "<|start_header_id|>": 6,
      "<|end_header_id|>": 7,
      "<|reserved_special_token_4|>": 8,
      "<|eot_id|>": 9,
      "<|reserved_special_token_5|>": 10,
      "<|reserved_special_token_6|>": 11,
      "<|reserved_special_token_7|>": 12,
      "<|reserved_special_token_8|>": 13,
      "<|reserved_special_token_9|>": 14,
      "<|reserved_special_token_10|>": 15,
      "<|reserved_special_token_11|>": 16,
      "<|reserved_special_token_12|>": 17,
      "<|reserved_special_token_13|>": 18,
      "<|reserved_special_token_14|>": 19,
      "<|reserved_special_token_15|>": 20,
      "<|reserved_special_token_16|>": 21,
      "<|reserved_special_token_17|>": 22,
      "<|reserved_special_token_18|>": 23,
      "<|reserved_special_token_19|>": 24,
      "<|reserved_special_token_20|>": 25,
      "<|reserved_special_token_21|>": 26,
      "<|reserved_special_token_22|>": 27,
      "<|reserved_special_token_23|>": 28,
      "<|reserved_special_token_24|>": 29,
      "<|reserved_special_token_25|>": 30,
      "<|reserved_special_token_26|>": 31,
      "<|reserved_special_token_27|>": 32,
      "<|reserved_special_token_28|>": 33,
      "<|reserved_special_token_29|>": 34,
      "<|reserved_special_token_30|>": 35,
      "<|reserved_special_token_31|>": 36,
      "<|reserved_special_token_32|>": 37,
      "<|reserved_special_token_33|>": 38,
      "<|reserved_special_token_34|>": 39,
      "<|reserved_special_token_35|>": 40,
      "<|reserved_special_token_36|>": 41,
      "<|reserved_special_token_37|>": 42,
      "<|reserved_special_token_38|>": 43,
      "<|reserved_special_token_39|>": 44,
      "<|reserved_special_token_40|>": 45,
      "<|reserved_special_token_41|>": 46,
      "<|reserved_special_token_42|>": 47,
      "<|reserved_special_token_43|>": 48,
      "<|reserved_special_token_44|>": 49,
      "<|reserved_special_token_45|>": 50,
      "<|reserved_special_token_46|>": 51,
      "<|reserved_special_token_47|>": 52,
      "<|reserved_special_token_48|>": 53,
      "<|reserved_special_token_49|>": 54,
      "<|reserved_special_token_50|>": 55,
      "<|reserved_special_token_51|>": 56,
      "<|reserved_special_token_52|>": 57,
      "<|reserved_special_token_53|>": 58,
      "<|reserved_special_token_54|>": 59,
      "<|reserved_special_token_55|>": 60,
      "<|reserved_special_token_56|>": 61,
      "<|reserved_special_token_57|>": 62,
      "<|reserved_special_token_58|>": 63,
      "<|reserved_special_token_59|>": 64,
      "<|reserved_special_token_60|>": 65,
      "<|reserved_special_token_61|>": 66,
      "<|reserved_special_token_62|>": 67,
      "<|reserved_special_token_63|>": 68,
      "<|reserved_special_token_64|>": 69,
      "<|reserved_special_token_65|>": 70,
      "<|reserved_special_token_66|>": 71,
      "<|reserved_special_token_67|>": 72,
      "<|reserved_special_token_68|>": 73,
      "<|reserved_special_token_69|>": 74,
      "<|reserved_special_token_70|>": 75,
      "<|reserved_special_token_71|>": 76,
      "<|reserved_special_token_72|>": 77,
      "<|reserved_special_token_73|>": 78,
      "<|reserved_special_token_74|>": 79,
      "<|reserved_special_token_75|>": 80,
      "<|reserved_special_token_76|>": 81,
      "<|reserved_special_token_77|>": 82,
      "<|reserved_special_token_78|>": 83,
      "<|reserved_special_token_79|>": 84,
      "<|reserved_special_token_80|>": 85,
      "<|reserved_special_token_81|>": 86,
      "<|reserved_special_token_82|>": 87,
      "<|reserved_special_token_83|>": 88,
      "<|reserved_special_token_84|>": 89,
      "<|reserved_special_token_85|>": 90,
      "<|reserved_special_token_86|>": 91,
      "<|reserved_special_token_87|>": 92,
      "<|reserved_special_token_88|>": 93,
      "<|reserved_special_token_89|>": 94,
      "<|reserved_special_token_90|>": 95,
      "<|reserved_special_token_91|>": 96,
      "<|reserved_special_token_92|>": 97,
      "<|reserved_special_token_93|>": 98,
      "<|reserved_special_token_94|>": 99,
      "<|reserved_special_token_95|>": 100,
      "<|reserved_special_token_96|>": 101,
      "<|reserved_special_token_97|>": 102,
      "<|reserved_special_token_98|>": 103,
      "<|reserved_special_token_99|>": 104,
      "<|reserved_special_token_100|>": 105,
      "<|reserved_special_token_101|>": 106,
      "<|reserved_special_token_102|>": 107,
      "<|reserved_special_token_103|>": 108,
      "<|reserved_special_token_104|>": 109,
      "<|reserved_special_token_105|>": 110,
      "<|reserved_special_token_106|>": 111,
      "<|reserved_special_token_107|>": 112,
      "<|reserved_special_token_108|>": 113,
      "<|reserved_special_token_109|>": 114,
      "<|reserved_special_token_110|>": 115,
      "<|reserved_special_token_111|>": 116,
      "<|reserved_special_token_112|>": 117,
      "<|reserved_special_token_113|>": 118,
      "<|reserved_special_token_114|>": 119,
      "<|reserved_special_token_115|>": 120,
      "<|reserved_special_token_116|>": 121,
      "<|reserved_special_token_117|>": 122,
      "<|reserved_special_token_118|>": 123,
      "<|reserved_special_token_119|>": 124,
      "<|reserved_special_token_120|>": 125,
      "<|reserved_special_token_121|>": 126,
      "<|reserved_special_token_122|>": 127,
      "<|reserved_special_token_123|>": 128,
      "<|reserved_special_token_124|>": 129,
      "<|reserved_special_token_125|>": 130,
      "<|reserved_special_token_126|>": 131,
      "<|reserved_special_token_127|>": 132,
      "<|reserved_special_token_128|>": 133,
      "<|reserved_special_token_129|>": 134,
      "<|reserved_special_token_130|>": 135,
      "<|reserved_special_token_131|>": 136,
      "<|reserved_special_token_132|>": 137,
      "<|reserved_special_token_133|>": 138,
      "<|reserved_special_token_134|>": 139,
      "<|reserved_special_token_135|>": 140,
      "<|reserved_special_token_136|>": 141,
      "<|reserved_special_token_137|>": 142,
      "<|reserved_special_token_138|>": 143,
      "<|reserved_special_token_139|>": 144,
      "<|reserved_special_token_140|>": 145,
      "<|reserved_special_token_141|>": 146,
      "<|reserved_special_token_142|>": 147,
      "<|reserved_special_token_143|>": 148,
      "<|reserved_special_token_144|>": 149,
      "<|reserved_special_token_145|>": 150,
      "<|reserved_special_token_146|>": 151,
      "<|reserved_special_token_147|>": 152,
      "<|reserved_special_token_148|>": 153,
      "<|reserved_special_token_149|>": 154,
      "<|reserved_special_token_150|>": 155,
      "<|reserved_special_token_151|>": 156,
      "<|reserved_special_token_152|>": 157,
      "<|reserved_special_token_153|>": 158,
      "<|reserved_special_token_154|>": 159,
      "<|reserved_special_token_155|>": 160,
      "<|reserved_special_token_156|>": 161,
      "<|reserved_special_token_157|>": 162,
      "<|reserved_special_token_158|>": 163,
      "<|reserved_special_token_159|>": 164,
      "<|reserved_special_token_160|>": 165,
      "<|reserved_special_token_161|>": 166,
      "<|reserved_special_token_162|>": 167,
      "<|reserved_special_token_163|>": 168,
      "<|reserved_special_token_164|>": 169,
      "<|reserved_special_token_165|>": 170,
      "<|reserved_special_token_166|>": 171,
      "<|reserved_special_token_167|>": 172,
      "<|reserved_special_token_168|>": 173,
      "<|reserved_special_token_169|>": 174,
      "<|reserved_special_token_170|>": 175,
      "<|reserved_special_token_171|>": 176,
      "<|reserved_special_token_172|>": 177,
      "<|reserved_special_token_173|>": 178,
      "<|reserved_special_token_174|>": 179,
      "<|reserved_special_token_175|>": 180,
      "<|reserved_special_token_176|>": 181,
      "<|reserved_special_token_177|>": 182,
      "<|reserved_special_token_178|>": 183,
      "<|reserved_special_token_179|>": 184,
      "<|reserved_special_token_180|>": 185,
      "<|reserved_special_token_181|>": 186,
      "<|reserved_special_token_182|>": 187,
      "<|reserved_special_token_183|>": 188,
      "<|reserved_special_token_184|>": 189,
      "<|reserved_special_token_185|>": 190,
      "<|reserved_special_token_186|>": 191,
      "<|reserved_special_token_187|>": 192,
      "<|reserved_special_token_188|>": 193,
      "<|reserved_special_token_189|>": 194,
      "<|reserved_special_token_190|>": 195,
      "<|reserved_special_token_191|>": 196,
      "<|reserved_special_token_192|>": 197,
      "<|reserved_special_token_193|>": 198,
      "<|reserved_special_token_194|>": 199,
      "<|reserved_special_token_195|>": 200,
      "<|reserved_special_token_196|>": 201,
      "<|reserved_special_token_197|>": 202,
      "<|reserved_special_token_198|>": 203,
      "<|reserved_special_token_199|>": 204,
      "<|reserved_special_token_200|>": 205,
      "<|reserved_special_token_201|>": 206,
      "<|reserved_special_token_202|>": 207,
      "<|reserved_special_token_203|>": 208,
      "<|reserved_special_token_204|>": 209,
      "<|reserved_special_token_205|>": 210,
      "<|reserved_special_token_206|>": 211,
      "<|reserved_special_token_207|>": 212,
      "<|reserved_special_token_208|>": 213,
      "<|reserved_special_token_209|>": 214,
      "<|reserved_special_token_210|>": 215,
      "<|reserved_special_token_211|>": 216,
      "<|reserved_special_token_212|>": 217,
      "<|reserved_special_token_213|>": 218,
      "<|reserved_special_token_214|>": 219,
      "<|reserved_special_token_215|>": 220,
      "<|reserved_special_token_216|>": 221,
      "<|reserved_special_token_217|>": 222,
      "<|reserved_special_token_218|>": 223,
      "<|reserved_special_token_219|>": 224,
      "<|reserved_special_token_220|>": 225,
      "<|reserved_special_token_221|>": 226,
      "<|reserved_special_token_222|>": 227,
      "<|reserved_special_token_223|>": 228,
      "<|reserved_special_token_224|>": 229,
      "<|reserved_special_token_225|>": 230,
      "<|reserved_special_token_226|>": 231,
      "<|reserved_special_token_227|>": 232,
      "<|reserved_special_token_228|>": 233,
      "<|reserved_special_token_229|>": 234,
      "<|reserved_special_token_230|>": 235,
      "<|reserved_special_token_231|>": 236,
      "<|reserved_special_token_232|>": 237,
      "<|reserved_special_token_233|>": 238,
      "<|reserved_special_token_234|>": 239,
      "<|reserved_special_token_235|>": 240,
      "<|reserved_special_token_236|>": 241,
      "<|reserved_special_token_237|>": 242,
      "<|reserved_special_token_238|>": 243,
      "<|reserved_special_token_239|>": 244,
      "<|reserved_special_token_240|>": 245,
      "<|reserved_special_token_241|>": 246,
      "<|reserved_special_token_242|>": 247,
      "<|reserved_special_token_243|>": 248,
      "<|reserved_special_token_244|>": 249,
      "<|reserved_special_token_245|>": 250,
      "<|reserved_special_token_246|>": 251,
      "<|reserved_special_token_247|>": 252,
      "<|reserved_special_token_248|>": 253,
      "<|reserved_special_token_249|>": 254,
      "<|reserved_special_token_250|>": 255,
      "!": 256,
      "\"": 257,
      "#": 258,
      "$": 259,
      "%": 260,
      "&": 261,
      "'": 262,
      "(": 263,
      ")": 264,
      "*": 265,
      "+": 266,
      ",": 267,
      "-": 268,
      ".": 269,
      "/": 270,
      "0": 271,
      "1": 272,
      "2": 273,
      "3": 274,
      "4": 275,
      "5": 276,
      "6": 277,
      "7": 278,
      "8": 279,
      "9": 280,
      ":": 281,
      ";": 282,
      "<": 283,
      "=": 284,
      ">": 285,
      "?": 286,
      "@": 287,
      "A": 288,
      "B": 289,
      "C": 290,
      "D": 291,
      "E": 292,
      "F": 293,
      "G": 294,
      "H": 295,
      "I": 296,
      "J": 297,
      "K": 298,
      "L": 299,
      "M": 300,
      "N": 301,
      "O": 302,
      "P": 303,
      "Q": 304,
      "R": 305,
      "S": 306,
      "T": 307,
      "U": 308,
      "V": 309,
      "W": 310,
      "X": 311,
      "Y": 312,
      "Z": 313,
      "[": 314,
      "\\": 315,
      "]": 316,
      "^": 317,
      "_": 318,
      "`": 319,
      "a": 320,
      "b": 321,
      "c": 322,
      "d": 323,
      "e": 324,
      "f": 325,
      "g": 326,
      "h": 327,
      "i": 328,
      "j": 329,
      "k": 330,
      "l": 331,
      "m": 332,
      "n": 333,
      "o": 334,
      "p": 335,
      "q": 336,
      "r": 337,
      "s": 338,
      "t": 339,
      "u": 340,
      "v": 341,
      "w": 342,
      "x": 343,
      "y": 344,
      "z": 345,
      "{": 346,
      "|": 347,
      "}": 348,
      "~": 349,
      "¡": 350,
      "¢": 351,
      "£": 352,
      "¤": 353,
      "¥": 354,
      "¦": 355,
      "§": 356,
      "¨": 357,
      "©": 358,
      "ª": 359,
      "«": 360,
      "¬": 361,
      "®": 362,
      "¯": 363,
      "°": 364,
      "±": 365,
      "²": 366,
      "³": 367,
      "´": 368,
      "µ": 369,
      "¶": 370,
      "·": 371,
      "¸": 372,
      "¹": 373,
      "º": 374,
      "»": 375,
      "¼": 376,
      "½": 377,
      "¾": 378,
      "¿": 379,
      "À": 380,
      "Á": 381,
      "Â": 382,
      "Ã": 383,
      "Ä": 384,
      "Å": 385,
      "Æ": 386,
      "Ç": 387,
      "È": 388,
      "É": 389,
      "Ê": 390,
      "Ë": 391,
      "Ì": 392,
      "Í": 393,
      "Î": 394,
      "Ï": 395,
      "Ð": 396,
      "Ñ": 397,
      "Ò": 398,
      "Ó": 399,
      "Ô": 400,
      "Õ": 401,
      "Ö": 402,
      "×": 403,
      "Ø": 404,
      "Ù": 405,
      "Ú": 406,
      "Û": 407,
      "Ü": 408,
      "Ý": 409,
      "Þ": 410,
      "ß": 411,
      "à": 412,
      "á": 413,
      "â": 414,
      "ã": 415,
      "ä": 416,
      "å": 417,
      "æ": 418,
      "ç": 419,
      "è": 420,
      "é": 421,
      "ê": 422,
      "ë": 423,
      "ì": 424,
      "í": 425,
      "î": 426,
      "ï": 427,
      "ð": 428,
      "ñ": 429,
      "ò": 430,
      "ó": 431,
      "ô": 432,
      "õ": 433,
      "ö": 434,
      "÷": 435,
      "ø": 436,
      "ù": 437,
      "ú": 438,
      "û": 439,
      "ü": 440,
      "ý": 441,
      "þ": 442,
      "ÿ": 443,
      "Ā": 444,
      "ā": 445,
      "Ă": 446,
      "ă": 447,
      "Ą": 448,
      "ą": 449,
      "Ć": 450,
      "ć": 451,
      "Ĉ": 452,
      "ĉ": 453,
      "Ċ": 454,
      "ċ": 455,
      "Č": 456,
      "č": 457,
      "Ď": 458,
      "ď": 459,
      "Đ": 460,
      "đ": 461,
      "Ē": 462,
      "ē": 463,
      "Ĕ": 464,
      "ĕ": 465,
      "Ė": 466,
      "ė": 467,
      "Ę": 468,
      "ę": 469,
      "Ě": 470,
      "ě": 471,
      "Ĝ": 472,
      "ĝ": 473,
      "Ğ": 474,
      "ğ": 475,
      "Ġ": 476,
      "ġ": 477,
      "Ģ": 478,
      "ģ": 479,
      "Ĥ": 480,
      "ĥ": 481,
      "Ħ": 482,
      "ħ": 483,
      "Ĩ": 484,
      "ĩ": 485,
      "Ī": 486,
      "ī": 487,
      "Ĭ": 488,
      "ĭ": 489,
      "Į": 490,
      "į": 491,
      "İ": 492,
      "ı": 493,
      "Ĳ": 494,
      "ĳ": 495,
      "Ĵ": 496,
      "ĵ": 497,
      "Ķ": 498,
      "ķ": 499,
      "ĸ": 500,
      "Ĺ": 501,
      "ĺ": 502,
      "Ļ": 503,
      "ļ": 504,
      "Ľ": 505,
      "ľ": 506,
      "Ŀ": 507,
      "ŀ": 508,
      "Ł": 509,
      "ł": 510,
      "Ń": 511,
      "in": 512,
      "ar": 513,
      "ti": 514,
      "en": 515,
      "th": 516,
      "Ġa": 517,
      "or": 518,
      "Ġc": 519,
      "al": 520,
      "on": 521,
      "Ġin": 522,
      "as": 523,
      "er": 524,
      "Ġn": 525,
      "es": 526,
      "Ġs": 527,
      "Ġp": 528,
      "om": 529,
      "ed": 530,
      "is": 531,
      "Ġm": 532,
      "nd": 533,
      "Ġt": 534,
      "um": 535,
      "Ġth": 536,
      "Ġw": 537,
      "Ġand": 538,
      "Ġo": 539,
      "ith": 540,
      "at": 541,
      "Ġl": 542,
      "Ġwith": 543,
      "Ġf": 544,
      "Ġthe": 545,
      "Ġno": 546,
      "umor": 547,
      "el": 548,
      "ro": 549,
      "Ġinv": 550,
      "ph": 551,
      "Ġof": 552,
      "ul": 553,
      "ati": 554,
      "id": 555,
      "ent": 556,
      "ic": 557,
      "oma": 558,
      "ym": 559,
      "ve": 560,
      "asi": 561,
      "ol": 562,
      "Ġtumor": 563,
      "ĠT": 564,
      "arc": 565,
      "le": 566,
      "Ġis": 567,
      "enti": 568,
      "ymph": 569,
      "arcin": 570,
      "Ġb": 571,
      "arcinoma": 572,
      "fi": 573,
      "Ġd": 574,
      "ur": 575,
      "an": 576,
      "Ġe": 577,
      "ig": 578,
      "os": 579,
      "ell": 580,
      "ing": 581,
      "Ġar": 582,
      "ular": 583,
      "Ġinvasi": 584,
      "tr": 585,
      "Ġr": 586,
      "oc": 587,
      "ec": 588,
      "Ġlymph": 589,
      "he": 590,
      "Ġare": 591,
      "us": 592,
      "fied": 593,
      "ĠN": 594,
      "Ġinvasion": 595,
      "arg": 596,
      "Ġnod": 597,
      "Ġg": 598,
      "uc": 599,
      "Ġcarcinoma": 600,
      "Ġid": 601,
      "Ġidenti": 602,
      "Ġidentified": 603,
      "Ġcell": 604,
      "it": 605,
      "Ġex": 606,
      "ad": 607,
      "argin": 608,
      "ĠThe": 609,
      "ac": 610,
      "Ġpr": 611,
      "Ġmargin": 612,
      "Ġh": 613,
      "ter": 614,
      "tic": 615,
      "ĠNo": 616,
      "if": 617,
      "pl": 618,
      "ow": 619,
      "re": 620,
      "tis": 621,
      "atic": 622,
      "Ġnodes": 623,
      "Ġad": 624,
      "esent": 625,
      "ros": 626,
      "Ġinvol": 627,
      "Ġpresent": 628,
      "Ġne": 629,
      "igh": 630,
      "cular": 631,
      "il": 632,
      "ation": 633,
      "ue": 634,
      "Ġsh": 635,
      "et": 636,
      "ous": 637,
      "yp": 638,
      "ast": 639,
      "Ġfor": 640,
      "Ġshow": 641,
      "tiss": 642,
      "Ġtiss": 643,
      "ib": 644,
      "ated": 645,
      "Ġnot": 646,
      "ade": 647,
      "ap": 648,
      "ĠTumor": 649,
      "ascular": 650,
      "Ġtissue": 651,
      "Ġcells": 652,
      "rade": 653,
      "am": 654,
      "Ġv": 655,
      "ten": 656,
      "ly": 657,
      "ucle": 658,
      "Ġto": 659,
      "ative": 660,
      "opl": 661,
      "iff": 662,
      "Ġexten": 663,
      "ary": 664,
      "Ġper": 665,
      "Ġch": 666,
      "ign": 667,
      "Ġnucle": 668,
      "ion": 669,
      "ft": 670,
      "ial": 671,
      "od": 672,
      "tion": 673,
      "ment": 674,
      "erenti": 675,
      "rosis": 676,
      "etast": 677,
      "Ġle": 678,
      "ical": 679,
      "Ġdiff": 680,
      "Ġnec": 681,
      "Ġu": 682,
      "oplas": 683,
      "Ġmargins": 684,
      "gative": 685,
      "Ġnegative": 686,
      "Ġor": 687,
      "Ġgrade": 688,
      "enc": 689,
      "Ġcom": 690,
      "vascular": 691,
      "ĠM": 692,
      "ut": 693,
      "enal": 694,
      "ome": 695,
      "ocal": 696,
      "Ġshows": 697,
      "Ġdifferenti": 698,
      "ne": 699,
      "ight": 700,
      "Ġnecrosis": 701,
      "enoc": 702,
      "Ġcon": 703,
      "pos": 704,
      "all": 705,
      "ub": 706,
      "enocarcinoma": 707,
      "Ġinvolv": 708,
      "Ġpar": 709,
      "ĠL": 710,
      "Ġat": 711,
      "ist": 712,
      "Ġextens": 713,
      "Ġinvolve": 714,
      "ine": 715,
      "uct": 716,
      "Ġby": 717,
      "Ġsp": 718,
      "ill": 719,
      "erat": 720,
      "ures": 721,
      "Ġright": 722,
      "Ġleft": 723,
      "Ġsur": 724,
      "Ġnuclear": 725,
      "Ġint": 726,
      "ant": 727,
      "ree": 728,
      "Ġinvolvement": 729,
      "asia": 730,
      "Ġdifferentiated": 731,
      "og": 732,
      "Ġse": 733,
      "ely": 734,
      "ometr": 735,
      "etastatic": 736,
      "end": 737,
      "ovascular": 738,
      "fil": 739,
      "anc": 740,
      "filtr": 741,
      "ĠA": 742,
      "ys": 743,
      "ection": 744,
      "op": 745,
      "ia": 746,
      "Ġple": 747,
      "ding": 748,
      "Ġgl": 749,
      "ron": 750,
      "illary": 751,
      "Ġinto": 752,
      "Ġadenocarcinoma": 753,
      "ural": 754,
      "Ġres": 755,
      "qu": 756,
      "im": 757,
      "ĠLymph": 758,
      "oderat": 759,
      "olog": 760,
      "Ġan": 761,
      "Ġre": 762,
      "cl": 763,
      "oplastic": 764,
      "Ġinfiltr": 765,
      "atter": 766,
      "and": 767,
      "tive": 768,
      "ined": 769,
      "ĠS": 770,
      "Ġhigh": 771,
      "aps": 772,
      "Ġfocal": 773,
      "Ġpro": 774,
      "apillary": 775,
      "rom": 776,
      "yt": 777,
      "Ġextension": 778,
      "orph": 779,
      "ang": 780,
      "rou": 781,
      "Ġun": 782,
      "Ġfree": 783,
      "ype": 784,
      "In": 785,
      "quam": 786,
      "Ġal": 787,
      "ob": 788,
      "Ġfib": 789,
      "Ġas": 790,
      "quamous": 791,
      "Ġresection": 792,
      "ometri": 793,
      "ag": 794,
      "pp": 795,
      "Ġmoderat": 796,
      "teri": 797,
      "ace": 798,
      "Ġnode": 799,
      "Ġpos": 800,
      "Ġlymphovascular": 801,
      "Ġend": 802,
      "attern": 803,
      "Ġpattern": 804,
      "ch": 805,
      "Ġser": 806,
      "Ġtype": 807,
      "Ġcompos": 808,
      "ain": 809,
      "Ġgland": 810,
      "Ġcomposed": 811,
      "oid": 812,
      "ir": 813,
      "neoplastic": 814,
      "Ġab": 815,
      "ate": 816,
      "plasia": 817,
      "Ġtub": 818,
      "-neoplastic": 819,
      "hym": 820,
      "gical": 821,
      "ĠP": 822,
      "align": 823,
      "one": 824,
      "Ġde": 825,
      "ix": 826,
      "rost": 827,
      "erv": 828,
      "Ġincl": 829,
      "otic": 830,
      "ence": 831,
      "Ġhyp": 832,
      "eat": 833,
      "enchym": 834,
      "Ġmit": 835,
      "osa": 836,
      "Ġduct": 837,
      "Ġov": 838,
      "omorph": 839,
      "ific": 840,
      "Ġhyper": 841,
      "Ġchang": 842,
      "roid": 843,
      "Ġrenal": 844,
      "oor": 845,
      "eral": 846,
      "yroid": 847,
      "Ġparenchym": 848,
      "osis": 849,
      "Ġinclu": 850,
      "Ġmalign": 851,
      "ect": 852,
      "Ġmetastatic": 853,
      "ess": 854,
      "ineural": 855,
      "ked": 856,
      "Ġsquamous": 857,
      "ĠF": 858,
      "ulti": 859,
      "orm": 860,
      "Ġfeat": 861,
      "oplasm": 862,
      "Ġpleomorph": 863,
      "vid": 864,
      "II": 865,
      "ure": 866,
      "Ġbut": 867,
      "Ġfeatures": 868,
      "ometrium": 869,
      "Ġstr": 870,
      "enign": 871,
      "row": 872,
      "ple": 873,
      "elial": 874,
      "Ġinvasive": 875,
      "ity": 876,
      "ĠNon": 877,
      "oorly": 878,
      "ab": 879,
      "un": 880,
      "ian": 881,
      "hib": 882,
      "hibit": 883,
      "Ġexhibit": 884,
      "ep": 885,
      "Ġapp": 886,
      "fined": 887,
      "ĠC": 888,
      "vasi": 889,
      "omin": 890,
      "Ġseen": 891,
      "ĠB": 892,
      "der": 893,
      "Ġextr": 894,
      "ath": 895,
      "Ġevid": 896,
      "ologic": 897,
      "ule": 898,
      "Ġparenchyma": 899,
      "round": 900,
      "roc": 901,
      "Ġpapillary": 902,
      "ronic": 903,
      "Ġevidence": 904,
      "Ġinf": 905,
      "Ġinvolved": 906,
      "vasive": 907,
      "Ġareas": 908,
      "Ġmuc": 909,
      "Ġac": 910,
      "terior": 911,
      "mation": 912,
      "inal": 913,
      "iv": 914,
      "Ġspec": 915,
      "Ġgrow": 916,
      "ancy": 917,
      "jac": 918,
      "Ġmoderately": 919,
      "Ġmalignancy": 920,
      "jacent": 921,
      "Ġconfined": 922,
      "so": 923,
      "Invasive": 924,
      "Ġvascular": 925,
      "Ġlob": 926,
      "Ġchanges": 927,
      "etastas": 928,
      "Ġmitotic": 929,
      "ass": 930,
      "Ġgrowth": 931,
      "Ġsit": 932,
      "Ġcaps": 933,
      "Ġk": 934,
      "Ġhe": 935,
      "ipos": 936,
      "Ġalso": 937,
      "oft": 938,
      "-g": 939,
      "Ġductal": 940,
      "ating": 941,
      "ism": 942,
      "Ġmic": 943,
      "Ġhas": 944,
      "Ġinvad": 945,
      "Ġadjacent": 946,
      "oci": 947,
      "ĠG": 948,
      "Ġperineural": 949,
      "Ġfat": 950,
      "Ġincluding": 951,
      "Ġsoft": 952,
      "Ġst": 953,
      "Ġpleomorphism": 954,
      "-grade": 955,
      "Ġnoted": 956,
      "itive": 957,
      "ved": 958,
      "Ġmus": 959,
      "Ġsc": 960,
      "Ġchronic": 961,
      "Ġatyp": 962,
      "lear": 963,
      "ĠR": 964,
      "vol": 965,
      "Ġprost": 966,
      "Ġdist": 967,
      "ds": 968,
      "volved": 969,
      "involved": 970,
      "Ġsub": 971,
      "Ġmetastas": 972,
      "Ġcyt": 973,
      "eration": 974,
      "Ġmy": 975,
      "Ġpoorly": 976,
      "ronch": 977,
      "ipose": 978,
      "oth": 979,
      "Ġfrom": 980,
      "Ġsurgical": 981,
      "ive": 982,
      "em": 983,
      "Ġwh": 984,
      "ĠMetastatic": 985,
      "Ġbenign": 986,
      "Ġmulti": 987,
      "Ġsurf": 988,
      "lam": 989,
      "able": 990,
      "Ġcomp": 991,
      "lif": 992,
      "Ġuninvolved": 993,
      "Ġthyroid": 994,
      "Ġpositive": 995,
      "allop": 996,
      "Ġdis": 997,
      "allopian": 998,
      "Ġcys": 999,
      "Ġinflam": 1000,
      "Ġwell": 1001,
      "ari": 1002,
      "rib": 1003,
      "Ġinvolves": 1004,
      "Ġha": 1005,
      "Ġprolif": 1006,
      "Ġsurface": 1007,
      "Ġsign": 1008,
      "ear": 1009,
      "Ġfallopian": 1010,
      "est": 1011,
      "oph": 1012,
      "idne": 1013,
      "idney": 1014,
      "ore": 1015,
      "Ġfibro": 1016,
      "ther": 1017,
      "Ġclear": 1018,
      "Ġwall": 1019,
      "Ġsitu": 1020,
      "Ġspace": 1021,
      "Ġbi": 1022,
      "Ġserous": 1023,
      "Ġhyperplasia": 1024,
      "renal": 1025,
      "Ġkidney": 1026,
      "Ġinvolving": 1027,
      "Ġinked": 1028,
      "ĠAd": 1029,
      "Ġappear": 1030,
      "de": 1031,
      "Ġcl": 1032,
      "ĠII": 1033,
      "Ġcerv": 1034,
      "Ġintr": 1035,
      "Ġnon": 1036,
      "ark": 1037,
      "elv": 1038,
      "Ġsol": 1039,
      "osal": 1040,
      "omat": 1041,
      "Ġpromin": 1042,
      "Ġreac": 1043,
      "Ġprominent": 1044,
      "arac": 1045,
      "omy": 1046,
      "Ġstruct": 1047,
      "Ġcytoplasm": 1048,
      "Ġsm": 1049,
      "Ġhist": 1050,
      "Ġextends": 1051,
      "Ġsignific": 1052,
      "Ġsolid": 1053,
      "Ġfin": 1054,
      "Ġpelv": 1055,
      "ormal": 1056,
      "Ġsignificant": 1057,
      "ĠE": 1058,
      "Ġcharac": 1059,
      "Ġinvades": 1060,
      "Ġmass": 1061,
      "iz": 1062,
      "Ġlymphatic": 1063,
      "Ġstructures": 1064,
      "Ġfinding": 1065,
      "Ġep": 1066,
      "Ġcons": 1067,
      "Ġuter": 1068,
      "pr": 1069,
      "Ġfindings": 1070,
      "ateral": 1071,
      "mon": 1072,
      "Ġcapsule": 1073,
      "Ġproliferation": 1074,
      "ere": 1075,
      "mark": 1076,
      "tiv": 1077,
      "markable": 1078,
      "esion": 1079,
      "Ġinflammation": 1080,
      "Ġexhibits": 1081,
      "onent": 1082,
      "Ġcomponent": 1083,
      "ild": 1084,
      "Ġcol": 1085,
      "remarkable": 1086,
      "Ġmucosa": 1087,
      "ĠV": 1088,
      "Ġnuclei": 1089,
      "Ġone": 1090,
      "Ġother": 1091,
      "ĠO": 1092,
      "Ġperi": 1093,
      "ran": 1094,
      "Ġcor": 1095,
      "ung": 1096,
      "crib": 1097,
      "cribed": 1098,
      "Ġbre": 1099,
      "Ġsurround": 1100,
      "ithelial": 1101,
      "age": 1102,
      "gh": 1103,
      "gion": 1104,
      "Ġwithin": 1105,
      "ĠMargin": 1106,
      "ĠH": 1107,
      "Ġbr": 1108,
      "ĠLymphovascular": 1109,
      "Ġunremarkable": 1110,
      "lad": 1111,
      "Ġadipose": 1112,
      "Ġmyometrium": 1113,
      "Ġbreast": 1114,
      "Ġsu": 1115,
      "ometrial": 1116,
      "ytic": 1117,
      "Ġsmall": 1118,
      "Ġve": 1119,
      "Ġexam": 1120,
      "our": 1121,
      "ladder": 1122,
      "Ġvein": 1123,
      "oli": 1124,
      "ĠSur": 1125,
      "Ġmoderate": 1126,
      "ition": 1127,
      "Ġmetastasis": 1128,
      "Ġhave": 1129,
      "ified": 1130,
      "ops": 1131,
      "Ġconsist": 1132,
      "Ġpelvic": 1133,
      "Ġinfiltration": 1134,
      "Ġon": 1135,
      "Ġextensive": 1136,
      "ronchial": 1137,
      "out": 1138,
      "Ġabs": 1139,
      "Ad": 1140,
      "essel": 1141,
      "ct": 1142,
      "Ġlow": 1143,
      "ymphatic": 1144,
      "ĠSurgical": 1145,
      "Ġscore": 1146,
      "li": 1147,
      "Ġlung": 1148,
      "Ġpath": 1149,
      "Ġbe": 1150,
      "tivity": 1151,
      "enous": 1152,
      "rh": 1153,
      "ay": 1154,
      "Ġsome": 1155,
      "apsular": 1156,
      "Ġendometrium": 1157,
      "iol": 1158,
      "Ġmild": 1159,
      "rough": 1160,
      "Ġom": 1161,
      "Ġdifferentiation": 1162,
      "Ġoment": 1163,
      "Ġexamined": 1164,
      "Ġbiops": 1165,
      "ancre": 1166,
      "und": 1167,
      "Ġthrough": 1168,
      "Ġure": 1169,
      "esic": 1170,
      "Ġposterior": 1171,
      "Ġmar": 1172,
      "oplasia": 1173,
      "itis": 1174,
      "ĠPer": 1175,
      "Ġanterior": 1176,
      "Ġaden": 1177,
      "Ġshowing": 1178,
      "Adenocarcinoma": 1179,
      "Ġlarg": 1180,
      "Ġatypia": 1181,
      "Ġvessel": 1182,
      "Ġnucleoli": 1183,
      "order": 1184,
      "Ġsurrounding": 1185,
      "hit": 1186,
      "vel": 1187,
      "Ġmuscular": 1188,
      "itional": 1189,
      "ĠMargins": 1190,
      "Ġsk": 1191,
      "Ġneoplasia": 1192,
      "se": 1193,
      "ase": 1194,
      "Ġhem": 1195,
      "ura": 1196,
      "Ġregion": 1197,
      "roph": 1198,
      "Ġfocally": 1199,
      "roth": 1200,
      "Ġneoplasm": 1201,
      "ates": 1202,
      "Ġborder": 1203,
      "Ġmarked": 1204,
      "imal": 1205,
      "Ġovary": 1206,
      "Ġbrain": 1207,
      "ot": 1208,
      "Ġass": 1209,
      "per": 1210,
      "Ġomentum": 1211,
      "ellular": 1212,
      "Ġtube": 1213,
      "iver": 1214,
      "giol": 1215,
      "Ġmicro": 1216,
      "imen": 1217,
      "Ġdistin": 1218,
      "Ġwithout": 1219,
      "Ġmultiple": 1220,
      "Ġcyst": 1221,
      "Ġactivity": 1222,
      "Ġabsent": 1223,
      "giolymphatic": 1224,
      "alc": 1225,
      "ification": 1226,
      "Ġconsistent": 1227,
      "Ġdistinct": 1228,
      "ral": 1229,
      "Ġpleura": 1230,
      "ology": 1231,
      "ĠD": 1232,
      "ile": 1233,
      "te": 1234,
      "eli": 1235,
      "Ġdo": 1236,
      "ior": 1237,
      "Ġvesic": 1238,
      "-c": 1239,
      "Ġinfiltrating": 1240,
      "cum": 1241,
      "onal": 1242,
      "Ġlevel": 1243,
      "Ġspecimen": 1244,
      "Ġmuscularis": 1245,
      "troc": 1246,
      "Ġpathologic": 1247,
      "Ġdys": 1248,
      "Ġlesion": 1249,
      "zed": 1250,
      "Ġcervix": 1251,
      "Ġcont": 1252,
      "Ġprostatic": 1253,
      "Ġob": 1254,
      "ditional": 1255,
      "Ġinter": 1256,
      "Ġuterine": 1257,
      "Ġpropr": 1258,
      "Ġfoci": 1259,
      "Ġpropria": 1260,
      "Ġdes": 1261,
      "Ġprostate": 1262,
      "ocyt": 1263,
      "terized": 1264,
      "rostatic": 1265,
      "iomy": 1266,
      "rm": 1267,
      "ance": 1268,
      "Ġserosa": 1269,
      "rothelial": 1270,
      "ong": 1271,
      "Ġreactive": 1272,
      "Ġformation": 1273,
      "Ġarc": 1274,
      "Ġfibrosis": 1275,
      "Ġastroc": 1276,
      "ll": 1277,
      "ircum": 1278,
      "aries": 1279,
      "hitect": 1280,
      "ack": 1281,
      "Ġadrenal": 1282,
      "Papillary": 1283,
      "Ġarchitect": 1284,
      "Ġfig": 1285,
      "ason": 1286,
      "leason": 1287,
      "odal": 1288,
      "ĠGleason": 1289,
      "tial": 1290,
      "tal": 1291,
      "Ġlarge": 1292,
      "Ġfigures": 1293,
      "ociated": 1294,
      "orrh": 1295,
      "Ġpol": 1296,
      "Ġbiopsy": 1297,
      "normal": 1298,
      "Ġabnormal": 1299,
      "Ġspecified": 1300,
      "cle": 1301,
      "ator": 1302,
      "ĠAll": 1303,
      "ite": 1304,
      "ifferenti": 1305,
      "acapsular": 1306,
      "Ġhemorrh": 1307,
      "Ġcellular": 1308,
      "Ġmuscle": 1309,
      "isc": 1310,
      "ĠIn": 1311,
      "Ġatypical": 1312,
      "Ġdysplasia": 1313,
      "ules": 1314,
      "ifferentiated": 1315,
      "athyroid": 1316,
      "uh": 1317,
      "astic": 1318,
      "Ġliver": 1319,
      "Ġhistologic": 1320,
      "Ġureter": 1321,
      "Ġtubes": 1322,
      "rman": 1323,
      "uhrman": 1324,
      "ĠFuhrman": 1325,
      "Ġlobe": 1326,
      "Ġhep": 1327,
      "Ġcolon": 1328,
      "isceral": 1329,
      "Ġdeep": 1330,
      "Ġcharacterized": 1331,
      "ortic": 1332,
      "Ġborders": 1333,
      "Ġvenous": 1334,
      "Ġappearance": 1335,
      "eta": 1336,
      "Ġextracapsular": 1337,
      "alcification": 1338,
      "ty": 1339,
      "Ġextending": 1340,
      "ominant": 1341,
      "ric": 1342,
      "ilateral": 1343,
      "Ġform": 1344,
      "ĠU": 1345,
      "Ġboth": 1346,
      "uctal": 1347,
      "Ġmed": 1348,
      "ĠMulti": 1349,
      "Ġdoes": 1350,
      "Ġdiffus": 1351,
      "-f": 1352,
      "wo": 1353,
      "umour": 1354,
      "ĠBenign": 1355,
      "Ġlobular": 1356,
      "ili": 1357,
      "Ġpor": 1358,
      "Ġwhile": 1359,
      "Ġpancre": 1360,
      "astr": 1361,
      "Ġcontain": 1362,
      "Renal": 1363,
      "oses": 1364,
      "ĠIII": 1365,
      "Ġsuper": 1366,
      "minal": 1367,
      "Ġassociated": 1368,
      "Ġvari": 1369,
      "iniz": 1370,
      "ulc": 1371,
      "ĠI": 1372,
      "Ġovaries": 1373,
      "cler": 1374,
      "Ġall": 1375,
      "Ġsubm": 1376,
      "'s": 1377,
      "Ġglandular": 1378,
      "Ġmultif": 1379,
      "Ġmorph": 1380,
      "ocytic": 1381,
      "plastic": 1382,
      "Ġfol": 1383,
      "anodal": 1384,
      "ulated": 1385,
      "iab": 1386,
      "Ġulc": 1387,
      "Ġleiomy": 1388,
      "chrom": 1389,
      "Ġhyperchrom": 1390,
      "Ġurothelial": 1391,
      "-s": 1392,
      "Ġneoplastic": 1393,
      "Ġpleural": 1394,
      "Ġintra": 1395,
      "lig": 1396,
      "ose": 1397,
      "Ġangiolymphatic": 1398,
      "ixed": 1399,
      "Ġinclude": 1400,
      "ĠPerineural": 1401,
      "Ġdistal": 1402,
      "iform": 1403,
      "Ġatroph": 1404,
      "ircums": 1405,
      "Ġbladder": 1406,
      "etal": 1407,
      "ĠEx": 1408,
      "etr": 1409,
      "ting": 1410,
      "ometrioid": 1411,
      "ircumscribed": 1412,
      "les": 1413,
      "Ġpleomorphic": 1414,
      "Ġmin": 1415,
      "Ġserosal": 1416,
      "Ġextranodal": 1417,
      "ond": 1418,
      "rog": 1419,
      "ĠTh": 1420,
      "lic": 1421,
      "Ġseminal": 1422,
      "Ġtr": 1423,
      "Ġepithelial": 1424,
      "Ġnodule": 1425,
      "ev": 1426,
      "itone": 1427,
      "Ġinfiltrates": 1428,
      "arcoma": 1429,
      "Ġcapsular": 1430,
      "astric": 1431,
      "ground": 1432,
      "ackground": 1433,
      "Ġdia": 1434,
      "-d": 1435,
      "Ġili": 1436,
      "ual": 1437,
      "Ġchange": 1438,
      "Ġfibrous": 1439,
      "Ġiliac": 1440,
      "ocerv": 1441,
      "inus": 1442,
      "ound": 1443,
      "Ġpred": 1444,
      "teris": 1445,
      "Ġmetastases": 1446,
      "-free": 1447,
      "teristic": 1448,
      "Ġlower": 1449,
      "ĠW": 1450,
      "Ġmitoses": 1451,
      "Ġfollic": 1452,
      "Ġvisceral": 1453,
      "ilic": 1454,
      "ological": 1455,
      "Ġsinus": 1456,
      "gment": 1457,
      "ocellular": 1458,
      "ystic": 1459,
      "venti": 1460,
      "ud": 1461,
      "ĠMultiple": 1462,
      "Ġadditional": 1463,
      "ĠFocal": 1464,
      "Ġcent": 1465,
      "Ġfibroad": 1466,
      "Ġpolyp": 1467,
      "Ġneck": 1468,
      "Ġnodular": 1469,
      "Ġtumour": 1470,
      "Ġcystic": 1471,
      "Ġmes": 1472,
      "Ġmeta": 1473,
      "Ġcharacteristic": 1474,
      "Ġperic": 1475,
      "obl": 1476,
      "erous": 1477,
      "rag": 1478,
      "Ġbronch": 1479,
      "Ġclass": 1480,
      "Ġdescribed": 1481,
      "Ġsegment": 1482,
      "av": 1483,
      "Ġmorphology": 1484,
      "Ġap": 1485,
      "lo": 1486,
      "epithelial": 1487,
      "Ġpredominant": 1488,
      "esoph": 1489,
      "ilar": 1490,
      "Ġskin": 1491,
      "Ġarchitecture": 1492,
      "oblast": 1493,
      "Ġvessels": 1494,
      "Ġastrocyt": 1495,
      "Poorly": 1496,
      "Ġdef": 1497,
      "oblastoma": 1498,
      "iable": 1499,
      "Ġmetaplasia": 1500,
      "str": 1501,
      "ted": 1502,
      "-differentiated": 1503,
      "-t": 1504,
      "10": 1505,
      "rocystic": 1506,
      "Ġnodules": 1507,
      "Ġolig": 1508,
      "ull": 1509,
      "omas": 1510,
      "Ġfollicular": 1511,
      "Ġpatterns": 1512,
      "Ġgran": 1513,
      "ich": 1514,
      "aining": 1515,
      "inous": 1516,
      "Ġendometrial": 1517,
      "cop": 1518,
      "eratiniz": 1519,
      "odend": 1520,
      "Ġloc": 1521,
      "oderately": 1522,
      "Ġdise": 1523,
      "ĠVascular": 1524,
      "Ġtan": 1525,
      "ĠOne": 1526,
      "-vascular": 1527,
      "roscop": 1528,
      "Ġendocerv": 1529,
      "Ġmalignant": 1530,
      "ophilic": 1531,
      "Ġforming": 1532,
      "ocus": 1533,
      "ies": 1534,
      "itheli": 1535,
      "Ġdisease": 1536,
      "Ġtwo": 1537,
      "reat": 1538,
      "Ġchol": 1539,
      "Ġlesions": 1540,
      "atus": 1541,
      "Ġhemorrhage": 1542,
      "odendrog": 1543,
      "Ġclose": 1544,
      "alcifications": 1545,
      "Ġind": 1546,
      "ximal": 1547,
      "Ġendometrioid": 1548,
      "Ġtubular": 1549,
      "Ġvesicles": 1550,
      "erm": 1551,
      "Ġstatus": 1552,
      "-circumscribed": 1553,
      "Ġintraepithelial": 1554,
      "atocellular": 1555,
      "Ġbronchial": 1556,
      "nal": 1557,
      "Ġfocus": 1558,
      "omatous": 1559,
      "Ġfatty": 1560,
      "Squamous": 1561,
      "ind": 1562,
      "eletal": 1563,
      "ĠNot": 1564,
      "ĠAdrenal": 1565,
      "gular": 1566,
      "Ġvar": 1567,
      "ute": 1568,
      "osin": 1569,
      "Ġco": 1570,
      "Ġperitone": 1571,
      "Ġem": 1572,
      "Ġover": 1573,
      "Moderately": 1574,
      "arian": 1575,
      "Ġadh": 1576,
      "Ġinfiltrate": 1577,
      "inel": 1578,
      "Ġout": 1579,
      "entinel": 1580,
      "HO": 1581,
      "Ġhyperchromasia": 1582,
      "ventional": 1583,
      "Ġeosin": 1584,
      "ues": 1585,
      "Ġ(": 1586,
      "Ġnormal": 1587,
      "ĠLymphatic": 1588,
      "Ġinvading": 1589,
      "ach": 1590,
      "Ġepitheli": 1591,
      "Ġbilateral": 1592,
      "Ġtissues": 1593,
      "ĠWHO": 1594,
      "erative": 1595,
      "Ġfl": 1596,
      "ery": 1597,
      "ature": 1598,
      "gn": 1599,
      "Ġintest": 1600,
      "Ġthan": 1601,
      "Ġmicrovascular": 1602,
      "Ġinde": 1603,
      "Ġappears": 1604,
      "Ġdiffuse": 1605,
      "Ġim": 1606,
      "Ġlateral": 1607,
      "Ġgli": 1608,
      "Ġcysts": 1609,
      "atory": 1610,
      "Ġarea": 1611,
      "Ġfibroadipose": 1612,
      "Ġstroma": 1613,
      "Ġeosinophilic": 1614,
      "aplastic": 1615,
      "ham": 1616,
      "Ġpara": 1617,
      "ĠAn": 1618,
      "tingham": 1619,
      "ĠNottingham": 1620,
      "Ġsep": 1621,
      "ĠMit": 1622,
      "Infiltr": 1623,
      "Ġenc": 1624,
      "Ġmixed": 1625,
      "Ġpartial": 1626,
      "bladder": 1627,
      "Ġinc": 1628,
      "Ġcommon": 1629,
      "allbladder": 1630,
      "ĠLe": 1631,
      "Ġdiagn": 1632,
      "ĠCarcinoma": 1633,
      "roscopic": 1634,
      "its": 1635,
      "inar": 1636,
      "ties": 1637,
      "Ġuterus": 1638,
      "Ġminimal": 1639,
      "Ġcomple": 1640,
      "ising": 1641,
      "Ġpredominantly": 1642,
      "Ġscler": 1643,
      "ĠCh": 1644,
      "rans": 1645,
      "omatoid": 1646,
      "Ġcentral": 1647,
      "ities": 1648,
      "gg": 1649,
      "Ġwhich": 1650,
      "olar": 1651,
      "uclear": 1652,
      "Ġsite": 1653,
      "ick": 1654,
      "phric": 1655,
      "Ġthere": 1656,
      "Ġspind": 1657,
      "rac": 1658,
      "ving": 1659,
      "lying": 1660,
      "Ġappro": 1661,
      "Ġskeletal": 1662,
      "Ġfound": 1663,
      "Ġrem": 1664,
      "Ġabut": 1665,
      "Ġcervical": 1666,
      "Ġmultifocal": 1667,
      "phys": 1668,
      "physem": 1669,
      "ocytes": 1670,
      "Ġabnormalities": 1671,
      "Ġesoph": 1672,
      "Ġexc": 1673,
      "aprostatic": 1674,
      "Ġinfer": 1675,
      "Ġmicroc": 1676,
      "Ġhaving": 1677,
      "Gli": 1678,
      "irect": 1679,
      "ongue": 1680,
      "Ġoligodendrog": 1681,
      "Ġperine": 1682,
      "Ġpericol": 1683,
      "lood": 1684,
      "Ġless": 1685,
      "Ġregional": 1686,
      "Ġsev": 1687,
      "apsulated": 1688,
      "Ġdispl": 1689,
      "Ġbackground": 1690,
      "ternal": 1691,
      "Ġlocated": 1692,
      "Ġtongue": 1693,
      "Ġthick": 1694,
      "Ġdemon": 1695,
      "Ġwhite": 1696,
      "Ġdemonstr": 1697,
      "aces": 1698,
      "seud": 1699,
      "ipp": 1700,
      "Ġarter": 1701,
      "Ġhepatic": 1702,
      "Ġlymphocytic": 1703,
      "Ġcontains": 1704,
      "ae": 1705,
      "gan": 1706,
      "Ġir": 1707,
      "ip": 1708,
      "Ġexternal": 1709,
      "ross": 1710,
      "Ġnum": 1711,
      "ĠThere": 1712,
      "ff": 1713,
      "ipple": 1714,
      "ision": 1715,
      "omal": 1716,
      "Ġtrans": 1717,
      "Ġpres": 1718,
      "Ġglands": 1719,
      "Glioblastoma": 1720,
      "Ġbase": 1721,
      "ĠIV": 1722,
      "titis": 1723,
      "endix": 1724,
      "tur": 1725,
      "Infiltrating": 1726,
      "ov": 1727,
      "ide": 1728,
      "omach": 1729,
      "Ġfibrocystic": 1730,
      "ĠInvasive": 1731,
      "Ġpseud": 1732,
      "Ġbod": 1733,
      "Ġprim": 1734,
      "ageal": 1735,
      "Ġperiph": 1736,
      "ments": 1737,
      "lioma": 1738,
      "riform": 1739,
      "Ġacinar": 1740,
      "Ġvariant": 1741,
      "Ġparat": 1742,
      "Ġperip": 1743,
      "Ġcortic": 1744,
      "Ġportion": 1745,
      "Ġindic": 1746,
      "Ġchrom": 1747,
      "Ġinfiltrative": 1748,
      "eratinizing": 1749,
      "ulmon": 1750,
      "Ġbone": 1751,
      "Ġinferior": 1752,
      "ulmonary": 1753,
      "fic": 1754,
      "xillary": 1755,
      "elan": 1756,
      "ost": 1757,
      "regular": 1758,
      "ious": 1759,
      "ingle": 1760,
      "Ġconventional": 1761,
      "attered": 1762,
      "Ġpancreatic": 1763,
      "Ġirregular": 1764,
      "Ġstromal": 1765,
      "omyosis": 1766,
      "ĠChronic": 1767,
      "yell": 1768,
      "esical": 1769,
      "Ġblood": 1770,
      "Ġovarian": 1771,
      "Ġsuperior": 1772,
      "yellow": 1773,
      "ased": 1774,
      "Ġsubs": 1775,
      "Ġintestinal": 1776,
      "Ġindex": 1777,
      "matory": 1778,
      "erated": 1779,
      "unt": 1780,
      "Ġvariable": 1781,
      "asc": 1782,
      "ametr": 1783,
      "andib": 1784,
      "Ġmucinous": 1785,
      "Ġhal": 1786,
      "Ġstomach": 1787,
      "Ġcrib": 1788,
      "Ġdefin": 1789,
      "Ġsarc": 1790,
      "ention": 1791,
      "ĠHigh": 1792,
      "ĠRes": 1793,
      "tex": 1794,
      "Ġobtur": 1795,
      "Ġperinephric": 1796,
      "Ġdeg": 1797,
      "Ġparenchymal": 1798,
      "Ġgranul": 1799,
      "Ġsection": 1800,
      "ively": 1801,
      "Ġadhesion": 1802,
      "ficial": 1803,
      "Ġperiv": 1804,
      "Ġobturator": 1805,
      "Ġexhibiting": 1806,
      "Ġencapsulated": 1807,
      "Ġcarcin": 1808,
      "ers": 1809,
      "ibronchial": 1810,
      "Ġextensively": 1811,
      "Ġround": 1812,
      "Ġhilar": 1813,
      "Ġph": 1814,
      "aductal": 1815,
      "Ġmesoth": 1816,
      "Ġastrocytoma": 1817,
      "ĠMitotic": 1818,
      "are": 1819,
      "Ġsec": 1820,
      "yond": 1821,
      "Ġbeyond": 1822,
      "read": 1823,
      "Ġglial": 1824,
      "Ġabnormality": 1825,
      "Ġsingle": 1826,
      "ately": 1827,
      "irenal": 1828,
      "Ġdepos": 1829,
      "Ġpartially": 1830,
      "ĠRight": 1831,
      "End": 1832,
      "Ġgross": 1833,
      "owel": 1834,
      "ĠRe": 1835,
      "Ġemphysem": 1836,
      "itted": 1837,
      "epatocellular": 1838,
      "Ġsubmitted": 1839,
      "Ġatrophy": 1840,
      "aortic": 1841,
      "eal": 1842,
      "Ġinters": 1843,
      "Ġmention": 1844,
      "Ġbowel": 1845,
      "Ġsuperficial": 1846,
      "Ġcharacteristics": 1847,
      "Ġspindle": 1848,
      "Ġacute": 1849,
      "athyroidal": 1850,
      "ĠDuctal": 1851,
      "Ġvesicle": 1852,
      "Ġatrophic": 1853,
      "ĠExtr": 1854,
      "ou": 1855,
      "Ġreaction": 1856,
      "Ġj": 1857,
      "ancreatic": 1858,
      "Ġcortical": 1859,
      "Ġperirenal": 1860,
      "-ad": 1861,
      "cc": 1862,
      "atitis": 1863,
      "Ġgr": 1864,
      "nec": 1865,
      "Ġprimary": 1866,
      "pper": 1867,
      "ĠPar": 1868,
      "Ġlim": 1869,
      "Ġnipple": 1870,
      "Ġperitoneum": 1871,
      "ĠMic": 1872,
      "Ġmyometrial": 1873,
      "Ġhy": 1874,
      "Ġupper": 1875,
      "Ġmesent": 1876,
      "tens": 1877,
      "Ġscattered": 1878,
      "-de": 1879,
      "titial": 1880,
      "Ġmelan": 1881,
      "Ġnecro": 1882,
      "Ġcribriform": 1883,
      "Ġindicating": 1884,
      "Ġsubser": 1885,
      "abec": 1886,
      "reatment": 1887,
      "Hepatocellular": 1888,
      "Ġfrag": 1889,
      "Ġlymphoid": 1890,
      "Ġinflammatory": 1891,
      "Ġendocervical": 1892,
      "erve": 1893,
      "Ġgallbladder": 1894,
      "Ġextraprostatic": 1895,
      "Ġbile": 1896,
      "Ġtreatment": 1897,
      "Ġund": 1898,
      "veolar": 1899,
      "Ġrec": 1900,
      "ĠRenal": 1901,
      "Ġmicroscopic": 1902,
      "Ġmul": 1903,
      "Ġdiss": 1904,
      "Ġportal": 1905,
      "High": 1906,
      "Ġtotal": 1907,
      "Ġorgan": 1908,
      "Ġparametr": 1909,
      "erved": 1910,
      "ectal": 1911,
      "ĠCerv": 1912,
      "Ġmedi": 1913,
      "Ġz": 1914,
      "Ġel": 1915,
      "usion": 1916,
      "Ġperibronchial": 1917,
      "ever": 1918,
      "Ġinterstitial": 1919,
      "Ġadenoma": 1920,
      "Ġabuts": 1921,
      "ubal": 1922,
      "Ġtrabec": 1923,
      "Ġmid": 1924,
      "ĠAdditional": 1925,
      "Ġcytoplasmic": 1926,
      "ĠLocal": 1927,
      "Ġspread": 1928,
      "Ġastrocytic": 1929,
      "Ġcut": 1930,
      "Ġproximal": 1931,
      "Ġhemorrhag": 1932,
      "Ġadhesions": 1933,
      "cellular": 1934,
      "xim": 1935,
      "unc": 1936,
      "Ġulcerated": 1937,
      "Ġsarcomatoid": 1938,
      "ke": 1939,
      "Ġthat": 1940,
      "Ġret": 1941,
      "uod": 1942,
      "Ġaxillary": 1943,
      "Ġarising": 1944,
      "owever": 1945,
      "Ġsepar": 1946,
      "Ġincre": 1947,
      "Ġsentinel": 1948,
      "Ġgastric": 1949,
      "amm": 1950,
      "Ġam": 1951,
      "Ġnerve": 1952,
      "aginal": 1953,
      "ĠExtens": 1954,
      "Ġcortex": 1955,
      "Ġdirect": 1956,
      "Ġperin": 1957,
      "Ġfibr": 1958,
      "Ġlobes": 1959,
      "Ġcomponents": 1960,
      "Ġclassical": 1961,
      "light": 1962,
      "Ġocc": 1963,
      "active": 1964,
      "ected": 1965,
      "Ġadenomyosis": 1966,
      "Ġdiffusely": 1967,
      "Ġnumerous": 1968,
      "aryn": 1969,
      "Ġperivesical": 1970,
      "Ġnest": 1971,
      "ĠGrade": 1972,
      "Ġproliferative": 1973,
      "Ġobs": 1974,
      "Ġarchitectural": 1975,
      "Ġulceration": 1976,
      "med": 1977,
      "ecys": 1978,
      "act": 1979,
      "Ġappendix": 1980,
      "ĠResection": 1981,
      "Ġmelanoma": 1982,
      "orme": 1983,
      "Ġhistological": 1984,
      "undant": 1985,
      "Ġperipheral": 1986,
      "Ġnecrotic": 1987,
      "Ġintraductal": 1988,
      "Ġmultiforme": 1989,
      "Ġsecond": 1990,
      "enetr": 1991,
      "Ġlay": 1992,
      "Ġcholecys": 1993,
      "ex": 1994,
      "uter": 1995,
      "ocr": 1996,
      "ĠFib": 1997,
      "nective": 1998,
      "-li": 1999,
      "Ġpenetr": 2000,
      "Ġrate": 2001,
      "Ġureth": 2002,
      "land": 2003,
      "Ġnear": 2004,
      "Ġspecific": 2005,
      "Ġlevels": 2006,
      "-aortic": 2007,
      "nex": 2008,
      "Ġmedial": 2009,
      "-p": 2010,
      "ju": 2011,
      "Ġside": 2012,
      "Ġthym": 2013,
      "Ġinvade": 2014,
      "Ġlimit": 2015,
      "ocrine": 2016,
      "Ġabundant": 2017,
      "Ġsugg": 2018,
      "ĠExtensive": 2019,
      "Ġcholecystitis": 2020,
      "Ġfasc": 2021,
      "igment": 2022,
      "Ġhowever": 2023,
      "irrh": 2024,
      "Ġyellow": 2025,
      "itu": 2026,
      "omata": 2027,
      "Ġpancreas": 2028,
      "-situ": 2029,
      "ĠAngiolymphatic": 2030,
      "ĠLeft": 2031,
      "Ġpresence": 2032,
      "ĠVenous": 2033,
      "Ġureteral": 2034,
      "Ġincreased": 2035,
      "-like": 2036,
      "Ġlimited": 2037,
      "Ġhemorrhagic": 2038,
      "Ġneo": 2039,
      "vant": 2040,
      "-adju": 2041,
      "-adjuvant": 2042,
      "ges": 2043,
      "Ġma": 2044,
      "Ġtubule": 2045,
      "Ġobserved": 2046,
      "focal": 2047,
      "Ġparathyroid": 2048,
      "Ġhypercellular": 2049,
      "Ġdisplay": 2050,
      "Ġartery": 2051,
      "Ġmac": 2052,
      "Ġmore": 2053,
      "atous": 2054,
      "emb": 2055,
      "ĠAdenocarcinoma": 2056,
      "ĠHist": 2057,
      "Ġpigment": 2058,
      "Ġthyroiditis": 2059,
      "Ġepithelioid": 2060,
      "Ġduod": 2061,
      "Ġbeing": 2062,
      "/I": 2063,
      "ard": 2064,
      "Ġcan": 2065,
      "alignant": 2066,
      "Ġsubc": 2067,
      "Ġsubmuc": 2068,
      "/IV": 2069,
      "GO": 2070,
      "IGO": 2071,
      "atell": 2072,
      "ĠNe": 2073,
      "ximately": 2074,
      "moid": 2075,
      "Ġshe": 2076,
      "Ġanaplastic": 2077,
      "ept": 2078,
      "ĠBronchial": 2079,
      "Ġscar": 2080,
      "een": 2081,
      "lot": 2082,
      "ness": 2083,
      "Ġtyp": 2084,
      "unction": 2085,
      "Ġdue": 2086,
      "quent": 2087,
      "ĠPro": 2088,
      "ocytoma": 2089,
      "Ġcav": 2090,
      "Ġthree": 2091,
      "opath": 2092,
      "Ġleiomyoma": 2093,
      "Ġsections": 2094,
      "ink": 2095,
      "onic": 2096,
      "Ġslight": 2097,
      "entric": 2098,
      "igmoid": 2099,
      "apill": 2100,
      "Ġfir": 2101,
      "thrac": 2102,
      "Ġdiagnosis": 2103,
      "Ġgray": 2104,
      "Ġhyal": 2105,
      "clear": 2106,
      "Ġmatter": 2107,
      "och": 2108,
      "ĠBilateral": 2109,
      "Ġmain": 2110,
      "requent": 2111,
      "Ġglioma": 2112,
      "Ġexcision": 2113,
      "Ġjunction": 2114,
      "medi": 2115,
      "Ġthickness": 2116,
      "Ġdissection": 2117,
      "Ġsim": 2118,
      "Ġfour": 2119,
      "Ġtrabecular": 2120,
      "Ġresp": 2121,
      "ĠFIGO": 2122,
      "Ġfirm": 2123,
      "Ġbiopsies": 2124,
      "Ġapproximately": 2125,
      "Ġoligodendroglioma": 2126,
      "andibular": 2127,
      "lial": 2128,
      "Ġden": 2129,
      "clerosis": 2130,
      "heal": 2131,
      "Ġrepl": 2132,
      "Ġdeposits": 2133,
      "Ġextrathyroidal": 2134,
      "gional": 2135,
      "idual": 2136,
      "ĠNuclear": 2137,
      "Ġmucosal": 2138,
      "ĠRegional": 2139,
      "ĠHistologic": 2140,
      "papillary": 2141,
      "Ġed": 2142,
      "Ġouter": 2143,
      "ations": 2144,
      "ants": 2145,
      "Ġstaining": 2146,
      "omer": 2147,
      "irrhosis": 2148,
      "Ġpal": 2149,
      "Ġmost": 2150,
      "osarcoma": 2151,
      "Ġlocal": 2152,
      "Ġparatubal": 2153,
      "Ġpl": 2154,
      "Ġconfi": 2155,
      "Ġesophag": 2156,
      "Ġenti": 2157,
      "neum": 2158,
      "ĠBackground": 2159,
      "Ġcompr": 2160,
      "Ġoverlying": 2161,
      "ĠMy": 2162,
      "br": 2163,
      "eric": 2164,
      "Ġanthrac": 2165,
      "eous": 2166,
      "sib": 2167,
      "atio": 2168,
      "Ġconnective": 2169,
      "Ġtubul": 2170,
      "ached": 2171,
      "Ġhalf": 2172,
      "Ġperipancreatic": 2173,
      "Ġqu": 2174,
      "Ġlum": 2175,
      "Ġfrequent": 2176,
      "iaortic": 2177,
      "Ġglomer": 2178,
      "Ġmicropapillary": 2179,
      "Ġsal": 2180,
      "Ġmediast": 2181,
      "Ġfascia": 2182,
      "pic": 2183,
      "Ġcalcifications": 2184,
      "isti": 2185,
      "emist": 2186,
      "Ġepithelium": 2187,
      "Ġnests": 2188,
      "neumon": 2189,
      "Ġsiz": 2190,
      "Ġsatell": 2191,
      "Ġadnex": 2192,
      "ĠCervix": 2193,
      "oin": 2194,
      "Ġpulmonary": 2195,
      "ecrosis": 2196,
      "ĠSquamous": 2197,
      "Ġkeratinizing": 2198,
      "ĠEnd": 2199,
      "ĠOment": 2200,
      "Ġgrossly": 2201,
      "rown": 2202,
      "Ġtes": 2203,
      "phrag": 2204,
      "ret": 2205,
      "Ġpart": 2206,
      "Ġcount": 2207,
      "phragm": 2208,
      "hing": 2209,
      "asis": 2210,
      "Ġrare": 2211,
      "ading": 2212,
      "eminal": 2213,
      "Ġhyperchromatic": 2214,
      "-tan": 2215,
      "way": 2216,
      "Ġcirrhosis": 2217,
      "Ġhisti": 2218,
      "Ġperiaortic": 2219,
      "ogen": 2220,
      "Ġcomplex": 2221,
      "Ġbody": 2222,
      "Ġmesenteric": 2223,
      "Ġsam": 2224,
      "Ġshap": 2225,
      "Ġvaginal": 2226,
      "Ġpossib": 2227,
      "Ġen": 2228,
      "asional": 2229,
      "Ġbronchus": 2230,
      "Ġfragments": 2231,
      "mediate": 2232,
      "Prostatic": 2233,
      "ium": 2234,
      "ĠTwo": 2235,
      "Ġimpl": 2236,
      "Ġsheet": 2237,
      "Ġtypes": 2238,
      "Ġmediastinal": 2239,
      "ra": 2240,
      "orectal": 2241,
      "ĠSeminal": 2242,
      "ochrom": 2243,
      "IN": 2244,
      "cess": 2245,
      "rang": 2246,
      "samm": 2247,
      "ons": 2248,
      "Ġlymphocytes": 2249,
      "obular": 2250,
      "Malignant": 2251,
      "ivary": 2252,
      "Ġsmo": 2253,
      "ota": 2254,
      "ĠUre": 2255,
      "Ġmesotheli": 2256,
      "Ġmentioned": 2257,
      "Ġaway": 2258,
      "erlying": 2259,
      "Ġpneumon": 2260,
      "Ġarrang": 2261,
      "heochrom": 2262,
      "Ġsteat": 2263,
      "Ġassess": 2264,
      "Ġdiagnos": 2265,
      "erota": 2266,
      "Ġendocervix": 2267,
      "Ġchromat": 2268,
      "Ġcalcification": 2269,
      "Ġdet": 2270,
      "Ġglomerul": 2271,
      "Ġmat": 2272,
      "Ġmou": 2273,
      "ĠGerota": 2274,
      "Ġdesm": 2275,
      "Ġleiomyomata": 2276,
      "Ġpericolonic": 2277,
      "heochromocytoma": 2278,
      "Ġchromatin": 2279,
      "Ġmouth": 2280,
      "Ġsus": 2281,
      "ticentric": 2282,
      "Ġfloor": 2283,
      "ĠOmentum": 2284,
      "Ġinclusion": 2285,
      "Ġscleros": 2286,
      "ors": 2287,
      "Ġmix": 2288,
      "Ġextend": 2289,
      "Ġup": 2290,
      "othelial": 2291,
      "Ġregions": 2292,
      "teen": 2293,
      "Ġcellularity": 2294,
      "Ġseparate": 2295,
      "-w": 2296,
      "tin": 2297,
      "Ġit": 2298,
      "Ġcar": 2299,
      "Ġintermediate": 2300,
      "ĠUn": 2301,
      "Ġmicrocalcifications": 2302,
      "Ġsecondary": 2303,
      "ĠProximal": 2304,
      "led": 2305,
      "isading": 2306,
      "ĠMetastas": 2307,
      "Ġesophageal": 2308,
      "Ġcarcinomat": 2309,
      "Ġlayers": 2310,
      "Ġpelvis": 2311,
      "Ġmesothelioma": 2312,
      "/l": 2313,
      "res": 2314,
      "Ġtumors": 2315,
      "Ġsmooth": 2316,
      "IS": 2317,
      "ĠSk": 2318,
      "Ġzone": 2319,
      "An": 2320,
      "osclerosis": 2321,
      "Ġesophagus": 2322,
      "Ġcarcinomatosa": 2323,
      "larg": 2324,
      "ping": 2325,
      "tent": 2326,
      "icitis": 2327,
      "Ġsurrounded": 2328,
      "reater": 2329,
      "Ġcomed": 2330,
      "Ġremaining": 2331,
      "til": 2332,
      "Ġasp": 2333,
      "Ġdiagnostic": 2334,
      "CIS": 2335,
      "uro": 2336,
      "present": 2337,
      "Ġadenosis": 2338,
      "ircumf": 2339,
      "Ġdiaphragm": 2340,
      "Ġdefinite": 2341,
      "-defined": 2342,
      "Ġoccasional": 2343,
      "ew": 2344,
      "jor": 2345,
      "ina": 2346,
      "ĠNecrosis": 2347,
      "Ġrepresent": 2348,
      "ĠCD": 2349,
      "Ġimm": 2350,
      "Ġpapill": 2351,
      "uscular": 2352,
      "Ġorig": 2353,
      "Ġenlarg": 2354,
      "Anaplastic": 2355,
      "Ġvery": 2356,
      "Ġspaces": 2357,
      "Ġalong": 2358,
      "ĠOv": 2359,
      "Ġbodies": 2360,
      "landular": 2361,
      "Ġthis": 2362,
      "enty": 2363,
      "Ġeff": 2364,
      "odular": 2365,
      "obe": 2366,
      "Ġemphysema": 2367,
      "sammoma": 2368,
      "wenty": 2369,
      "ulation": 2370,
      "Ġrad": 2371,
      "Ġhighly": 2372,
      "Ġcontaining": 2373,
      "ge": 2374,
      "ner": 2375,
      "Ġpari": 2376,
      "romb": 2377,
      "ytoma": 2378,
      "ĠUter": 2379,
      "Ġunderlying": 2380,
      "Ġmajor": 2381,
      "erent": 2382,
      "iposarcoma": 2383,
      "ophobe": 2384,
      "ullary": 2385,
      "Ġsubmucosa": 2386,
      "Ġaspect": 2387,
      "por": 2388,
      "onod": 2389,
      "Ġlin": 2390,
      "ically": 2391,
      "Ġdisc": 2392,
      "Ġspecimens": 2393,
      "Ġapocrine": 2394,
      "Ġsevere": 2395,
      "pec": 2396,
      "Ġ-": 2397,
      "ening": 2398,
      "Ġderm": 2399,
      "ages": 2400,
      "Ġgranular": 2401,
      "lottic": 2402,
      "Ġparietal": 2403,
      "Ġca": 2404,
      "Ġsarcoma": 2405,
      "Ġrel": 2406,
      "aden": 2407,
      "ĠAt": 2408,
      "Ġhistopath": 2409,
      "Ġapproach": 2410,
      "Ġdegree": 2411,
      "embran": 2412,
      "nar": 2413,
      "up": 2414,
      "Ġ+": 2415,
      "Ġcul": 2416,
      "Ġcircumf": 2417,
      "Ġmembran": 2418,
      "ters": 2419,
      "astroc": 2420,
      "Ġonly": 2421,
      "Ġsubserosal": 2422,
      "Ġsalivary": 2423,
      "Ġsheets": 2424,
      "Ġsclerosing": 2425,
      "Ġenlarged": 2426,
      "Ġcircumscribed": 2427,
      "umnar": 2428,
      "Ġthin": 2429,
      "erential": 2430,
      "ancer": 2431,
      "Ġinfiltrated": 2432,
      "vided": 2433,
      "Ġlobulated": 2434,
      "Ġabsence": 2435,
      "Ġoligodendroglial": 2436,
      "/lymphatic": 2437,
      "iant": 2438,
      "Ġthromb": 2439,
      "Ġliposarcoma": 2440,
      "Ġarteri": 2441,
      "Ġgreater": 2442,
      "ĠAdjacent": 2443,
      "Ġcord": 2444,
      "Ġpericolic": 2445,
      "Ġemphysematous": 2446,
      "Ġshape": 2447,
      "-in": 2448,
      "Ġgro": 2449,
      "Ġendothelial": 2450,
      "pleural": 2451,
      "Ġperitoneal": 2452,
      "ise": 2453,
      "Ġev": 2454,
      "Ġgiant": 2455,
      "Ġneuro": 2456,
      "angi": 2457,
      "aryng": 2458,
      "Ġsize": 2459,
      "Ġcartil": 2460,
      "Ġorigin": 2461,
      "Ġtun": 2462,
      "Ġred": 2463,
      "III": 2464,
      "racheal": 2465,
      "Endometrial": 2466,
      "Endometrioid": 2467,
      "ture": 2468,
      "Ġlip": 2469,
      "Ġdeta": 2470,
      "ĠMild": 2471,
      "ĠSer": 2472,
      "ized": 2473,
      "Ġvarious": 2474,
      "Ġdetail": 2475,
      "mixed": 2476,
      "atch": 2477,
      "ticul": 2478,
      "ower": 2479,
      "Ġresidual": 2480,
      "Ġhepatocellular": 2481,
      "Ġleiomyomas": 2482,
      "11": 2483,
      "ĠK": 2484,
      "usual": 2485,
      "ifocal": 2486,
      "Ġothers": 2487,
      "ulla": 2488,
      "Ġrecept": 2489,
      "picious": 2490,
      "Ġsampl": 2491,
      "pus": 2492,
      "inate": 2493,
      "alisading": 2494,
      "Ġsigmoid": 2495,
      "Ġextent": 2496,
      "-cell": 2497,
      "Ġduodenal": 2498,
      "Ġsteatosis": 2499,
      "alu": 2500,
      "Ġprovided": 2501,
      "Ġapex": 2502,
      "Ġparametrial": 2503,
      "aryngeal": 2504,
      "tely": 2505,
      "Ġdominant": 2506,
      "hep": 2507,
      "Ġgemist": 2508,
      "Ġmyx": 2509,
      "hite": 2510,
      "Ġfibrillary": 2511,
      "Ġradial": 2512,
      "uration": 2513,
      "igastric": 2514,
      "Ġrect": 2515,
      "ĠSc": 2516,
      "ĠSentinel": 2517,
      "vasion": 2518,
      "Ġcompletely": 2519,
      "Ġparatracheal": 2520,
      "Ġhyaliniz": 2521,
      "Ġtestis": 2522,
      "Ġsuspicious": 2523,
      "Ġcircumferential": 2524,
      "Ġits": 2525,
      "Ġinner": 2526,
      "Ġvas": 2527,
      "Ġkeratiniz": 2528,
      "Ġstain": 2529,
      "ĠVisceral": 2530,
      "Ġcomedo": 2531,
      "Ġevalu": 2532,
      "ays": 2533,
      "Ġpink": 2534,
      "Ġter": 2535,
      "ĠTumour": 2536,
      "Ġbas": 2537,
      "Ġatt": 2538,
      "Ġmulticentric": 2539,
      "Ġlumen": 2540,
      "Ġprev": 2541,
      "Ġang": 2542,
      "Ġcolumnar": 2543,
      "Ġcorpus": 2544,
      "ĠDCIS": 2545,
      "Ġbronchi": 2546,
      "Ġastrocytes": 2547,
      "Ġdemonstrate": 2548,
      "Ġpseudop": 2549,
      "Ġmesothelial": 2550,
      "Ġslightly": 2551,
      "not": 2552,
      "Ġfew": 2553,
      "Ġlep": 2554,
      "Ġducts": 2555,
      "Ġmucin": 2556,
      "Ġintram": 2557,
      "Ġsubserosa": 2558,
      "Ġentire": 2559,
      "Ġarranged": 2560,
      "/vascular": 2561,
      "alveolar": 2562,
      "umoral": 2563,
      "veal": 2564,
      "adr": 2565,
      "Ġuniform": 2566,
      "ĠMultifocal": 2567,
      "Ġmultin": 2568,
      "Ġcannot": 2569,
      "Ġcavity": 2570,
      "Ġquadr": 2571,
      "keratinizing": 2572,
      "Ġinactive": 2573,
      "Ġnature": 2574,
      "any": 2575,
      "Ġlymphonod": 2576,
      "Ġacc": 2577,
      "ĠAden": 2578,
      "Ġmasses": 2579,
      "Ġminor": 2580,
      "Ġglioblastoma": 2581,
      "Ġperinuclear": 2582,
      "-white": 2583,
      "mall": 2584,
      "oastroc": 2585,
      "Ġcancer": 2586,
      "Ġpy": 2587,
      "Ġdegen": 2588,
      "Ġreplac": 2589,
      "Ġimmun": 2590,
      "Pheochromocytoma": 2591,
      "ount": 2592,
      "ination": 2593,
      "oidal": 2594,
      "Ġstrong": 2595,
      "Ġurethral": 2596,
      "Ġpneumonia": 2597,
      "atchy": 2598,
      "Ġusual": 2599,
      "Ġperm": 2600,
      "Ġperit": 2601,
      "Ġperigastric": 2602,
      "Ġprocess": 2603,
      "Ġclassification": 2604,
      "Ġprevious": 2605,
      "Ġ=": 2606,
      "Ġpsammoma": 2607,
      "eratin": 2608,
      "ĠOther": 2609,
      "Ġattached": 2610,
      "50": 2611,
      "cal": 2612,
      "term": 2613,
      "Ġadmixed": 2614,
      "Ġsubpleural": 2615,
      "Ġcytologic": 2616,
      "Ġpolypoid": 2617,
      "esophageal": 2618,
      "Ġanthracotic": 2619,
      "Ġcartilage": 2620,
      "-b": 2621,
      "Ġagg": 2622,
      "Ġthose": 2623,
      "Ġalveolar": 2624,
      "Ġclus": 2625,
      "Ġcolorectal": 2626,
      "Ġdense": 2627,
      "Ġtunic": 2628,
      "Ġkeratinization": 2629,
      "ak": 2630,
      "yg": 2631,
      "Ġbet": 2632,
      "Ġcervicitis": 2633,
      "Ġcolonic": 2634,
      "Ġamount": 2635,
      "Ġsatellite": 2636,
      "Ġhistopathologic": 2637,
      "Ġpseudopalisading": 2638,
      "Ġfr": 2639,
      "Ġposi": 2640,
      "ĠFoci": 2641,
      "Ġsurfaces": 2642,
      "Ġsugges": 2643,
      "iel": 2644,
      "ween": 2645,
      "Ġfiel": 2646,
      "Ġring": 2647,
      "Ġchest": 2648,
      "rostate": 2649,
      "Ġactive": 2650,
      "ophytic": 2651,
      "Ġhistology": 2652,
      "Ġmacroph": 2653,
      "Ġlig": 2654,
      "Ġreveal": 2655,
      "Ġhepatitis": 2656,
      "Ġarterial": 2657,
      "Ġperinodal": 2658,
      "Ġconfig": 2659,
      "Ġassessed": 2660,
      "Ġest": 2661,
      "Ġpathological": 2662,
      "Ġsuggest": 2663,
      "Ġcur": 2664,
      "itoneal": 2665,
      "Ġlesser": 2666,
      "ĠFibro": 2667,
      "Ġdisplaying": 2668,
      "ĠUreter": 2669,
      "Ġglomerulosclerosis": 2670,
      "Ġmater": 2671,
      "Ġdesmoplastic": 2672,
      "oastrocytoma": 2673,
      "Ġbetween": 2674,
      "Ġcalc": 2675,
      "ered": 2676,
      "Ġwid": 2677,
      "Ġlymphoma": 2678,
      "Ġextra": 2679,
      "ĠGallbladder": 2680,
      "-sac": 2681,
      "Ġconfiguration": 2682,
      "ber": 2683,
      "iss": 2684,
      "ament": 2685,
      "Ġthroughout": 2686,
      "Ġdisplays": 2687,
      "Ġsimple": 2688,
      "ofi": 2689,
      "Ġunifocal": 2690,
      "Ġclos": 2691,
      "tein": 2692,
      "ĠIntr": 2693,
      "Ġsept": 2694,
      "Ġsclerosis": 2695,
      "ough": 2696,
      "Ġimplants": 2697,
      "Ġpositivity": 2698,
      "20": 2699,
      "oral": 2700,
      "ume": 2701,
      "umorous": 2702,
      "Ġhyperplastic": 2703,
      "press": 2704,
      "elium": 2705,
      "Ġdemonstrates": 2706,
      "oves": 2707,
      "Ġhalos": 2708,
      "Ġrespon": 2709,
      "ory": 2710,
      "Ġvol": 2711,
      "ĠPapillary": 2712,
      "Ġfibroaden": 2713,
      "Ġurethra": 2714,
      "Ġmixture": 2715,
      "Ġgrooves": 2716,
      "Ġmaterial": 2717,
      "Ġresponse": 2718,
      "/III": 2719,
      "ts": 2720,
      "Ġsac": 2721,
      "Ġpatchy": 2722,
      "Ġpre": 2723,
      "ticular": 2724,
      "ogastric": 2725,
      "Ġoval": 2726,
      "Ġsubt": 2727,
      "ization": 2728,
      "ĠMyometrial": 2729,
      "Ġvolume": 2730,
      "hes": 2731,
      "Ġtwenty": 2732,
      "olated": 2733,
      "ĠRem": 2734,
      "Ġconsists": 2735,
      "rogen": 2736,
      "struc": 2737,
      "Ġdefinitive": 2738,
      "Ġperme": 2739,
      "Ġfriable": 2740,
      "ones": 2741,
      "Ġmandib": 2742,
      "Ġop": 2743,
      "uch": 2744,
      "Ġparac": 2745,
      "Ġintact": 2746,
      "enchymal": 2747,
      "ectomy": 2748,
      "dson": 2749,
      "Ġsuggestive": 2750,
      "Ġmod": 2751,
      "olic": 2752,
      "Ġratio": 2753,
      "plic": 2754,
      "Ġvariab": 2755,
      "Ġretro": 2756,
      "Ġmacrophages": 2757,
      "tia": 2758,
      "tim": 2759,
      "ortal": 2760,
      "Ġcere": 2761,
      "uccal": 2762,
      "app": 2763,
      "Ġchromophobe": 2764,
      "ĠParathyroid": 2765,
      "arynx": 2766,
      "ĠMetastases": 2767,
      "ĠSkin": 2768,
      "Ġpermeation": 2769,
      "53": 2770,
      "Metastatic": 2771,
      "Ġect": 2772,
      "ocytosis": 2773,
      "Ġtunica": 2774,
      "yn": 2775,
      "Ġsix": 2776,
      "Ġbuccal": 2777,
      "ĠApp": 2778,
      "ometriosis": 2779,
      "ĠMicroscopic": 2780,
      "ogeneous": 2781,
      "Ġdetected": 2782,
      "Ġmandible": 2783,
      "oalveolar": 2784,
      "edifferentiated": 2785,
      "ised": 2786,
      "Ġrib": 2787,
      "esicular": 2788,
      "rothelium": 2789,
      "Ġforms": 2790,
      "Ġremain": 2791,
      "Ġpenetration": 2792,
      "ĠAtyp": 2793,
      "-l": 2794,
      "Olig": 2795,
      "enot": 2796,
      "ish": 2797,
      "omorphology": 2798,
      "iverticul": 2799,
      "Ġbronchiol": 2800,
      "Ġligament": 2801,
      "wise": 2802,
      "uous": 2803,
      "arse": 2804,
      "Ġaround": 2805,
      "Ġexophytic": 2806,
      "epar": 2807,
      "Ġepid": 2808,
      "Ġexamination": 2809,
      "Ġtubulop": 2810,
      "Ġadnexa": 2811,
      "Ġpossible": 2812,
      "Ġsampled": 2813,
      "Ġbasal": 2814,
      "Ġfields": 2815,
      "ĠCapsular": 2816,
      "Ġheter": 2817,
      "izing": 2818,
      "Ġmarkedly": 2819,
      "ortical": 2820,
      "Ġoverall": 2821,
      "ĠNegative": 2822,
      "hepatic": 2823,
      "Ġmyxoid": 2824,
      "though": 2825,
      "Ġlab": 2826,
      "urr": 2827,
      "ĠLobular": 2828,
      "ĠProstatic": 2829,
      "ĠUninvolved": 2830,
      "Ġapproaches": 2831,
      "ily": 2832,
      "Ġaboral": 2833,
      "Ġapical": 2834,
      "Ġgemistocytic": 2835,
      "Multi": 2836,
      "ling": 2837,
      "uff": 2838,
      "tiary": 2839,
      "onventional": 2840,
      "Ġadventi": 2841,
      "Ġcytomorphology": 2842,
      "Ġcystitis": 2843,
      "Ġveins": 2844,
      "Ġomental": 2845,
      "ĠThree": 2846,
      "aval": 2847,
      "ĠLeiomy": 2848,
      "Ġsimilar": 2849,
      "Ġhistiocytosis": 2850,
      "Ġtertiary": 2851,
      "Ġclusters": 2852,
      "ĠRemaining": 2853,
      "eign": 2854,
      "Ġile": 2855,
      "arret": 2856,
      "Ġpus": 2857,
      "Ġbl": 2858,
      "Ġhom": 2859,
      "terone": 2860,
      "Ġforeign": 2861,
      "ĠSub": 2862,
      "hymoma": 2863,
      "Ġsupr": 2864,
      "Ġphenot": 2865,
      "Ġfragment": 2866,
      "Multifocal": 2867,
      "arrett": 2868,
      "Serous": 2869,
      "ements": 2870,
      "pan": 2871,
      "enum": 2872,
      "Ġthir": 2873,
      "ativ": 2874,
      "Ġhil": 2875,
      "iffus": 2876,
      "Ġproges": 2877,
      "ĠBarrett": 2878,
      "Ġonc": 2879,
      "Ġsubmandibular": 2880,
      "Ġpolyps": 2881,
      "Ġprogesterone": 2882,
      "lit": 2883,
      "uterized": 2884,
      "ormation": 2885,
      "Ġmicrocarcinoma": 2886,
      "Ġseveral": 2887,
      "Ġmembrane": 2888,
      "troph": 2889,
      "inoma": 2890,
      "atty": 2891,
      "Ġfive": 2892,
      "Ġalthough": 2893,
      "Ġtubules": 2894,
      "Ġpale": 2895,
      "Ġmostly": 2896,
      "ĠOvaries": 2897,
      "eg": 2898,
      "Ġprior": 2899,
      "terol": 2900,
      "Ġvis": 2901,
      "illous": 2902,
      "Ġintrap": 2903,
      "Ġflat": 2904,
      "Ġcarcinomatosae": 2905,
      "Ġlines": 2906,
      "Ġcurv": 2907,
      "atively": 2908,
      "Ch": 2909,
      "ress": 2910,
      "ens": 2911,
      "thm": 2912,
      "erian": 2913,
      "Ġli": 2914,
      "Ġfull": 2915,
      "Ġbrown": 2916,
      "reg": 2917,
      "clusion": 2918,
      "ĠSmall": 2919,
      "Ġdemonstrating": 2920,
      "Ġelements": 2921,
      "ĠFibrocystic": 2922,
      "Ġthymic": 2923,
      "ygonal": 2924,
      "rete": 2925,
      "Ġreach": 2926,
      "Ġemb": 2927,
      "Ġduodenum": 2928,
      "ĠUterine": 2929,
      "Ġintramural": 2930,
      "Ġphenotype": 2931,
      "Ġcec": 2932,
      "Ġcuff": 2933,
      "ally": 2934,
      "Ġlack": 2935,
      "elic": 2936,
      "Ġendometriosis": 2937,
      "oplasmic": 2938,
      "Ġsignet": 2939,
      "Ġcords": 2940,
      "Ġpolygonal": 2941,
      "Ġperiphery": 2942,
      "Ġmesentery": 2943,
      "Ġparametrium": 2944,
      "Ġpartly": 2945,
      "Ġcalcified": 2946,
      "ĠAppendix": 2947,
      "),": 2948,
      "iasis": 2949,
      "ok": 2950,
      "side": 2951,
      "Ġaortic": 2952,
      "Ġtons": 2953,
      "Ġwas": 2954,
      "ither": 2955,
      "leen": 2956,
      "aneous": 2957,
      "Ġrang": 2958,
      "Ġspleen": 2959,
      "ĠSev": 2960,
      "Ġfibros": 2961,
      "ĠProstate": 2962,
      "ĠFallopian": 2963,
      "tively": 2964,
      "Ġoblit": 2965,
      "ĠInfiltr": 2966,
      "ĠMitoses": 2967,
      "Ġgranulomas": 2968,
      "Ġhistologically": 2969,
      "Ġcauterized": 2970,
      "Ġrelatively": 2971,
      "67": 2972,
      "Ġpower": 2973,
      "ithiasis": 2974,
      "Ġisthm": 2975,
      "Ġgut": 2976,
      "ĠPle": 2977,
      "Ġinvaded": 2978,
      "Ġdistant": 2979,
      "peritoneal": 2980,
      "Ġmicrog": 2981,
      "Ġmicrov": 2982,
      "Ġorganizing": 2983,
      "Ġthymus": 2984,
      "Ġreveals": 2985,
      "Ġmodified": 2986,
      "Ġhilum": 2987,
      "-r": 2988,
      "cision": 2989,
      "st": 2990,
      "vum": 2991,
      "ese": 2992,
      "Ġsyn": 2993,
      "eling": 2994,
      "Ġperf": 2995,
      "yst": 2996,
      "ĠFour": 2997,
      "aboth": 2998,
      "astritis": 2999,
      "Ġoligoastrocytoma": 3000,
      "Ġintestine": 3001,
      "abothian": 3002,
      "OS": 3003,
      "Thymoma": 3004,
      "oration": 3005,
      "Ġinvasivum": 3006,
      "utaneous": 3007,
      "ubular": 3008,
      "oderate": 3009,
      "Ġsupp": 3010,
      "Ġpericard": 3011,
      "Ġdiscrete": 3012,
      "Ġdermis": 3013,
      "structive": 3014,
      "ĠAtypical": 3015,
      "Ġcurvature": 3016,
      "enocortical": 3017,
      "ĠUrothelial": 3018,
      "odendroglioma": 3019,
      "Ġadherent": 3020,
      "Ġindeterm": 3021,
      "Ġindeterminate": 3022,
      "renocortical": 3023,
      "art": 3024,
      "Ġtall": 3025,
      "Ġlam": 3026,
      "idic": 3027,
      "Ġgastritis": 3028,
      "oglandular": 3029,
      "ĠAs": 3030,
      "iliary": 3031,
      "Ġpseudoin": 3032,
      "ĠMyometrium": 3033,
      "Ġaggreg": 3034,
      "Ġadventitia": 3035,
      "iffuse": 3036,
      "Ġoncocytic": 3037,
      "egated": 3038,
      "Ġpseudoinclusion": 3039,
      "AP": 3040,
      "Ġoral": 3041,
      "Ġana": 3042,
      "Ġfibrovascular": 3043,
      "Ġinternal": 3044,
      "Ġpancreatitis": 3045,
      "Ġvariegated": 3046,
      "ovarian": 3047,
      "Ġhyalinized": 3048,
      "Ġestrogen": 3049,
      "Ġpseudoinclusions": 3050,
      "Ġ\"": 3051,
      "elithiasis": 3052,
      "Ġglob": 3053,
      "ĠConventional": 3054,
      "Ġsites": 3055,
      "Ġductale": 3056,
      "ĠEm": 3057,
      "Ġnumber": 3058,
      "Ġgranulomatous": 3059,
      "ĠReactive": 3060,
      "ĠExtraprostatic": 3061,
      "ĠCervical": 3062,
      "Ġedge": 3063,
      "Ġconfirm": 3064,
      "Ġcereb": 3065,
      "Ġgutter": 3066,
      "Ġanaplasia": 3067,
      "12": 3068,
      "Well": 3069,
      "eak": 3070,
      "Ġill": 3071,
      "Ġlined": 3072,
      "ulae": 3073,
      "Ġeight": 3074,
      "ility": 3075,
      "Ġurothelium": 3076,
      "endocrine": 3077,
      "Ġotherwise": 3078,
      "Ġbranc": 3079,
      "Ġcholelithiasis": 3080,
      "ovillous": 3081,
      "ĠMicro": 3082,
      "Ġthrombus": 3083,
      "ĠUreteral": 3084,
      "Ġwidely": 3085,
      "Ġsubtype": 3086,
      "Ġsuppor": 3087,
      "-yellow": 3088,
      "Ġmany": 3089,
      "phr": 3090,
      "ulature": 3091,
      "ider": 3092,
      "ental": 3093,
      "ĠMuc": 3094,
      "Ġconsisting": 3095,
      "Ġmildly": 3096,
      "ullerian": 3097,
      "Ġabutting": 3098,
      "Ġhypercellularity": 3099,
      "Ġdegeneration": 3100,
      "Ġsuggesting": 3101,
      "-keratinizing": 3102,
      "FAP": 3103,
      "elve": 3104,
      "Ġperith": 3105,
      "iratory": 3106,
      "ĠGFAP": 3107,
      "Ġstations": 3108,
      "Ġscant": 3109,
      "Ġpole": 3110,
      "Ġleiomyosarcoma": 3111,
      "Ġpharyngeal": 3112,
      "Ġmedium": 3113,
      "Ġzones": 3114,
      "Ġcomprising": 3115,
      "ĠSerosal": 3116,
      "Urothelial": 3117,
      "Ġsuch": 3118,
      "Ġexcept": 3119,
      "Ġpigmented": 3120,
      "ĠAdenomyosis": 3121,
      "Ġprocesses": 3122,
      "Ġretroperitoneal": 3123,
      "Carcinoma": 3124,
      "domin": 3125,
      "oh": 3126,
      "enic": 3127,
      "Ġpop": 3128,
      "Ġresemb": 3129,
      "ĠSoft": 3130,
      "ytoplasmic": 3131,
      "Ġmitosis": 3132,
      "Ġevident": 3133,
      "osalping": 3134,
      "Ġadenomas": 3135,
      "Ġvesicular": 3136,
      "Ġformations": 3137,
      "-type": 3138,
      "Ġseven": 3139,
      "Ġundifferentiated": 3140,
      "Ġsubcutaneous": 3141,
      "Ġreceptors": 3142,
      "Ġangi": 3143,
      "Ġquadrant": 3144,
      "Ġreplaced": 3145,
      "Ġisthmus": 3146,
      "Ġperithyroid": 3147,
      "dominal": 3148,
      "pon": 3149,
      "astro": 3150,
      "Ġinfiltratio": 3151,
      "Ġprotein": 3152,
      "ĠPIN": 3153,
      "Ġmedullary": 3154,
      "Ġmedulla": 3155,
      "Ġsegments": 3156,
      "-tumorous": 3157,
      "Ġedem": 3158,
      "Ġrepresenting": 3159,
      "Ġeffect": 3160,
      "ĠKi": 3161,
      "Oligodendroglioma": 3162,
      "umerous": 3163,
      "Ġthese": 3164,
      "Ġdil": 3165,
      "Ġet": 3166,
      "iglottic": 3167,
      "hem": 3168,
      "ĠNumerous": 3169,
      "ible": 3170,
      "Ġvary": 3171,
      "Ġvag": 3172,
      "ĠSpec": 3173,
      "other": 3174,
      "Ġfibrotic": 3175,
      "Ġperivascular": 3176,
      "Ġcorres": 3177,
      "Ġpathology": 3178,
      "Ġureters": 3179,
      "Ġtransitional": 3180,
      "ĠMicroc": 3181,
      "Ġsubmucosal": 3182,
      "Ġoptic": 3183,
      "iosis": 3184,
      "lor": 3185,
      "que": 3186,
      "tom": 3187,
      "arinal": 3188,
      "ern": 3189,
      "Ġrectal": 3190,
      "Ġlymphatics": 3191,
      "Ġlarger": 3192,
      "-to": 3193,
      "Ġlayer": 3194,
      "Ġcerebral": 3195,
      "osalpingiosis": 3196,
      "Ġcorrespon": 3197,
      "-th": 3198,
      "uid": 3199,
      "wall": 3200,
      "tif": 3201,
      "ork": 3202,
      "ises": 3203,
      "Ġline": 3204,
      "rometastas": 3205,
      "ĠPr": 3206,
      "ĠExtrathyroidal": 3207,
      "Ġsidewall": 3208,
      "Ġsubcapsular": 3209,
      "pecific": 3210,
      "adenitis": 3211,
      "Ġmultinodular": 3212,
      "okeratin": 3213,
      "ring": 3214,
      "arent": 3215,
      "tiz": 3216,
      "Ġmark": 3217,
      "uronal": 3218,
      "Ġgrou": 3219,
      "reas": 3220,
      "ĠAreas": 3221,
      "Ġabdominal": 3222,
      "olitis": 3223,
      "Ġmorphological": 3224,
      "Ġneuroendocrine": 3225,
      "-brown": 3226,
      "Ġbronchioloalveolar": 3227,
      "ĠEmphysem": 3228,
      "Ġvarying": 3229,
      "ER": 3230,
      "dle": 3231,
      "tain": 3232,
      "Ġer": 3233,
      "tit": 3234,
      "thral": 3235,
      "osigmoid": 3236,
      "ocarcinoma": 3237,
      "ĠNormal": 3238,
      "Ġgastro": 3239,
      "acement": 3240,
      "liferative": 3241,
      "Ġhepat": 3242,
      "Ġperiprostatic": 3243,
      "Ġcarcinomatous": 3244,
      "Ġtubulovillous": 3245,
      "Ġdetails": 3246,
      "Ġvasa": 3247,
      "Ġpushing": 3248,
      "Ġpopulation": 3249,
      "ĠMicrocalcifications": 3250,
      "Ġgroup": 3251,
      "ardson": 3252,
      "Ġmon": 3253,
      "Ġmast": 3254,
      "Ġdiverticul": 3255,
      "Ġnotable": 3256,
      "erentia": 3257,
      "ending": 3258,
      "quiv": 3259,
      "Ġalb": 3260,
      "Ġasc": 3261,
      "ervical": 3262,
      "eminoma": 3263,
      "Ġcoll": 3264,
      "ĠHER": 3265,
      "loom": 3266,
      "Ġdeferentia": 3267,
      "ichardson": 3268,
      "ammary": 3269,
      "Ġdirectly": 3270,
      "Ġsatellit": 3271,
      "Ġimplant": 3272,
      "Ġinclusions": 3273,
      "Ġpapilloma": 3274,
      "Ġmulticentricity": 3275,
      "Ġbronchiolitis": 3276,
      "Ġleptom": 3277,
      "Ġleptomening": 3278,
      "ging": 3279,
      "ivid": 3280,
      "lc": 3281,
      "ution": 3282,
      "isk": 3283,
      "isten": 3284,
      "Ġtel": 3285,
      "entral": 3286,
      "ĠNOS": 3287,
      "Ġexpress": 3288,
      "Ġperirect": 3289,
      "ĠLa": 3290,
      "Ġinformation": 3291,
      "Ġappearing": 3292,
      "Ġsmaller": 3293,
      "Ġcystica": 3294,
      "Ġapplic": 3295,
      "Ġmiddle": 3296,
      "Ġpalate": 3297,
      "retory": 3298,
      "Ġreceptor": 3299,
      "Ġcecum": 3300,
      "Ġaggregates": 3301,
      "tizing": 3302,
      "ividual": 3303,
      "Ġperirectal": 3304,
      "Ġapplicable": 3305,
      "Diffuse": 3306,
      "IB": 3307,
      "ied": 3308,
      "kely": 3309,
      "nel": 3310,
      "ug": 3311,
      "Ġisolated": 3312,
      "Ġbund": 3313,
      "ocolic": 3314,
      "ĠNipple": 3315,
      "acheal": 3316,
      "Ġsperm": 3317,
      "Ġretr": 3318,
      "Ġrepor": 3319,
      "Ġtubal": 3320,
      "Ġmarrow": 3321,
      "ocyte": 3322,
      "Ġintrahepatic": 3323,
      "ĠParenchymal": 3324,
      "Ġelev": 3325,
      "Ġdens": 3326,
      "ĠEndometrium": 3327,
      "ĠUterus": 3328,
      "Ġrectosigmoid": 3329,
      "Ġlepidic": 3330,
      "Ġlabeling": 3331,
      "Ġtonsil": 3332,
      "quivocal": 3333,
      "ĠLaur": 3334,
      "fatty": 3335,
      "pth": 3336,
      "rely": 3337,
      "Ġpoor": 3338,
      "Ġweak": 3339,
      "Ġfill": 3340,
      "Ġeither": 3341,
      "osider": 3342,
      "Ġdepth": 3343,
      "Ġapparent": 3344,
      "Ġmicroscop": 3345,
      "Ġhemosider": 3346,
      "Ġclassified": 3347,
      "asculature": 3348,
      "Ġamp": 3349,
      "Ġsubcarinal": 3350,
      "Ġentirely": 3351,
      "Ġcompress": 3352,
      "Ġfibroadenoma": 3353,
      "Ġlikely": 3354,
      "25": 3355,
      "lob": 3356,
      "Ġten": 3357,
      "Ġfo": 3358,
      "erating": 3359,
      "ĠSepar": 3360,
      "agul": 3361,
      "Ġendosalpingiosis": 3362,
      "ĠBladder": 3363,
      "Ġsigns": 3364,
      "Ġadenomatous": 3365,
      "Ġcanal": 3366,
      "lottis": 3367,
      "ĠSerosa": 3368,
      "Ġlamina": 3369,
      "Ġperithyroidal": 3370,
      "Ġsatellitosis": 3371,
      "sociated": 3372,
      "test": 3373,
      "work": 3374,
      "ingiv": 3375,
      "Ġgingiv": 3376,
      "Ġnew": 3377,
      "Ġfibrom": 3378,
      "Ġcov": 3379,
      "Ġoutside": 3380,
      "Ġrete": 3381,
      "ĠMetastasis": 3382,
      "Ġdermal": 3383,
      "angiocarcinoma": 3384,
      "Ġileum": 3385,
      "ĠAssociated": 3386,
      "Ġcorresponding": 3387,
      "Ġmarkers": 3388,
      "agulative": 3389,
      "%.": 3390,
      "ble": 3391,
      "flam": 3392,
      "Ġsyst": 3393,
      "Ġfinal": 3394,
      "Ġfav": 3395,
      "ĠNucle": 3396,
      "Ġvocal": 3397,
      "Ġstructure": 3398,
      "ĠInvasion": 3399,
      "Ġvariation": 3400,
      "Ġtrue": 3401,
      "Ġfluid": 3402,
      "Ġpossibly": 3403,
      "Ġevaluation": 3404,
      "Ġevaluated": 3405,
      "Ġintrapulmonary": 3406,
      "elicate": 3407,
      "Ġsystem": 3408,
      "cent": 3409,
      "vious": 3410,
      "erens": 3411,
      "ertain": 3412,
      "atible": 3413,
      "idental": 3414,
      "Ġdelicate": 3415,
      "ĠMIB": 3416,
      "Ġinclud": 3417,
      "ectasis": 3418,
      "epiglottic": 3419,
      "Ġgranuloma": 3420,
      "-pink": 3421,
      "Ġscarring": 3422,
      "Ġmultinucle": 3423,
      "ofibr": 3424,
      "Ġseptum": 3425,
      "Ġtubulopapillary": 3426,
      "ĠSubm": 3427,
      "Ġperforation": 3428,
      "phritis": 3429,
      "Ġtelae": 3430,
      "ĠSeparate": 3431,
      "pin": 3432,
      "welve": 3433,
      "ort": 3434,
      "Ġlo": 3435,
      "Ġdedifferentiated": 3436,
      "igone": 3437,
      "Ġcompatible": 3438,
      "Ġtrigone": 3439,
      "Ġdeferens": 3440,
      "Ġelong": 3441,
      "Ġthymoma": 3442,
      "Ġanthracosis": 3443,
      "ĠSkeletal": 3444,
      "-invasive": 3445,
      "ĠScar": 3446,
      "Ġobliteration": 3447,
      "ĠMicrovascular": 3448,
      "Ġgroups": 3449,
      "pinx": 3450,
      "Clear": 3451,
      "iops": 3452,
      "lu": 3453,
      "yc": 3454,
      "Ġmature": 3455,
      "ĠModerate": 3456,
      "ysi": 3457,
      "ĠCK": 3458,
      "ĠCell": 3459,
      "ĠBr": 3460,
      "soph": 3461,
      "Ġreaching": 3462,
      "Ġcenter": 3463,
      "Ġclassic": 3464,
      "Ġlocations": 3465,
      "Ġphysi": 3466,
      "Ġsecretory": 3467,
      "Ġhomogeneous": 3468,
      "pans": 3469,
      "Ġvisible": 3470,
      "Ġspermatic": 3471,
      "ĠLauren": 3472,
      "/t": 3473,
      "15": 3474,
      "capsular": 3475,
      "duc": 3476,
      "Ġcal": 3477,
      "Ġciliary": 3478,
      "Ġfund": 3479,
      "iceal": 3480,
      "Ġbul": 3481,
      "Ġreg": 3482,
      "ĠDist": 3483,
      "Ġspindled": 3484,
      "Ġtransition": 3485,
      "Ġmacro": 3486,
      "Ġhyaline": 3487,
      "ĠUnremarkable": 3488,
      "Ġlining": 3489,
      "Ġquadrants": 3490,
      "Ġvariably": 3491,
      "Ġmicroscopically": 3492,
      "ĠNuclei": 3493,
      "iopsy": 3494,
      "hy": 3495,
      "ened": 3496,
      "asic": 3497,
      "omed": 3498,
      "Ġos": 3499,
      "Ġling": 3500,
      "idym": 3501,
      "ochem": 3502,
      "Ġexpans": 3503,
      "ply": 3504,
      "Ġperim": 3505,
      "illa": 3506,
      "ĠAr": 3507,
      "Ġanother": 3508,
      "Ġhypogastric": 3509,
      "Ġappend": 3510,
      "Ġconstit": 3511,
      "ĠHP": 3512,
      "Adrenocortical": 3513,
      "Ġhemat": 3514,
      "ĠLevel": 3515,
      "Ġportions": 3516,
      "Ġlymphonodis": 3517,
      "issure": 3518,
      "ĠIntraductal": 3519,
      "Ġremainder": 3520,
      "Ġfibrosa": 3521,
      "Ġampulla": 3522,
      "Le": 3523,
      "line": 3524,
      "rup": 3525,
      "oroidal": 3526,
      "Ġfung": 3527,
      "Ġbased": 3528,
      "urther": 3529,
      "Ġrim": 3530,
      "ucinous": 3531,
      "ifteen": 3532,
      "eratosis": 3533,
      "Ġresul": 3534,
      "Ġunc": 3535,
      "Ġfibroc": 3536,
      "ĠBoth": 3537,
      "Ġcytokeratin": 3538,
      "-cytoplasmic": 3539,
      "Ġobstructive": 3540,
      "Infiltrative": 3541,
      "Ġadnexal": 3542,
      "Ġarteriol": 3543,
      "Ġreplacing": 3544,
      "ofib": 3545,
      "Ġclosely": 3546,
      "Ġectasia": 3547,
      "-lymph": 3548,
      "Ġepiderm": 3549,
      "Ġbasaloid": 3550,
      "urrent": 3551,
      "ohist": 3552,
      "Ġmastopath": 3553,
      "Ġconstitut": 3554,
      "eep": 3555,
      "twork": 3556,
      "Ġax": 3557,
      "organ": 3558,
      "ortex": 3559,
      "Ġmandibular": 3560,
      "Ġfurther": 3561,
      "ulitis": 3562,
      "oss": 3563,
      "Ġnetwork": 3564,
      "Ġcomes": 3565,
      "Ġconf": 3566,
      "ubb": 3567,
      "aglottic": 3568,
      "Ġabout": 3569,
      "ĠFive": 3570,
      "ĠCl": 3571,
      "Ġmicrocystic": 3572,
      "Ġlargest": 3573,
      "ĠFocally": 3574,
      "Ġcomplete": 3575,
      "Ġsclera": 3576,
      "Ġdeposition": 3577,
      "Ġrespiratory": 3578,
      "Ġaccom": 3579,
      "trophy": 3580,
      "Ġpericardium": 3581,
      "idymis": 3582,
      "ohistochem": 3583,
      "Mixed": 3584,
      "Seminoma": 3585,
      "ld": 3586,
      "ĠTumors": 3587,
      "Ġleast": 3588,
      "Ġune": 3589,
      "Ġresected": 3590,
      "ĠCol": 3591,
      "ĠBloom": 3592,
      "Ġspecif": 3593,
      "Ġlobules": 3594,
      "Ġdisrup": 3595,
      "Ġbrid": 3596,
      "ĠThyroid": 3597,
      "Ġcholes": 3598,
      "Ġindividual": 3599,
      "Ġorgans": 3600,
      "Ġedges": 3601,
      "Ġhyalinization": 3602,
      "Ġpyriform": 3603,
      "ished": 3604,
      "Ġconfirmed": 3605,
      "Ġfavor": 3606,
      "ĠScarff": 3607,
      "Ġunequivocal": 3608,
      "30": 3609,
      "Ġoften": 3610,
      "Ġrubb": 3611,
      "Ġgen": 3612,
      "cleral": 3613,
      "Ġprob": 3614,
      "ĠCom": 3615,
      "ĠRare": 3616,
      "Ġwhere": 3617,
      "Ġfibrofatty": 3618,
      "Ġnonkeratinizing": 3619,
      "elvic": 3620,
      "Ġcontour": 3621,
      "uded": 3622,
      "Ġcoarse": 3623,
      "ĠParametr": 3624,
      "Ġpenetrating": 3625,
      "Ġperitumoral": 3626,
      "Ġvariability": 3627,
      "Ġmicrovessel": 3628,
      "Ġhemosiderin": 3629,
      "ĠSubmandibular": 3630,
      "Ġspecifically": 3631,
      "Ġrubbery": 3632,
      "lished": 3633,
      "Ġi": 3634,
      "arly": 3635,
      "onnective": 3636,
      "Ġlight": 3637,
      "road": 3638,
      "ides": 3639,
      "itary": 3640,
      "acu": 3641,
      "Ġadipos": 3642,
      "Ġdifferent": 3643,
      "Ġcomb": 3644,
      "Ġconges": 3645,
      "ogran": 3646,
      "ĠAc": 3647,
      "ections": 3648,
      "Ġany": 3649,
      "ĠSix": 3650,
      "Ġpost": 3651,
      "ĠPancreatic": 3652,
      "ablished": 3653,
      "ĠBiopsy": 3654,
      "iomyosarcoma": 3655,
      "ocervical": 3656,
      "Ġmesocolic": 3657,
      "Ġcoagulative": 3658,
      "Ġsarcomatous": 3659,
      "Ġgranulation": 3660,
      "Ġperitubal": 3661,
      "Ġedema": 3662,
      "Ġdilated": 3663,
      "ĠEmphysematous": 3664,
      "Leiomyosarcoma": 3665,
      "Ġcongestion": 3666,
      "inary": 3667,
      "tig": 3668,
      "Ġmay": 3669,
      "Ġmullerian": 3670,
      "ump": 3671,
      "Ġlarynx": 3672,
      "Ġbroad": 3673,
      "fiable": 3674,
      "Ġearly": 3675,
      "Ġartif": 3676,
      "trib": 3677,
      "plenic": 3678,
      "Ġvacu": 3679,
      "Ġglisten": 3680,
      "Ġdefined": 3681,
      "Ġhead": 3682,
      "ĠEsoph": 3683,
      "ĠPeri": 3684,
      "Ġdysplastic": 3685,
      "Ġrectum": 3686,
      "Ġimmunohistochem": 3687,
      "Ġblack": 3688,
      "ĠPleural": 3689,
      "Ġfundus": 3690,
      "Ġperimuscular": 3691,
      "Ġartifact": 3692,
      "Ġglistening": 3693,
      "-app": 3694,
      "Grade": 3695,
      "wh": 3696,
      "orid": 3697,
      "esis": 3698,
      "ĠNod": 3699,
      "ogenous": 3700,
      "Ġregular": 3701,
      "Ġhypertrophy": 3702,
      "ĠBone": 3703,
      "Ġextrathyroid": 3704,
      "Ġwhor": 3705,
      "Ġbrisk": 3706,
      "Ġlocation": 3707,
      "Ġflorid": 3708,
      "Ġrounded": 3709,
      "Ġmainly": 3710,
      "Ġglomeruli": 3711,
      "Ġmajority": 3712,
      "Ġremains": 3713,
      "Ġresembling": 3714,
      "Ġfibromuscular": 3715,
      "Ġelongated": 3716,
      "luent": 3717,
      "Ġmastopathia": 3718,
      "/s": 3719,
      "40": 3720,
      "Ġcr": 3721,
      "ony": 3722,
      "arcated": 3723,
      "own": 3724,
      "inea": 3725,
      "imary": 3726,
      "Ġmicrometastas": 3727,
      "Ġprostatitis": 3728,
      "ĠOral": 3729,
      "Ġdesc": 3730,
      "Ġoccup": 3731,
      "ĠScattered": 3732,
      "Ġstains": 3733,
      "ressive": 3734,
      "Ġvagina": 3735,
      "testinal": 3736,
      "flammatory": 3737,
      "Ġmultinucleated": 3738,
      "Ġlingual": 3739,
      "PIN": 3740,
      "face": 3741,
      "hilar": 3742,
      "iated": 3743,
      "ver": 3744,
      "Ġur": 3745,
      "inent": 3746,
      "ena": 3747,
      "Ġterm": 3748,
      "Ġfine": 3749,
      "phasic": 3750,
      "ocular": 3751,
      "Ġgre": 3752,
      "Ġidentifiable": 3753,
      "iter": 3754,
      "ĠLung": 3755,
      "Ġsparse": 3756,
      "illar": 3757,
      "opulmonary": 3758,
      "ĠSome": 3759,
      "romophobe": 3760,
      "rominent": 3761,
      "ĠPres": 3762,
      "ĠProminent": 3763,
      "Ġaccum": 3764,
      "earing": 3765,
      "Ġintral": 3766,
      "Ġintrat": 3767,
      "Ġcolor": 3768,
      "ĠInked": 3769,
      "Ġulcerating": 3770,
      "Ġcholangiocarcinoma": 3771,
      "Ġincision": 3772,
      "Ġpseudo": 3773,
      "Ġpla": 3774,
      "Ġplan": 3775,
      "ĠEndometrial": 3776,
      "ogenesis": 3777,
      "Ġpneumonitis": 3778,
      "orst": 3779,
      "Ġheterogeneous": 3780,
      "ĠSpecimen": 3781,
      "Ġalbug": 3782,
      "Ġphysiologic": 3783,
      "ĠHPF": 3784,
      "Ġcholesterol": 3785,
      "Ġadiposae": 3786,
      "Ġterms": 3787,
      "Ġalbuginea": 3788,
      "ient": 3789,
      "ray": 3790,
      "ying": 3791,
      "ording": 3792,
      "Ġworst": 3793,
      "phros": 3794,
      "ĠTwenty": 3795,
      "annel": 3796,
      "Ġnodal": 3797,
      "Ġgerm": 3798,
      "adipose": 3799,
      "rosarcoma": 3800,
      "Ġviable": 3801,
      "Ġchannel": 3802,
      "ĠLiver": 3803,
      "ogra": 3804,
      "agang": 3805,
      "ĠPos": 3806,
      "ĠEd": 3807,
      "Ġcolle": 3808,
      "ĠVessel": 3809,
      "ĠVaginal": 3810,
      "Ġcystaden": 3811,
      "Ġformed": 3812,
      "Ġpredomin": 3813,
      "Ġexcised": 3814,
      "Ġtranscapsular": 3815,
      "Ġirregularly": 3816,
      "-adrenal": 3817,
      "Ġlimits": 3818,
      "Ġaccording": 3819,
      "Ġdegenerative": 3820,
      "Ġglobal": 3821,
      "Ġmorphologically": 3822,
      "Ġascending": 3823,
      "Ġexpression": 3824,
      "Ġcovered": 3825,
      "Ġconfluent": 3826,
      "Ġcontours": 3827,
      "ĠEsophageal": 3828,
      "-appearing": 3829,
      "phrosclerosis": 3830,
      "eply": 3831,
      "rip": 3832,
      "ven": 3833,
      "vesicular": 3834,
      "yl": 3835,
      "orr": 3836,
      "Ġcertain": 3837,
      "Ġnabothian": 3838,
      "Ġmammary": 3839,
      "Ġwere": 3840,
      "Ġlute": 3841,
      "ĠType": 3842,
      "arcinomas": 3843,
      "Ġval": 3844,
      "Ġvena": 3845,
      "ĠMin": 3846,
      "ĠMalignant": 3847,
      "ĠAb": 3848,
      "opt": 3849,
      "aget": 3850,
      "Ġhyperem": 3851,
      "Ġactiv": 3852,
      "ived": 3853,
      "Ġkeratin": 3854,
      "ociation": 3855,
      "ĠGlandular": 3856,
      "ĠDirect": 3857,
      "eliac": 3858,
      "Ġcontent": 3859,
      "Ġseparated": 3860,
      "Ġpenetrates": 3861,
      "oinvasion": 3862,
      "Ġstrongly": 3863,
      "Ġamounts": 3864,
      "ĠFibroadipose": 3865,
      "Ġepididymis": 3866,
      "terolateral": 3867,
      "ĠInfiltrating": 3868,
      "Ġmicroglial": 3869,
      "Ġgastroesophageal": 3870,
      "ograph": 3871,
      "19": 3872,
      "Mucinous": 3873,
      "eograph": 3874,
      "itively": 3875,
      "zar": 3876,
      "arily": 3877,
      "alse": 3878,
      "Ġnine": 3879,
      "Ġbland": 3880,
      "ositis": 3881,
      "Ġexcl": 3882,
      "aped": 3883,
      "Ġcong": 3884,
      "ronodular": 3885,
      "ologous": 3886,
      "ands": 3887,
      "ange": 3888,
      "ĠRichardson": 3889,
      "Ġbizar": 3890,
      "Ġnons": 3891,
      "Ġperiure": 3892,
      "Ġassociation": 3893,
      "ĠThir": 3894,
      "ocervix": 3895,
      "Ġoverl": 3896,
      "Ġbilaterally": 3897,
      "Ġcentrally": 3898,
      "Ġpericolorectal": 3899,
      "Ġthickened": 3900,
      "Ġperiportal": 3901,
      "Ġdefinitively": 3902,
      "Ġdeposit": 3903,
      "Ġtotally": 3904,
      "Ġnested": 3905,
      "Ġsupporting": 3906,
      "ernia": 3907,
      "Ġleptomeningeal": 3908,
      "Ġweakly": 3909,
      "Ġfilled": 3910,
      "Ġiron": 3911,
      "ĠAcute": 3912,
      "Ġwhorled": 3913,
      "aganglioma": 3914,
      "ĠEdmon": 3915,
      "ription": 3916,
      "Ġbizarre": 3917,
      "/or": 3918,
      "Ġ#": 3919,
      "Ġfalse": 3920,
      "ula": 3921,
      "Ġbound": 3922,
      "Ġgo": 3923,
      "astom": 3924,
      "Ġproduc": 3925,
      "Ġgrowing": 3926,
      "associated": 3927,
      "Ġdisorgan": 3928,
      "Ġwalls": 3929,
      "ĠAdnex": 3930,
      "Ġclin": 3931,
      "ĠPeribronchial": 3932,
      "Ġlargely": 3933,
      "ually": 3934,
      "udding": 3935,
      "Ġremn": 3936,
      "Ġprimarily": 3937,
      "ĠResidual": 3938,
      "Ġrecurrent": 3939,
      "Ġsheath": 3940,
      "Ġdissections": 3941,
      "Ġdetached": 3942,
      "Ġemboli": 3943,
      "Ġranging": 3944,
      "lcerated": 3945,
      "Ġmacrovesicular": 3946,
      "Ġfibroconnective": 3947,
      "ofibrosarcoma": 3948,
      "ĠNodular": 3949,
      "Ġurinary": 3950,
      "Ġoverlap": 3951,
      "ĠEdmondson": 3952,
      "-associated": 3953,
      "Ductal": 3954,
      "Low": 3955,
      "most": 3956,
      "toph": 3957,
      "arked": 3958,
      "orum": 3959,
      "Ġceliac": 3960,
      "ases": 3961,
      "Ġpheochromocytoma": 3962,
      "Ġfles": 3963,
      "icul": 3964,
      "anIN": 3965,
      "iglottis": 3966,
      "ĠNabothian": 3967,
      "arge": 3968,
      "acral": 3969,
      "yper": 3970,
      "aptoph": 3971,
      "Ġspong": 3972,
      "ysin": 3973,
      "Ġalter": 3974,
      "Ġserositis": 3975,
      "Ġstation": 3976,
      "Ġstage": 3977,
      "Ġdistrib": 3978,
      "ĠEight": 3979,
      "Ġsomewh": 3980,
      "ĠPerip": 3981,
      "ĠIncision": 3982,
      "-form": 3983,
      "Ġport": 3984,
      "-sh": 3985,
      "Ġastrocytosis": 3986,
      "Ġsclerotic": 3987,
      "Ġoccurr": 3988,
      "picuous": 3989,
      "Ġsized": 3990,
      "Ġaggressive": 3991,
      "Ġtubulopapill": 3992,
      "Ġhepatocytes": 3993,
      "ĠDistal": 3994,
      "Ġcombined": 3995,
      "aptophysin": 3996,
      "Ġsomewhat": 3997,
      "-fi": 3998,
      "/p": 3999,
      "ement": 4000,
      "ash": 4001,
      "Ġsides": 4002,
      "ymorph": 4003,
      "Ġbudding": 4004,
      "uring": 4005,
      "acter": 4006,
      "Ġpercent": 4007,
      "ĠAxillary": 4008,
      "ĠRep": 4009,
      "Ġdistance": 4010,
      "ĠPerit": 4011,
      "ĠInc": 4012,
      "-tumor": 4013,
      "ermal": 4014,
      "Ġparaaortic": 4015,
      "Ġperineuronal": 4016,
      "Ġtransver": 4017,
      "Ġpseudoglandular": 4018,
      "ĠExtra": 4019,
      "Ġpenetrate": 4020,
      "Ġluminal": 4021,
      "Ġdesmoplasia": 4022,
      "Ġwashing": 4023,
      "Ġsynaptophysin": 4024,
      "lobar": 4025,
      "ĠPresence": 4026,
      "Ġactivation": 4027,
      "Ġcontents": 4028,
      "Ġspongy": 4029,
      "-shaped": 4030,
      "Ġtransverse": 4031,
      "-R": 4032,
      "BR": 4033,
      "Pr": 4034,
      "resent": 4035,
      "Ġnerv": 4036,
      "Ġsplenic": 4037,
      "Ġtex": 4038,
      "Ġtwelve": 4039,
      "ulticentric": 4040,
      "rees": 4041,
      "Ġvasculature": 4042,
      "alled": 4043,
      "Ġread": 4044,
      "ĠStr": 4045,
      "ĠSections": 4046,
      "ĠSBR": 4047,
      "omorphic": 4048,
      "Ġcapsulae": 4049,
      "Ġcompart": 4050,
      "omatosis": 4051,
      "ĠHep": 4052,
      "ĠDeep": 4053,
      "Ġpolymorph": 4054,
      "Ġmicrocarcinomas": 4055,
      "Ġdegrees": 4056,
      "Ġperivesicular": 4057,
      "Ġsuperficially": 4058,
      "Ġju": 4059,
      "Ġhyd": 4060,
      "-prostatic": 4061,
      "Ġsalping": 4062,
      "Ġparts": 4063,
      "Ġpylor": 4064,
      "trophic": 4065,
      "Ġeros": 4066,
      "Ġeleven": 4067,
      "Ġfoam": 4068,
      "Ġgingival": 4069,
      "Ġdescription": 4070,
      "eographic": 4071,
      "Ġoccurrence": 4072,
      "Ġtubulopapillare": 4073,
      "ĠRepresent": 4074,
      "ĠRepresentative": 4075,
      "Dedifferentiated": 4076,
      "TF": 4077,
      "Ulcerated": 4078,
      "ove": 4079,
      "ohep": 4080,
      "pread": 4081,
      "uper": 4082,
      "alth": 4083,
      "Ġnor": 4084,
      "Ġfar": 4085,
      "roliferative": 4086,
      "Ġtumoral": 4087,
      "ĠTTF": 4088,
      "itly": 4089,
      "Ġexplic": 4090,
      "acellular": 4091,
      "Ġhernia": 4092,
      "Ġnephritis": 4093,
      "encapsulated": 4094,
      "andom": 4095,
      "Ġalmost": 4096,
      "Ġdeterm": 4097,
      "Ġfinely": 4098,
      "Ġperiad": 4099,
      "ĠHilar": 4100,
      "Ġapopt": 4101,
      "Ġtubulare": 4102,
      "Ġparametria": 4103,
      "ĠNeoplastic": 4104,
      "Ġreplacement": 4105,
      "Ġhistiocytoma": 4106,
      "Ġapproaching": 4107,
      "Ġmembranes": 4108,
      "ĠKidney": 4109,
      "Ġterminal": 4110,
      "Ġestablished": 4111,
      "teiner": 4112,
      "Ġuncinate": 4113,
      "Ġepidermis": 4114,
      "Ġaccumulation": 4115,
      "Ġdisorganized": 4116,
      "Ġoverlapping": 4117,
      "Ġfleshy": 4118,
      "Ġnerves": 4119,
      "Ġreadily": 4120,
      "ohepatitis": 4121,
      "Ġexplicitly": 4122,
      "-m": 4123,
      "/c": 4124,
      "13": 4125,
      "ail": 4126,
      "iny": 4127,
      "omolar": 4128,
      "rotizing": 4129,
      "pheral": 4130,
      "old": 4131,
      "urs": 4132,
      "Ġary": 4133,
      "Ġlymphadenitis": 4134,
      "Ġgold": 4135,
      "Ġexp": 4136,
      "Ġprec": 4137,
      "Ġprepar": 4138,
      "Ġhost": 4139,
      "Ġventral": 4140,
      "ĠMuscular": 4141,
      "Ġsem": 4142,
      "ĠSple": 4143,
      "ĠPA": 4144,
      "ĠPanIN": 4145,
      "Ġdeeply": 4146,
      "abd": 4147,
      "ĠBlood": 4148,
      "Ġsta": 4149,
      "Ġstated": 4150,
      "Ġsolitary": 4151,
      "ĠEp": 4152,
      "Ġepiglottis": 4153,
      "ĠPerine": 4154,
      "Ġmorphologic": 4155,
      "Ġpresacral": 4156,
      "Ġseparately": 4157,
      "Ġrespec": 4158,
      "Ġreplaces": 4159,
      "Ġcomprises": 4160,
      "Ġhistiocytes": 4161,
      "Ġsteatohepatitis": 4162,
      "orsal": 4163,
      "ĠFibrous": 4164,
      "Ġclosest": 4165,
      "Ġparacervical": 4166,
      "panied": 4167,
      "Choroidal": 4168,
      "Ġbranches": 4169,
      "Ġbundles": 4170,
      "Ġretromolar": 4171,
      "tiguous": 4172,
      "Ġnonspecific": 4173,
      "ĠSpleen": 4174,
      "-nec": 4175,
      "-ex": 4176,
      "air": 4177,
      "onad": 4178,
      "ering": 4179,
      "Ġnone": 4180,
      "ater": 4181,
      "olus": 4182,
      "ilobular": 4183,
      "tions": 4184,
      "Ġatel": 4185,
      "isting": 4186,
      "Ġanastom": 4187,
      "Ġreticul": 4188,
      "charac": 4189,
      "ĠPoorly": 4190,
      "-gray": 4191,
      "Ġmicronodular": 4192,
      "Ġcomprom": 4193,
      "Ġbright": 4194,
      "Ġhemangi": 4195,
      "Ġobvious": 4196,
      "Ġinterp": 4197,
      "Ġinterface": 4198,
      "Ġsegmental": 4199,
      "100": 4200,
      "Ġtransf": 4201,
      "ĠExtracapsular": 4202,
      "Ġtypical": 4203,
      "Ġaspects": 4204,
      "Ġgemistocytes": 4205,
      "ression": 4206,
      "Ġreport": 4207,
      "Ġresulting": 4208,
      "Ġaccompanied": 4209,
      "ogranin": 4210,
      "Ġclinical": 4211,
      "Ġsalpingitis": 4212,
      "Ġerosion": 4213,
      "Ġrespectively": 4214,
      "onadal": 4215,
      "characteristic": 4216,
      "habd": 4217,
      "mural": 4218,
      "rilobular": 4219,
      "sed": 4220,
      "Ġti": 4221,
      "inet": 4222,
      "Ġcric": 4223,
      "espread": 4224,
      "elated": 4225,
      "enteen": 4226,
      "ĠTen": 4227,
      "Ġdark": 4228,
      "Ġgeographic": 4229,
      "pled": 4230,
      "Ġneur": 4231,
      "iline": 4232,
      "ĠModerately": 4233,
      "Ġposterolateral": 4234,
      "Ġspecial": 4235,
      "Ġdistor": 4236,
      "empor": 4237,
      "Ġclearing": 4238,
      "Ġbiphasic": 4239,
      "ĠAdipose": 4240,
      "Ġinterlobar": 4241,
      "Ġminute": 4242,
      "Ġparaovarian": 4243,
      "Ġadnexae": 4244,
      "Ġtesticular": 4245,
      "Ġarteriolar": 4246,
      "Ġmyxofibrosarcoma": 4247,
      "Ġwidespread": 4248,
      "Ġsepta": 4249,
      "Ġparacaval": 4250,
      "Ġsupraglottic": 4251,
      "Ġthirteen": 4252,
      "-red": 4253,
      "ĠMucosal": 4254,
      "Ġimmunohistochemical": 4255,
      "Ġplaque": 4256,
      "Ġgoiter": 4257,
      "Ġpreparation": 4258,
      "ineteen": 4259,
      "/h": 4260,
      "63": 4261,
      "xpress": 4262,
      "Ġtend": 4263,
      "Ġold": 4264,
      "Ġfifteen": 4265,
      "arcomatoid": 4266,
      "trum": 4267,
      "ust": 4268,
      "aced": 4269,
      "rosal": 4270,
      "Ġinvolution": 4271,
      "Ġreticular": 4272,
      "ĠPre": 4273,
      "Ġovere": 4274,
      "rounding": 4275,
      "Ġclearly": 4276,
      "ĠHyper": 4277,
      "ĠSurrounding": 4278,
      "velop": 4279,
      "persed": 4280,
      "Ġfollicles": 4281,
      "Ġpreserved": 4282,
      "Ġchromogranin": 4283,
      "Ġcarcinomas": 4284,
      "Ġpapillae": 4285,
      "Ġheterologous": 4286,
      "ĠLeiomyomata": 4287,
      "Ġthirty": 4288,
      "-three": 4289,
      "Ġbridging": 4290,
      "Ġgeneral": 4291,
      "Ġboundary": 4292,
      "Ġcompartment": 4293,
      "Ġfoamy": 4294,
      "Ġgolden": 4295,
      "Ġoverexpress": 4296,
      "-pos": 4297,
      "/b": 4298,
      "arrow": 4299,
      "Ġcore": 4300,
      "asm": 4301,
      "Ġnarrow": 4302,
      "Ġsial": 4303,
      "umb": 4304,
      "ollic": 4305,
      "Ġrhabd": 4306,
      "acinar": 4307,
      "Ġham": 4308,
      "ĠLarge": 4309,
      "oper": 4310,
      "Ġdem": 4311,
      "Ġmucous": 4312,
      "isms": 4313,
      "ĠVater": 4314,
      "Ġabscess": 4315,
      "cting": 4316,
      "rophic": 4317,
      "-specific": 4318,
      "Ġtracheal": 4319,
      "Ġbronchopulmonary": 4320,
      "Ġthickening": 4321,
      "Ġgrad": 4322,
      "Ġdissected": 4323,
      "irrhotic": 4324,
      "Ġcava": 4325,
      "Ġcaval": 4326,
      "Ġplasm": 4327,
      "-walled": 4328,
      "Ġlipoma": 4329,
      "Ġsamples": 4330,
      "Ġcircumferentially": 4331,
      "Ġfibroadenomatoid": 4332,
      "Ġrange": 4333,
      "-related": 4334,
      "Ġmonot": 4335,
      "Ġdensity": 4336,
      "Ġexpansion": 4337,
      "Ġaxilla": 4338,
      "Ġexcluded": 4339,
      "Ġjugular": 4340,
      "Ġapoptotic": 4341,
      "ĠMuscularis": 4342,
      "ĠPerinephric": 4343,
      "rosalpinx": 4344,
      "-epiglottic": 4345,
      "bl": 4346,
      "eiss": 4347,
      "nown": 4348,
      "rec": 4349,
      "Ġcard": 4350,
      "Ġmm": 4351,
      "Ġtow": 4352,
      "uminal": 4353,
      "Ġfair": 4354,
      "Ġgang": 4355,
      "ils": 4356,
      "apy": 4357,
      "Ġcomm": 4358,
      "Ġcomments": 4359,
      "Ġconc": 4360,
      "Ġcontiguous": 4361,
      "Ġpartim": 4362,
      "imot": 4363,
      "ĠSt": 4364,
      "obacter": 4365,
      "unk": 4366,
      "Ġapprec": 4367,
      "ested": 4368,
      "ĠEle": 4369,
      "Ġconsid": 4370,
      "Ġperiesophageal": 4371,
      "Adrenal": 4372,
      "trocytoma": 4373,
      "Ġfolds": 4374,
      "-sentinel": 4375,
      "Ġtriline": 4376,
      "ĠWeiss": 4377,
      "avesical": 4378,
      "Ġincidental": 4379,
      "Ġtransmural": 4380,
      "Ġpharynx": 4381,
      "Ġtrabeculae": 4382,
      "utery": 4383,
      "atellite": 4384,
      "Ġperinodalis": 4385,
      "ĠSeven": 4386,
      "Ġangioinvasion": 4387,
      "Ġdensely": 4388,
      "/tan": 4389,
      "Ġfungating": 4390,
      "Ġcholesterolosis": 4391,
      "Ġcollecting": 4392,
      "Ġproduction": 4393,
      "ashimot": 4394,
      "emporal": 4395,
      "Ġsialadenitis": 4396,
      "ollicular": 4397,
      "Ġhamart": 4398,
      "ashimoto": 4399,
      "90": 4400,
      "hn": 4401,
      "Ġumb": 4402,
      "Ġcapillary": 4403,
      "Ġox": 4404,
      "Ġfron": 4405,
      "icular": 4406,
      "ential": 4407,
      "Ġra": 4408,
      "Ġrup": 4409,
      "Ġlymphang": 4410,
      "Ġinvasions": 4411,
      "odes": 4412,
      "Ġorange": 4413,
      "opo": 4414,
      "apsule": 4415,
      "ormocellular": 4416,
      "Ġmucus": 4417,
      "Ġcytological": 4418,
      "tiva": 4419,
      "ĠOr": 4420,
      "Ġsurrounds": 4421,
      "ĠPeritoneal": 4422,
      "Ġdystrophic": 4423,
      "rich": 4424,
      "iportal": 4425,
      "elanoma": 4426,
      "Ġcribiform": 4427,
      "Ġmidline": 4428,
      "ĠProliferative": 4429,
      "Ġshaped": 4430,
      "Ġdiaphragmatic": 4431,
      "Ġthrombosis": 4432,
      "Ġbasophilic": 4433,
      "Ġimmunore": 4434,
      "Ġdiverticulum": 4435,
      "Ġcollag": 4436,
      "Ġincludes": 4437,
      "omedullary": 4438,
      "Ġoccupying": 4439,
      "orrhe": 4440,
      "Ġluteum": 4441,
      "ĠAdnexal": 4442,
      "ursor": 4443,
      "ĠPAS": 4444,
      "Ġatelectasis": 4445,
      "Ġreticulin": 4446,
      "Ġgenerally": 4447,
      "Ġfairly": 4448,
      "-n": 4449,
      "MA": 4450,
      "Prostate": 4451,
      "cy": 4452,
      "ipl": 4453,
      "iatic": 4454,
      "lack": 4455,
      "Ġy": 4456,
      "Ġro": 4457,
      "arenchymal": 4458,
      "alivary": 4459,
      "Ġins": 4460,
      "Ġsquam": 4461,
      "Ġpot": 4462,
      "Ġfim": 4463,
      "Ġtheir": 4464,
      "Ġdorsal": 4465,
      "ans": 4466,
      "trus": 4467,
      "Ġvortex": 4468,
      "ĠMarked": 4469,
      "cles": 4470,
      "ĠSatellite": 4471,
      "ĠSalivary": 4472,
      "Ġdetrus": 4473,
      "ably": 4474,
      "Ġdisorder": 4475,
      "ĠHy": 4476,
      "ĠHashimoto": 4477,
      "Ġulcerative": 4478,
      "-small": 4479,
      "Ġtract": 4480,
      "Ġindur": 4481,
      "Ġgliofibr": 4482,
      "Ġparaesophageal": 4483,
      "Ġseventeen": 4484,
      "ĠExtranodal": 4485,
      "Ġnecrotizing": 4486,
      "Ġretina": 4487,
      "Ġfibrin": 4488,
      "bry": 4489,
      "Ġcautery": 4490,
      "ĠLeiomyoma": 4491,
      "Ġhomogenous": 4492,
      "Chromophobe": 4493,
      "quet": 4494,
      "Ġincluded": 4495,
      "ofibroma": 4496,
      "Ġappendicitis": 4497,
      "Ġcystadenoma": 4498,
      "ĠAbs": 4499,
      "Ġcongested": 4500,
      "Ġremnants": 4501,
      "Ġpercentage": 4502,
      "ĠHepatic": 4503,
      "-necrotizing": 4504,
      "Ġhemangioma": 4505,
      "Ġgangl": 4506,
      "Ġconsidered": 4507,
      "Ġtrilineage": 4508,
      "Ġlymphangitis": 4509,
      "ĠOrgan": 4510,
      "Ġfimbr": 4511,
      "Ġdetrusor": 4512,
      "-one": 4513,
      "HG": 4514,
      "ĠX": 4515,
      "ars": 4516,
      "ene": 4517,
      "onecrosis": 4518,
      "Ġloss": 4519,
      "Ġfus": 4520,
      "Ġfissure": 4521,
      "uli": 4522,
      "Ġarises": 4523,
      "ecal": 4524,
      "Ġlymphocyte": 4525,
      "Ġchor": 4526,
      "Ġdifficul": 4527,
      "Ġnecros": 4528,
      "ĠMany": 4529,
      "Ġpleur": 4530,
      "Ġuncharacteristic": 4531,
      "ainted": 4532,
      "ĠFrag": 4533,
      "ĠFatty": 4534,
      "Ġinfarc": 4535,
      "Ġheav": 4536,
      "Ġfold": 4537,
      "Ġtrunk": 4538,
      "Ġmicrocalcification": 4539,
      "Ġmaxillary": 4540,
      "emistocytes": 4541,
      "ĠUrethral": 4542,
      "Ġassessable": 4543,
      "Ġimmature": 4544,
      "Ġdiscol": 4545,
      "Ġlymphonodulitis": 4546,
      "Ġcancerization": 4547,
      "append": 4548,
      "Ġintraparenchymal": 4549,
      "ĠSeveral": 4550,
      "ĠPleura": 4551,
      "Ġbranch": 4552,
      "Ġreported": 4553,
      "Ġconstitutes": 4554,
      "Ġgrey": 4555,
      "Ġdistribution": 4556,
      "ĠPeritumoral": 4557,
      "Ġpylori": 4558,
      "Ġexpand": 4559,
      "Ġstapled": 4560,
      "Ġneurons": 4561,
      "ĠEleven": 4562,
      "bryonal": 4563,
      "ball": 4564,
      "low": 4565,
      "inc": 4566,
      "Ġcub": 4567,
      "Ġterat": 4568,
      "Ġtemporal": 4569,
      "atinous": 4570,
      "elatinous": 4571,
      "lec": 4572,
      "Ġbony": 4573,
      "Ġgelatinous": 4574,
      "Ġventric": 4575,
      "Ġperid": 4576,
      "Ġnucleus": 4577,
      "class": 4578,
      "ecting": 4579,
      "Ġkeratosis": 4580,
      "Ġmyoglandular": 4581,
      "Ġclump": 4582,
      "ĠEst": 4583,
      "Ġbeh": 4584,
      "Ġsometim": 4585,
      "Ġadenomatoid": 4586,
      "seous": 4587,
      "Ġdesign": 4588,
      "Ġtrac": 4589,
      "Ġdefect": 4590,
      "achment": 4591,
      "ransitional": 4592,
      "Ġfibrinous": 4593,
      "Ġpigmentation": 4594,
      "brum": 4595,
      "ĠAtrophic": 4596,
      "Ġneurovascular": 4597,
      "ĠAdenomatoid": 4598,
      "Ġcluster": 4599,
      "Ġcerebrum": 4600,
      "ĠInfiltration": 4601,
      "Ġpericardial": 4602,
      "Ġhematopo": 4603,
      "-lymphocytes": 4604,
      "ĠComple": 4605,
      "Ġvacuolated": 4606,
      "Ġintraluminal": 4607,
      "Ġhyperemic": 4608,
      "Ġportoper": 4609,
      "Ġperiadrenal": 4610,
      "Ġtip": 4611,
      "-positive": 4612,
      "Ġpotential": 4613,
      "Ġindurated": 4614,
      "Ġcuboidal": 4615,
      "Ġsometimes": 4616,
      "Ġportoperiportal": 4617,
      "16": 4618,
      "vaginal": 4619,
      "yph": 4620,
      "Ġlac": 4621,
      "asily": 4622,
      "arcinosarcoma": 4623,
      "Ġeasily": 4624,
      "osum": 4625,
      "truc": 4626,
      "Ġgonadal": 4627,
      "ucosal": 4628,
      "adenocarcinoma": 4629,
      "ett": 4630,
      "ypogastric": 4631,
      "amber": 4632,
      "Ġchamber": 4633,
      "ĠMes": 4634,
      "illogenesis": 4635,
      "iaphragm": 4636,
      "Ġprotr": 4637,
      "rometastatic": 4638,
      "ĠPaget": 4639,
      "ĠBile": 4640,
      "Ġsubp": 4641,
      "osalpinx": 4642,
      "Ġreactiva": 4643,
      "ĠVII": 4644,
      "Ġperiappend": 4645,
      "Ġcystadenocarcinoma": 4646,
      "-four": 4647,
      "iesis": 4648,
      "Ġseptal": 4649,
      "Ġencaps": 4650,
      "Ġhemorrhages": 4651,
      "uodenal": 4652,
      "Ġlocally": 4653,
      "Ġsample": 4654,
      "Ġvaginalis": 4655,
      "Ġhistopathological": 4656,
      "-invasion": 4657,
      "Oligoastrocytoma": 4658,
      "Ġpushes": 4659,
      "Ġbundle": 4660,
      "ĠClark": 4661,
      "Ġdisrupted": 4662,
      "Ġmicrometastasis": 4663,
      "Ġvalve": 4664,
      "ĠIncidental": 4665,
      "Ġhydrosalpinx": 4666,
      "Ġtransformation": 4667,
      "/hypogastric": 4668,
      "veloped": 4669,
      "Ġhamartoma": 4670,
      "iplo": 4671,
      "Ġnecroses": 4672,
      "Ġteratoma": 4673,
      "classified": 4674,
      "Ġtrache": 4675,
      "yphilic": 4676,
      "-S": 4677,
      "-med": 4678,
      "As": 4679,
      "NE": 4680,
      "etic": 4681,
      "king": 4682,
      "mm": 4683,
      "oepithelial": 4684,
      "proliferative": 4685,
      "vanc": 4686,
      "Ġnormocellular": 4687,
      "Ġpo": 4688,
      "edge": 4689,
      "elph": 4690,
      "ole": 4691,
      "Ġbands": 4692,
      "Ġlymphangi": 4693,
      "ĠNHG": 4694,
      "Ġexud": 4695,
      "teryg": 4696,
      "ĠMullerian": 4697,
      "Ġantrum": 4698,
      "ĠSarcomatoid": 4699,
      "Ġprof": 4700,
      "obronchial": 4701,
      "Ġovoid": 4702,
      "Ġextrap": 4703,
      "Ġextracellular": 4704,
      "ĠRet": 4705,
      "emarcated": 4706,
      "opharynx": 4707,
      "ĠUrothelium": 4708,
      "-demarcated": 4709,
      "Ġembryonal": 4710,
      "ĠAnterior": 4711,
      "Ġincons": 4712,
      "Ġinferable": 4713,
      "ips": 4714,
      "Ġspreading": 4715,
      "mediately": 4716,
      "Ġpalisading": 4717,
      "oint": 4718,
      "ĠEndocervical": 4719,
      "Ġcounts": 4720,
      "ĠOvary": 4721,
      "ĠScore": 4722,
      "Ġimmunost": 4723,
      "Ġvisually": 4724,
      "elicobacter": 4725,
      "Ġeighteen": 4726,
      "ĠPrimary": 4727,
      "Ġcolloid": 4728,
      "Ġcompressed": 4729,
      "Ġtext": 4730,
      "althard": 4731,
      "Ġdetermined": 4732,
      "Ġseminoma": 4733,
      "Ġcricoid": 4734,
      "Ġplasma": 4735,
      "Ġcommissure": 4736,
      "Ġoxyphilic": 4737,
      "ballen": 4738,
      "Ġclumped": 4739,
      "terygoid": 4740,
      "-ovarian": 4741,
      "/NE": 4742,
      "Pancreatic": 4743,
      "Tumor": 4744,
      "ciatic": 4745,
      "ef": 4746,
      "eived": 4747,
      "gression": 4748,
      "oti": 4749,
      "path": 4750,
      "onut": 4751,
      "Ġpainted": 4752,
      "Ġwedge": 4753,
      "arcinomatous": 4754,
      "Ġbene": 4755,
      "Ġdonut": 4756,
      "anti": 4757,
      "Ġeach": 4758,
      "ellballen": 4759,
      "Ġrandom": 4760,
      "Ġgiv": 4761,
      "action": 4762,
      "teral": 4763,
      "terial": 4764,
      "reted": 4765,
      "Ġneuronal": 4766,
      "aple": 4767,
      "ĠMature": 4768,
      "ĠMulticentric": 4769,
      "Ġparticular": 4770,
      "ogn": 4771,
      "ĠAB": 4772,
      "Ġglot": 4773,
      "ĠSe": 4774,
      "ĠSingle": 4775,
      "Ġhighlight": 4776,
      "anges": 4777,
      "ĠPelvic": 4778,
      "Ġdebr": 4779,
      "Ġfeaturing": 4780,
      "ather": 4781,
      "ĠGastric": 4782,
      "Ġstaple": 4783,
      "ĠRad": 4784,
      "Ġperihilar": 4785,
      "ĠIntestinal": 4786,
      "Ġureteric": 4787,
      "Ġdeeper": 4788,
      "ĠWalthard": 4789,
      "Ġnodularity": 4790,
      "-two": 4791,
      "tured": 4792,
      "Ġreceived": 4793,
      "lands": 4794,
      "-power": 4795,
      "Ġesophagogastric": 4796,
      "Ġassessment": 4797,
      "Ġcomedonecrosis": 4798,
      "Ġeffaces": 4799,
      "Ġrelated": 4800,
      "Ġlymphonodorum": 4801,
      "Ġopen": 4802,
      "Ġectocervix": 4803,
      "ĠLeiomyomas": 4804,
      "Ġthird": 4805,
      "Ġmicrovasculature": 4806,
      "Ġangio": 4807,
      "Ġleptomeninges": 4808,
      "Ġloops": 4809,
      "yceal": 4810,
      "Ġbulging": 4811,
      "Ġappendiceal": 4812,
      "ĠColonic": 4813,
      "Ġdisruption": 4814,
      "Ġprobable": 4815,
      "ĠParametrial": 4816,
      "ĠPeripheral": 4817,
      "Ġchannels": 4818,
      "Ġsheaths": 4819,
      "-Richardson": 4820,
      "Ġinterpreted": 4821,
      "ĠPrevious": 4822,
      "/brown": 4823,
      "Ġgrades": 4824,
      "blastic": 4825,
      "Ġruptured": 4826,
      "Ġdisordered": 4827,
      "Ġpleuritis": 4828,
      "Ġencapsulation": 4829,
      "-medullary": 4830,
      "elphian": 4831,
      "Ġinconspicuous": 4832,
      "/NEU": 4833,
      "otid": 4834,
      "Ġbeneath": 4835,
      "Ġdebris": 4836,
      "%,": 4837,
      "17": 4838,
      "Carcinosarcoma": 4839,
      "Ep": 4840,
      "Moderate": 4841,
      "ded": 4842,
      "iment": 4843,
      "keratosis": 4844,
      "oved": 4845,
      "piratory": 4846,
      "zen": 4847,
      "Ġent": 4848,
      "arenal": 4849,
      "Ġcross": 4850,
      "Ġscleral": 4851,
      "Ġpterygoid": 4852,
      "edominant": 4853,
      "Ġfro": 4854,
      "olateral": 4855,
      "ĠTub": 4856,
      "Ġrather": 4857,
      "Ġlymphoplasm": 4858,
      "itty": 4859,
      "acytic": 4860,
      "Ġhard": 4861,
      "Ġadrenocortical": 4862,
      "Ġneut": 4863,
      "Ġneural": 4864,
      "ypes": 4865,
      "amural": 4866,
      "Ġchain": 4867,
      "Ġparaganglioma": 4868,
      "ĠLower": 4869,
      "Ġrest": 4870,
      "Ġrests": 4871,
      "Ġref": 4872,
      "Ġhigher": 4873,
      "Ġproc": 4874,
      "ormed": 4875,
      "Ġmucocellular": 4876,
      "Ġacross": 4877,
      "Ġcytology": 4878,
      "estasis": 4879,
      "Ġintran": 4880,
      "Ġnonproliferative": 4881,
      "ĠHepatocellular": 4882,
      "ĠHelicobacter": 4883,
      "Ġbordering": 4884,
      "Ġdestruc": 4885,
      "ĠInflammatory": 4886,
      "ĠUlc": 4887,
      "ilicotic": 4888,
      "loating": 4889,
      "Ġflap": 4890,
      "ĠChanges": 4891,
      "Ġcorticomedullary": 4892,
      "Ġgritty": 4893,
      "Ġrecogn": 4894,
      "Ġorganising": 4895,
      "Ġorganisms": 4896,
      "Ġtrabeculated": 4897,
      "Ġhyalin": 4898,
      "Ġexcisions": 4899,
      "emistocytic": 4900,
      "Ġoccasionally": 4901,
      "Ġrepresents": 4902,
      "Ġpapillomas": 4903,
      "Ġthrombi": 4904,
      "Ġmucinosum": 4905,
      "-based": 4906,
      "Ġparacard": 4907,
      "Ġembol": 4908,
      "Ġglobules": 4909,
      "Ġedematous": 4910,
      "Ġgingiva": 4911,
      "Ġconstituting": 4912,
      "ĠPositive": 4913,
      "Ġperiurethral": 4914,
      "-forming": 4915,
      "Ġinvolutional": 4916,
      "Ġcardia": 4917,
      "Ġsquamoid": 4918,
      "Ġganglion": 4919,
      "Ġhematopoiesis": 4920,
      "iploic": 4921,
      "Ġfrozen": 4922,
      "Ġneutroph": 4923,
      "hesion": 4924,
      "oon": 4925,
      "pected": 4926,
      "tle": 4927,
      "intestinal": 4928,
      "ards": 4929,
      "Ġaort": 4930,
      "omb": 4931,
      "edoch": 4932,
      "istr": 4933,
      "Ġtiny": 4934,
      "Ġwind": 4935,
      "Ġlatter": 4936,
      "arcomatous": 4937,
      "Ġrich": 4938,
      "ocecal": 4939,
      "ites": 4940,
      "itant": 4941,
      "ency": 4942,
      "ysis": 4943,
      "ysts": 4944,
      "opic": 4945,
      "ĠLymphonod": 4946,
      "obstructive": 4947,
      "onephritis": 4948,
      "ĠFree": 4949,
      "ĠClo": 4950,
      "ĠBC": 4951,
      "ĠBlack": 4952,
      "emorrh": 4953,
      "ĠOcc": 4954,
      "Ġbeen": 4955,
      "ĠPeric": 4956,
      "-capsular": 4957,
      "Ġobstruc": 4958,
      "Ġpropriae": 4959,
      "Ġvisceralis": 4960,
      "Ġsinusoidal": 4961,
      "Ġcentrilobular": 4962,
      "Ġcholestasis": 4963,
      "Ġmultifocally": 4964,
      "Ġdemonstrated": 4965,
      "ĠRespiratory": 4966,
      "Ġgranulomata": 4967,
      "Ġelast": 4968,
      "Ġnearest": 4969,
      "Ġpossibility": 4970,
      "ĠUreters": 4971,
      "Ġarrangement": 4972,
      "Ġsuspected": 4973,
      "pora": 4974,
      "Ġpyel": 4975,
      "Ġclosed": 4976,
      "hesive": 4977,
      "Ġcecal": 4978,
      "Ġtonsillar": 4979,
      "ĠSevere": 4980,
      "Ġresemble": 4981,
      "Ġelevated": 4982,
      "Ġhematoma": 4983,
      "Ġprobably": 4984,
      "Ġintratumoral": 4985,
      "ĠThirteen": 4986,
      "ĠPeriprostatic": 4987,
      "-five": 4988,
      "Primary": 4989,
      "ĠStroma": 4990,
      "Ġaryepiglottic": 4991,
      "Ġdistorted": 4992,
      "ĠHyperplastic": 4993,
      "Ġdemarcated": 4994,
      "Ġtowards": 4995,
      "Ġappreciated": 4996,
      "ĠHyal": 4997,
      "ĠAbsence": 4998,
      "Ġdiscoloration": 4999,
      "vanced": 5000,
      "ĠSegment": 5001,
      "Ġwindow": 5002,
      "ĠOccasional": 5003,
      "Ġobstruction": 5004,
      "(s": 5005,
      "/vaginal": 5006,
      "34": 5007,
      "60": 5008,
      "CC": 5009,
      "bers": 5010,
      "iec": 5011,
      "ounc": 5012,
      "rink": 5013,
      "renic": 5014,
      "to": 5015,
      "vening": 5016,
      "Ġes": 5017,
      "Ġair": 5018,
      "Ġage": 5019,
      "Ġink": 5020,
      "asal": 5021,
      "err": 5022,
      "erapy": 5023,
      "Ġnineteen": 5024,
      "Ġpsamm": 5025,
      "Ġpiec": 5026,
      "Ġmam": 5027,
      "Ġmening": 5028,
      "ndifferentiated": 5029,
      "Ġtherapy": 5030,
      "Ġlaryngeal": 5031,
      "Ġislands": 5032,
      "osing": 5033,
      "osquamous": 5034,
      "uck": 5035,
      "ital": 5036,
      "ittle": 5037,
      "Ġviment": 5038,
      "ĠMed": 5039,
      "position": 5040,
      "ĠSerous": 5041,
      "Ġunclassified": 5042,
      "Ġends": 5043,
      "ĠPortal": 5044,
      "onephrosclerosis": 5045,
      "ĠFifteen": 5046,
      "ĠCyt": 5047,
      "roctic": 5048,
      "Ġlobar": 5049,
      "arium": 5050,
      "Ġintrac": 5051,
      "Ġreaches": 5052,
      "ĠHowever": 5053,
      "olip": 5054,
      "ĠDiverticul": 5055,
      "ĠDelphian": 5056,
      "eliosis": 5057,
      "-con": 5058,
      "Ġintervening": 5059,
      "ifferentiation": 5060,
      "ĠExcision": 5061,
      "Ġmesang": 5062,
      "Ġmesov": 5063,
      "Ġmesosalpinx": 5064,
      "avior": 5065,
      "Ġimmediately": 5066,
      "ĠAnthrac": 5067,
      "Ġremoved": 5068,
      "Ġiris": 5069,
      "Ġnumbers": 5070,
      "Ġpresciatic": 5071,
      "Ġcarcinoid": 5072,
      "Ġphase": 5073,
      "Ġrecent": 5074,
      "Ġretention": 5075,
      "Ġincrease": 5076,
      "Ġnearly": 5077,
      "Ġfourteen": 5078,
      "Ġquite": 5079,
      "ogenic": 5080,
      "Ġdetachment": 5081,
      "Ġeffacement": 5082,
      "Ġeffaced": 5083,
      "Ġgroove": 5084,
      "Ġlipomatosis": 5085,
      "Ġangulated": 5086,
      "Ġbronchiectasis": 5087,
      "Ġintramammary": 5088,
      "Ġblue": 5089,
      "-thyroid": 5090,
      "Ġfoveolar": 5091,
      "Ġosseous": 5092,
      "Ġarteriolonephrosclerosis": 5093,
      "Ġmicrometastases": 5094,
      "ĠMinimal": 5095,
      "uperior": 5096,
      "Ġchoroid": 5097,
      "Ġdifficult": 5098,
      "Ġbehavior": 5099,
      "Ġdesignated": 5100,
      "Ġperiappendiceal": 5101,
      "-Steiner": 5102,
      "Ġlymphoplasmacytic": 5103,
      "ĠLymphonodulitis": 5104,
      "ĠCloquet": 5105,
      "ounced": 5106,
      "Ġvimentin": 5107,
      "Ġmesovarium": 5108,
      "&E": 5109,
      ").": 5110,
      "-lad": 5111,
      "-rich": 5112,
      "21": 5113,
      "Melanoma": 5114,
      "Par": 5115,
      "Ple": 5116,
      "Tubular": 5117,
      "Transitional": 5118,
      "known": 5119,
      "xt": 5120,
      "ini": 5121,
      "onounced": 5122,
      "erminal": 5123,
      "Ġpuck": 5124,
      "omitant": 5125,
      "ithel": 5126,
      "ele": 5127,
      "olid": 5128,
      "ĠTwelve": 5129,
      "osed": 5130,
      "ostal": 5131,
      "ock": 5132,
      "ocol": 5133,
      "ecursor": 5134,
      "ĠNec": 5135,
      "Ġpronounced": 5136,
      "Ġnev": 5137,
      "Ġnucleolus": 5138,
      "illae": 5139,
      "ancerous": 5140,
      "ĠSim": 5141,
      "Ġunknown": 5142,
      "ĠPor": 5143,
      "ĠCalcifications": 5144,
      "Ġkerat": 5145,
      "ĠGE": 5146,
      "Ġstones": 5147,
      "Ġmuscles": 5148,
      "Ġsubg": 5149,
      "Ġmultil": 5150,
      "Ġinflamed": 5151,
      "ĠER": 5152,
      "ĠEn": 5153,
      "Ġcores": 5154,
      "ĠInactive": 5155,
      "clerotic": 5156,
      "Ġintravascular": 5157,
      "Ġfollicle": 5158,
      "Ġoligodend": 5159,
      "ithelioid": 5160,
      "ĠAnaplastic": 5161,
      "Ġspindling": 5162,
      "Ġremod": 5163,
      "Ġindicates": 5164,
      "Ġelastic": 5165,
      "Ġretinal": 5166,
      "-psammoma": 5167,
      "Ġmatted": 5168,
      "Ġarteries": 5169,
      "Ġtunnel": 5170,
      "Ġfield": 5171,
      "Ġrings": 5172,
      "ĠIntrat": 5173,
      "Ġmodest": 5174,
      "timal": 5175,
      "Ġribs": 5176,
      "ĠAtypia": 5177,
      "-lined": 5178,
      "Ġfragmented": 5179,
      "ĠPrecursor": 5180,
      "Ġalbic": 5181,
      "Ġloose": 5182,
      "/tubular": 5183,
      "Ġarterioles": 5184,
      "Ġperiureteral": 5185,
      "ĠThirty": 5186,
      "Ġanastomosis": 5187,
      "Ġrhabdoid": 5188,
      "arsely": 5189,
      "ĠFragments": 5190,
      "edominantly": 5191,
      "ĠUlceration": 5192,
      "Ġparacardic": 5193,
      "Ġpyelonephritis": 5194,
      "-laden": 5195,
      "Ġoligodendroc": 5196,
      "Mild": 5197,
      "Undifferentiated": 5198,
      "borrhe": 5199,
      "her": 5200,
      "ri": 5201,
      "ines": 5202,
      "Ġaut": 5203,
      "orac": 5204,
      "onuclear": 5205,
      "Ġso": 5206,
      "Ġpati": 5207,
      "Ġmade": 5208,
      "Ġmut": 5209,
      "atation": 5210,
      "rotic": 5211,
      "Ġback": 5212,
      "Ġdec": 5213,
      "anth": 5214,
      "ocaval": 5215,
      "ĠNine": 5216,
      "Ġpretr": 5217,
      "ilical": 5218,
      "Ġshort": 5219,
      "Ġorific": 5220,
      "uture": 5221,
      "neu": 5222,
      "Ġcond": 5223,
      "Ġparotid": 5224,
      "ĠAp": 5225,
      "ĠLymphoid": 5226,
      "andid": 5227,
      "Ġprogression": 5228,
      "Ġendobronchial": 5229,
      "hymic": 5230,
      "ĠFollicular": 5231,
      "ĠCirrhosis": 5232,
      "ĠCancer": 5233,
      "ĠCarcinomatous": 5234,
      "Ġacini": 5235,
      "Ġdispersed": 5236,
      "Ġhistory": 5237,
      "Ġpelvical": 5238,
      "Ġmassive": 5239,
      "Ġcolic": 5240,
      "ĠOn": 5241,
      "Ġcorpora": 5242,
      "ĠPeriv": 5243,
      "alciform": 5244,
      "ĠDermal": 5245,
      "Ġintercellular": 5246,
      "Ġfollow": 5247,
      "-six": 5248,
      "-sized": 5249,
      "Ġtri": 5250,
      "itoneum": 5251,
      "Ġgliosis": 5252,
      "Ġmicrocysts": 5253,
      "Ġtransposition": 5254,
      "Ġperiproctic": 5255,
      "Ġhyoid": 5256,
      "Ġfibroma": 5257,
      "ĠNeural": 5258,
      "ĠNeither": 5259,
      "ĠOtherwise": 5260,
      "Ġsuggests": 5261,
      "Ġextraocular": 5262,
      "Ġsixteen": 5263,
      "Ġileocecal": 5264,
      "Ġsuprag": 5265,
      "Ġfibrosing": 5266,
      "Ġdilatation": 5267,
      "loric": 5268,
      "ĠEmphysema": 5269,
      "ĠBruch": 5270,
      "ĠParametrium": 5271,
      "Ġintratubular": 5272,
      "Ġpredominance": 5273,
      "Ġalteration": 5274,
      "Ġcompromised": 5275,
      "Ġcollagen": 5276,
      "Ġfusiform": 5277,
      "ĠComplex": 5278,
      "Ġsubpial": 5279,
      "Astrocytoma": 5280,
      "Ġprofound": 5281,
      "Ġpsammomatous": 5282,
      "Ġremodeling": 5283,
      "borrheic": 5284,
      "Ġpatient": 5285,
      "Ġpretracheal": 5286,
      "-e": 5287,
      "-fil": 5288,
      "-der": 5289,
      "-encapsulated": 5290,
      "/m": 5291,
      "14": 5292,
      "18": 5293,
      "Ac": 5294,
      "DH": 5295,
      "NOS": 5296,
      "bon": 5297,
      "gi": 5298,
      "ky": 5299,
      "oun": 5300,
      "pany": 5301,
      "inin": 5302,
      "onous": 5303,
      "Ġpaget": 5304,
      "edle": 5305,
      "elf": 5306,
      "phophilic": 5307,
      "ympath": 5308,
      "oles": 5309,
      "Ġdome": 5310,
      "Ġdura": 5311,
      "antia": 5312,
      "oste": 5313,
      "osclerotic": 5314,
      "Ġlympho": 5315,
      "itect": 5316,
      "adher": 5317,
      "ticle": 5318,
      "Ġshar": 5319,
      "Ġvelve": 5320,
      "tense": 5321,
      "ences": 5322,
      "uted": 5323,
      "Ġproxim": 5324,
      "Ġfibers": 5325,
      "chitect": 5326,
      "Ġstrati": 5327,
      "ĠCentral": 5328,
      "Ġwhole": 5329,
      "izable": 5330,
      "ĠHeal": 5331,
      "Ġborderline": 5332,
      "ĠDys": 5333,
      "ĠInd": 5334,
      "Ġsinuses": 5335,
      "udes": 5336,
      "Ġmetaplastic": 5337,
      "ermiform": 5338,
      "Ġparakeratosis": 5339,
      "Ġmicrocyst": 5340,
      "Ġpseudoc": 5341,
      "Ġcortico": 5342,
      "Ġmelanin": 5343,
      "Ġunder": 5344,
      "Ġamphophilic": 5345,
      "Ġmacrometastas": 5346,
      "Ġlocalized": 5347,
      "Ġglomerular": 5348,
      "Ġcarbon": 5349,
      "ĠOvarian": 5350,
      "Ġmembranous": 5351,
      "Ġpericolicae": 5352,
      "Ġlipomatous": 5353,
      "Ġitself": 5354,
      "Ġperitumorous": 5355,
      "Ġtunicae": 5356,
      "Ġsimplex": 5357,
      "ĠIntra": 5358,
      "apped": 5359,
      "Ġsupra": 5360,
      "Ġconfirming": 5361,
      "ĠMucosa": 5362,
      "ĠSpecified": 5363,
      "tiferous": 5364,
      "Ġdiverticulosis": 5365,
      "omedo": 5366,
      "Ġoss": 5367,
      "ĠArteri": 5368,
      "ĠArchitect": 5369,
      "Ġaccompany": 5370,
      "Ġbridges": 5371,
      "Ġgreen": 5372,
      "-existing": 5373,
      "Ġconcomitant": 5374,
      "Ġlactiferous": 5375,
      "Ġimmunostain": 5376,
      "Ġparticularly": 5377,
      "edochal": 5378,
      "rinkled": 5379,
      "Ġmesangial": 5380,
      "Ġalbicantia": 5381,
      "Mildly": 5382,
      "Ġautol": 5383,
      "ĠPerivesical": 5384,
      "-filled": 5385,
      "-derived": 5386,
      "adherin": 5387,
      "Ġvelvety": 5388,
      "Ġproximity": 5389,
      "Ġaccompanying": 5390,
      "-v": 5391,
      "-alveolar": 5392,
      "/in": 5393,
      "/neu": 5394,
      "Bronch": 5395,
      "Ex": 5396,
      "Non": 5397,
      "ej": 5398,
      "itial": 5399,
      "rated": 5400,
      "yx": 5401,
      "inity": 5402,
      "arding": 5403,
      "Ġather": 5404,
      "Ġaff": 5405,
      "Ġsulc": 5406,
      "Ġpun": 5407,
      "eding": 5408,
      "Ġlittle": 5409,
      "Ġthem": 5410,
      "eled": 5411,
      "icinity": 5412,
      "Ġdi": 5413,
      "ellate": 5414,
      "Ġlymphomatous": 5415,
      "Ġidentical": 5416,
      "activity": 5417,
      "Ġhone": 5418,
      "Ġadvanced": 5419,
      "Ġneovascular": 5420,
      "Ġvir": 5421,
      "Ġvaries": 5422,
      "Ġvicinity": 5423,
      "Ġconn": 5424,
      "erates": 5425,
      "Ġseborrheic": 5426,
      "iae": 5427,
      "ĠLymphocytic": 5428,
      "ĠSteiner": 5429,
      "Ġunencapsulated": 5430,
      "agic": 5431,
      "Ġabove": 5432,
      "ĠPatchy": 5433,
      "essile": 5434,
      "ĠFinal": 5435,
      "ĠFrequent": 5436,
      "ĠNonneoplastic": 5437,
      "ĠCo": 5438,
      "ĠCalcification": 5439,
      "ĠCystic": 5440,
      "Ġlobectomy": 5441,
      "Ġmitotically": 5442,
      "ĠGli": 5443,
      "ĠGreater": 5444,
      "Ġstellate": 5445,
      "Ġmultilob": 5446,
      "Ġclot": 5447,
      "Ġepithel": 5448,
      "Ġconsisten": 5449,
      "Ġconspicuous": 5450,
      "ĠVI": 5451,
      "Ġperioste": 5452,
      "esicle": 5453,
      "-cadherin": 5454,
      "Ġintermixed": 5455,
      "ĠUnd": 5456,
      "inized": 5457,
      "Ġglandularis": 5458,
      "struct": 5459,
      "Ġeosinoph": 5460,
      "ĠChromophobe": 5461,
      "ovial": 5462,
      "Ġdissem": 5463,
      "Ġtotaling": 5464,
      "ĠExtension": 5465,
      "ĠHistological": 5466,
      "Ġscars": 5467,
      "Ġsame": 5468,
      "Ġdesmin": 5469,
      "portion": 5470,
      "Ġcaus": 5471,
      "Ġarteriosclerosis": 5472,
      "-inflammatory": 5473,
      "Ġminority": 5474,
      "Ġsubtypes": 5475,
      "lingual": 5476,
      "ĠMicrov": 5477,
      "ycomb": 5478,
      "Ġbulges": 5479,
      "ĠColon": 5480,
      "ĠHPFs": 5481,
      "Ġhyperemia": 5482,
      "-formed": 5483,
      "Predominantly": 5484,
      "uperficial": 5485,
      "-excision": 5486,
      "Ġmonotonous": 5487,
      "Ġimmunoreactivity": 5488,
      "Ġtracts": 5489,
      "Ġfimbriated": 5490,
      "Ġheavily": 5491,
      "Ġlymphangiosis": 5492,
      "Ġgiven": 5493,
      "Ġproced": 5494,
      "Ġrecognizable": 5495,
      "Ġneutrophils": 5496,
      "istry": 5497,
      "Ġnevus": 5498,
      "ĠSimple": 5499,
      "ĠIntratubular": 5500,
      "Ġpagetoid": 5501,
      "ĠArchitectural": 5502,
      "ejun": 5503,
      "Ġhoneycomb": 5504,
      "Ġconsistency": 5505,
      "-B": 5506,
      "70": 5507,
      "Col": 5508,
      "Gastric": 5509,
      "aort": 5510,
      "eth": 5511,
      "fer": 5512,
      "jur": 5513,
      "rix": 5514,
      "tually": 5515,
      "uated": 5516,
      "uine": 5517,
      "void": 5518,
      "Ã¼": 5519,
      "Ġrough": 5520,
      "ores": 5521,
      "Ġche": 5522,
      "Ġcyl": 5523,
      "Ġcirrhotic": 5524,
      "Ġcancerous": 5525,
      "Ġintense": 5526,
      "Ġinitial": 5527,
      "Ġinjur": 5528,
      "eri": 5529,
      "erence": 5530,
      "Ġsph": 5531,
      "Ġsessile": 5532,
      "Ġped": 5533,
      "Ġpad": 5534,
      "omple": 5535,
      "Ġmental": 5536,
      "Ġwrinkled": 5537,
      "eline": 5538,
      "iculated": 5539,
      "icles": 5540,
      "icient": 5541,
      "olangiocarcinoma": 5542,
      "oledochal": 5543,
      "entially": 5544,
      "Ġequ": 5545,
      "acial": 5546,
      "reast": 5547,
      "Ġnephrosclerosis": 5548,
      "tened": 5549,
      "posed": 5550,
      "alloon": 5551,
      "Ġparaglottic": 5552,
      "Ġspiculated": 5553,
      "Ġanal": 5554,
      "Ġremarkable": 5555,
      "ĠSec": 5556,
      "anguine": 5557,
      "Intr": 5558,
      "Ġalve": 5559,
      "agg": 5560,
      "aging": 5561,
      "Ġdevoid": 5562,
      "eating": 5563,
      "urethral": 5564,
      "ĠCent": 5565,
      "Ġextrem": 5566,
      "Ġgrows": 5567,
      "Ġductalis": 5568,
      "ĠGl": 5569,
      "Ġsublingual": 5570,
      "Ġintrathyroidal": 5571,
      "Ġnonneoplastic": 5572,
      "ĠOlig": 5573,
      "Ġcorr": 5574,
      "ĠHB": 5575,
      "Ġadenoid": 5576,
      "Ġadenosquamous": 5577,
      "perm": 5578,
      "Ġdistinc": 5579,
      "Ġcontact": 5580,
      "Ġinterc": 5581,
      "ĠIDH": 5582,
      "-st": 5583,
      "ĠWell": 5584,
      "ĠAnother": 5585,
      "Ġexcres": 5586,
      "Ġgrading": 5587,
      "ĠPartial": 5588,
      "Ġorganized": 5589,
      "Ġzellballen": 5590,
      "Ġfascicles": 5591,
      "Ġdiagnosed": 5592,
      "Ġmatrix": 5593,
      "Ġcurett": 5594,
      "Ġseptae": 5595,
      "Ġlike": 5596,
      "Ġascites": 5597,
      "ĠBrain": 5598,
      "Ġregen": 5599,
      "Ġregarding": 5600,
      "ĠArterial": 5601,
      "Ġplane": 5602,
      "Ġplanoepithelial": 5603,
      "ĠStromal": 5604,
      "ĠEpid": 5605,
      "Ġumbilical": 5606,
      "Ġfrontal": 5607,
      "Ġraised": 5608,
      "Ġexpanding": 5609,
      "ĠEstrogen": 5610,
      "Ġtrachea": 5611,
      "Ġexudate": 5612,
      "ĠRadial": 5613,
      "Epithelioid": 5614,
      "Ġentr": 5615,
      "ĠBCL": 5616,
      "erruc": 5617,
      "Paraganglioma": 5618,
      "Pleomorphic": 5619,
      "oracic": 5620,
      "Ġpelvicalyceal": 5621,
      "Acinar": 5622,
      "ĠHealth": 5623,
      "Ġsulcus": 5624,
      "ĠUnderlying": 5625,
      "ferior": 5626,
      "Ġinjury": 5627,
      "anguineous": 5628,
      "Ġexcresc": 5629,
      "Ġcurettage": 5630,
      "-h": 5631,
      "-renal": 5632,
      "-se": 5633,
      "-III": 5634,
      "-obstructive": 5635,
      "/so": 5636,
      "23": 5637,
      "DCIS": 5638,
      "Lymph": 5639,
      "Multicentric": 5640,
      "Nons": 5641,
      "aved": 5642,
      "fter": 5643,
      "ram": 5644,
      "tumorous": 5645,
      "uding": 5646,
      "Ġips": 5647,
      "tium": 5648,
      "tire": 5649,
      "orp": 5650,
      "orld": 5651,
      "Ġcle": 5652,
      "Ġcandid": 5653,
      "ale": 5654,
      "ascleral": 5655,
      "erosal": 5656,
      "Ġsilicotic": 5657,
      "Ġsuture": 5658,
      "Ġpat": 5659,
      "Ġpan": 5660,
      "edifferentiation": 5661,
      "Ġman": 5662,
      "Ġmetast": 5663,
      "Ġthus": 5664,
      "ata": 5665,
      "Ġfalciform": 5666,
      "Ġthey": 5667,
      "elation": 5668,
      "roduc": 5669,
      "pharyngeal": 5670,
      "lex": 5671,
      "Ġbed": 5672,
      "Ġbel": 5673,
      "Ġbiliary": 5674,
      "Ġballoon": 5675,
      "Ġdust": 5676,
      "Ġdedifferentiation": 5677,
      "Ġgerminal": 5678,
      "acular": 5679,
      "Ġmarginal": 5680,
      "Ġneedle": 5681,
      "asts": 5682,
      "Ġvill": 5683,
      "tenoid": 5684,
      "Ġuteri": 5685,
      "ĠMul": 5686,
      "ĠAP": 5687,
      "ĠAl": 5688,
      "ĠLymphocyte": 5689,
      "Ġanis": 5690,
      "ĠSperm": 5691,
      "Ġproportion": 5692,
      "Ġcomposite": 5693,
      "ĠPR": 5694,
      "Ġdeveloped": 5695,
      "abronchial": 5696,
      "epitheli": 5697,
      "ĠCapsule": 5698,
      "Ġextravesical": 5699,
      "Ġmucoid": 5700,
      "Ġmusc": 5701,
      "Ġsituated": 5702,
      "arachn": 5703,
      "Ġbreak": 5704,
      "ott": 5705,
      "ĠDiffuse": 5706,
      "-comedo": 5707,
      "Ġobstruct": 5708,
      "ĠIntest": 5709,
      "Ġminig": 5710,
      "ĠWorld": 5711,
      "Ġcentered": 5712,
      "Ġmesor": 5713,
      "Ġbronchoalveolar": 5714,
      "-tumoral": 5715,
      "indr": 5716,
      "Ġovert": 5717,
      "Ġparapharyngeal": 5718,
      "Ġincomple": 5719,
      "Ġminimally": 5720,
      "ipient": 5721,
      "Ġindicative": 5722,
      "Ġsubst": 5723,
      "Ġphrenic": 5724,
      "Ġjejun": 5725,
      "Ġamyl": 5726,
      "Ġplaces": 5727,
      "ĠEndometriosis": 5728,
      "ĠOmental": 5729,
      "Ġtesticle": 5730,
      "tentacular": 5731,
      "Ġrepresentative": 5732,
      "ĠOver": 5733,
      "Ġdiscern": 5734,
      "Ġarteriosclerotic": 5735,
      "Ġintramucosal": 5736,
      "timated": 5737,
      "Ġadventitial": 5738,
      "Ġsupport": 5739,
      "Ġerodes": 5740,
      "Ġcovering": 5741,
      "yces": 5742,
      "Ġcalyces": 5743,
      "ĠDistant": 5744,
      "Ġresults": 5745,
      "Ġuncertain": 5746,
      "Ġfavoring": 5747,
      "ogranul": 5748,
      "ĠSixteen": 5749,
      "Ġcystadenofibroma": 5750,
      "Ġwashings": 5751,
      "Ġmonotony": 5752,
      "Ġumbilic": 5753,
      "ĠOrganization": 5754,
      "Ġinfarction": 5755,
      "Ġventricle": 5756,
      "Ġperiductal": 5757,
      "ĠMesocolic": 5758,
      "iaphragmatic": 5759,
      "Ġextrapelvic": 5760,
      "Ġglottis": 5761,
      "Ġintranuclear": 5762,
      "Ġdestruction": 5763,
      "Ġelastosis": 5764,
      "ĠHyalinized": 5765,
      "Ġestimated": 5766,
      "Ġintracytoplasmic": 5767,
      "olipoma": 5768,
      "ocolon": 5769,
      "ĠEntire": 5770,
      "Ġossification": 5771,
      "Ġpunct": 5772,
      "ĠGlioblastoma": 5773,
      "ĠMicrovessel": 5774,
      "Ġprocedure": 5775,
      "-Bloom": 5776,
      "Ġcylindr": 5777,
      "elineated": 5778,
      "Ġextremely": 5779,
      "Ġdistinctive": 5780,
      "Ġentrapped": 5781,
      "Ġexcrescences": 5782,
      "/soft": 5783,
      "Ġipsilateral": 5784,
      "Ġpatent": 5785,
      "Ġmetastasi": 5786,
      "roducing": 5787,
      "ĠSpermatic": 5788,
      "arachnoid": 5789,
      "ĠIntestine": 5790,
      "\".": 5791,
      "/n": 5792,
      "22": 5793,
      "28": 5794,
      "35": 5795,
      "80": 5796,
      "Keratinizing": 5797,
      "Ne": 5798,
      "Res": 5799,
      "ek": 5800,
      "join": 5801,
      "red": 5802,
      "uk": 5803,
      "vinc": 5804,
      "ĠZ": 5805,
      "Ġx": 5806,
      "thec": 5807,
      "oring": 5808,
      "Ġcm": 5809,
      "Ġcour": 5810,
      "aseating": 5811,
      "Ġpur": 5812,
      "isation": 5813,
      "Ġoc": 5814,
      "Ġful": 5815,
      "Ġflex": 5816,
      "roximately": 5817,
      "ulations": 5818,
      "ided": 5819,
      "ols": 5820,
      "olyp": 5821,
      "Ġtumorle": 5822,
      "Ġbif": 5823,
      "osarcomatous": 5824,
      "tracheal": 5825,
      "ĠNineteen": 5826,
      "acing": 5827,
      "Ġnext": 5828,
      "ety": 5829,
      "Ġforty": 5830,
      "iber": 5831,
      "Ġvesical": 5832,
      "Ġperis": 5833,
      "Ġchond": 5834,
      "mental": 5835,
      "uting": 5836,
      "Ġconvinc": 5837,
      "Ġseem": 5838,
      "opneumon": 5839,
      "ronous": 5840,
      "Ġresorp": 5841,
      "ĠSuperficial": 5842,
      "ytes": 5843,
      "Ġextensions": 5844,
      "Ġunusual": 5845,
      "Ġendometri": 5846,
      "Ġendomy": 5847,
      "chronous": 5848,
      "Ġserrated": 5849,
      "Ġtubo": 5850,
      "Ġparenchyme": 5851,
      "ĠFat": 5852,
      "Ġstri": 5853,
      "ĠBreast": 5854,
      "Ġkary": 5855,
      "Ġkeep": 5856,
      "Ġmicrometastatic": 5857,
      "ĠRandom": 5858,
      "Ġproliferations": 5859,
      "Ġmucosae": 5860,
      "ĠVIII": 5861,
      "ĠVortex": 5862,
      "rank": 5863,
      "Ġposteriorly": 5864,
      "Ġanteriorly": 5865,
      "Ġadenofibroma": 5866,
      "ĠDen": 5867,
      "Ġcontin": 5868,
      "ĠInter": 5869,
      "-floating": 5870,
      "Ġmesenchymal": 5871,
      "Ġmesocolon": 5872,
      "Ġperich": 5873,
      "Ġpericapsular": 5874,
      "Ġbronchitis": 5875,
      "avesicular": 5876,
      "gnosis": 5877,
      "Ġimages": 5878,
      "fication": 5879,
      "Ġsubserous": 5880,
      "Ġhalo": 5881,
      "Ġcarcinosarcoma": 5882,
      "Ġfibrillogenesis": 5883,
      "existing": 5884,
      "-producing": 5885,
      "Ġfascial": 5886,
      "Ġyellowish": 5887,
      "Ġmaking": 5888,
      "ĠNeoplasm": 5889,
      "Ġquanti": 5890,
      "Ġpapillomatosis": 5891,
      "Ġoriginal": 5892,
      "Ġrelation": 5893,
      "adenoma": 5894,
      "angiomatous": 5895,
      "Ġlipid": 5896,
      "Ġrectolateral": 5897,
      "Ġvasorum": 5898,
      "ĠApproximately": 5899,
      "Ġlabeled": 5900,
      "ĠSubpleural": 5901,
      "Ġlacks": 5902,
      "Ġmicrogemistocytic": 5903,
      "Ġsynovial": 5904,
      "Ġsynchronous": 5905,
      "Ġaggregate": 5906,
      "Ġbranching": 5907,
      "ĠMucinous": 5908,
      "Ġlinear": 5909,
      "Ġimplantation": 5910,
      "Ġretraction": 5911,
      "Ġcompresses": 5912,
      "Ġcompression": 5913,
      "Ġfungal": 5914,
      "ĠThyroiditis": 5915,
      "Ġfavored": 5916,
      "ĠCommon": 5917,
      "Ġimmunohistochemistry": 5918,
      "Ġalterations": 5919,
      "Ġtexture": 5920,
      "Ġpolymorphocellular": 5921,
      "Ġarytenoid": 5922,
      "Ġtendency": 5923,
      "Ġimmunoreactive": 5924,
      "Ġpools": 5925,
      "Ġmamillae": 5926,
      "ĠNecrotic": 5927,
      "Ġsupraglottis": 5928,
      "-eight": 5929,
      "Ġstratified": 5930,
      "ĠIndividual": 5931,
      "ĠArteries": 5932,
      "Ġatherosclerosis": 5933,
      "Ġcheek": 5934,
      "Ġequal": 5935,
      "ĠHBV": 5936,
      "Nonseminoma": 5937,
      "ramid": 5938,
      "Ġbelow": 5939,
      "ĠMultin": 5940,
      "Ġmusculature": 5941,
      "Ġincomplete": 5942,
      "Ġamyloid": 5943,
      "ĠOverall": 5944,
      "Ġcylindrical": 5945,
      "Residual": 5946,
      "joining": 5947,
      "Ġflexure": 5948,
      "Ġconvincing": 5949,
      "opneumonia": 5950,
      "Ġkeeping": 5951,
      "-or": 5952,
      "-ne": 5953,
      "/B": 5954,
      "/per": 5955,
      "/yellow": 5956,
      "75": 5957,
      "EA": 5958,
      "Nodular": 5959,
      "aked": 5960,
      "cation": 5961,
      "eter": 5962,
      "iew": 5963,
      "ks": 5964,
      "lom": 5965,
      "lobular": 5966,
      "Ġess": 5967,
      "inct": 5968,
      "Ġamon": 5969,
      "Ġafter": 5970,
      "Ġcili": 5971,
      "Ġcasts": 5972,
      "Ġsti": 5973,
      "Ġpect": 5974,
      "Ġmol": 5975,
      "Ġmamm": 5976,
      "Ġmott": 5977,
      "Ġtail": 5978,
      "Ġlens": 5979,
      "Ġfrank": 5980,
      "uld": 5981,
      "ulent": 5982,
      "olk": 5983,
      "ĠThymic": 5984,
      "fibr": 5985,
      "urcation": 5986,
      "ane": 5987,
      "anent": 5988,
      "Ġecc": 5989,
      "tral": 5990,
      "ecti": 5991,
      "Ġgastroc": 5992,
      "terine": 5993,
      "Ġshiny": 5994,
      "oduodenal": 5995,
      "Ġcoming": 5996,
      "Ġparabronchial": 5997,
      "ĠLow": 5998,
      "endym": 5999,
      "Ġreserve": 6000,
      "Ġangiol": 6001,
      "Ġangular": 6002,
      "ĠSMA": 6003,
      "ytokeratin": 6004,
      "Ġendophytic": 6005,
      "ĠPulmonary": 6006,
      "Ġhypopharynx": 6007,
      "Ġductular": 6008,
      "eptal": 6009,
      "ĠBronch": 6010,
      "Ġaccess": 6011,
      "Ġhealth": 6012,
      "Ġchronica": 6013,
      "Ġsubarachnoid": 6014,
      "Ġcompact": 6015,
      "Ġfibroblastic": 6016,
      "ĠAdhesion": 6017,
      "Ġnonc": 6018,
      "Ġreactivity": 6019,
      "ĠPerirenal": 6020,
      "alcified": 6021,
      "llerian": 6022,
      "ĠInvol": 6023,
      "ĠIX": 6024,
      "ĠThese": 6025,
      "Ġcenters": 6026,
      "Ġbronchopneumonia": 6027,
      "Ġdiseases": 6028,
      "Ġencases": 6029,
      "Ġcompletion": 6030,
      "Ġsever": 6031,
      "Ġtransg": 6032,
      "Ġvariants": 6033,
      "Ġperivesicle": 6034,
      "areolar": 6035,
      "Ġinterspersed": 6036,
      "ĠPara": 6037,
      "ĠMicrometastatic": 6038,
      "ĠAdditionally": 6039,
      "ĠFibrosis": 6040,
      "Ġfascicular": 6041,
      "Ġcavit": 6042,
      "Ġdenuded": 6043,
      "Ġcomprise": 6044,
      "Ġanthracos": 6045,
      "oinvasive": 6046,
      "Ġcircumference": 6047,
      "Ġangle": 6048,
      "Ġpyramid": 6049,
      "Ġsuggestion": 6050,
      "ĠFibrofatty": 6051,
      "iffusely": 6052,
      "Ġranges": 6053,
      "Ġobliterated": 6054,
      "Ġperfor": 6055,
      "Ġperformed": 6056,
      "ĠAstrocytoma": 6057,
      "Ġsupports": 6058,
      "Ġmastectomy": 6059,
      "Ġcaliber": 6060,
      "Ġexpansive": 6061,
      "Ġarteriolosclerosis": 6062,
      "Ġepidermoid": 6063,
      "Ġvacuoles": 6064,
      "Ġpseudoangiomatous": 6065,
      "Ġplanes": 6066,
      "ĠPosterior": 6067,
      "Ġcollec": 6068,
      "Ġvallec": 6069,
      "Ġconglom": 6070,
      "Ġremnant": 6071,
      "Ġdistributed": 6072,
      "ĠPeripancreatic": 6073,
      "Ġpolymorphic": 6074,
      "/carcinoma": 6075,
      "Ġprecaval": 6076,
      "ĠEpithelial": 6077,
      "Ġerosions": 6078,
      "Ġrhabdomy": 6079,
      "-nine": 6080,
      "Ġgliofibrillogenesis": 6081,
      "ĠMulticentricity": 6082,
      "Ġmucocellulare": 6083,
      "ĠPericard": 6084,
      "-confined": 6085,
      "ĠAnthracotic": 6086,
      "ympathic": 6087,
      "Ġmacrometastases": 6088,
      "Ġautolysis": 6089,
      "Ġneovascularization": 6090,
      "Ġmultilobulated": 6091,
      "Ġepithelia": 6092,
      "Ġdissemination": 6093,
      "Ã¼llerian": 6094,
      "ĠCentrilobular": 6095,
      "Ġcorrelation": 6096,
      "Ġplanoepitheliale": 6097,
      "-seven": 6098,
      "Ġcandidates": 6099,
      "Ġpunctate": 6100,
      "Ġbifurcation": 6101,
      "Ġresorptive": 6102,
      "ĠDense": 6103,
      "Ġessentially": 6104,
      "Ġamong": 6105,
      "Ġpectoral": 6106,
      "Ġmottled": 6107,
      "Ġgastrocolic": 6108,
      "Ġangiolympathic": 6109,
      "Ġaccessory": 6110,
      "Ġhealthy": 6111,
      ".M": 6112,
      "31": 6113,
      "Conventional": 6114,
      "Diffusely": 6115,
      "FIGO": 6116,
      "Peri": 6117,
      "Uterine": 6118,
      "auc": 6119,
      "ained": 6120,
      "bed": 6121,
      "boring": 6122,
      "eeth": 6123,
      "gland": 6124,
      "ias": 6125,
      "ire": 6126,
      "ker": 6127,
      "kerat": 6128,
      "lass": 6129,
      "ning": 6130,
      "nail": 6131,
      "ox": 6132,
      "ohesive": 6133,
      "tly": 6134,
      "utis": 6135,
      "uft": 6136,
      "xis": 6137,
      "ycl": 6138,
      "inisc": 6139,
      "Ġcre": 6140,
      "Ġcapill": 6141,
      "Ġinside": 6142,
      "Ġnas": 6143,
      "Ġnative": 6144,
      "Ġnaked": 6145,
      "esm": 6146,
      "esign": 6147,
      "estion": 6148,
      "Ġsanguineous": 6149,
      "Ġpir": 6150,
      "Ġpear": 6151,
      "Ġpeliosis": 6152,
      "edded": 6153,
      "Ġtuft": 6154,
      "Ġfre": 6155,
      "Ġfile": 6156,
      "idge": 6157,
      "ĠTiss": 6158,
      "ĠThymoma": 6159,
      "Ġble": 6160,
      "Ġbeta": 6161,
      "Ġbull": 6162,
      "fib": 6163,
      "Ġder": 6164,
      "anterior": 6165,
      "Ġequivocal": 6166,
      "tric": 6167,
      "Ġridge": 6168,
      "Ġgall": 6169,
      "argins": 6170,
      "Ġhob": 6171,
      "tical": 6172,
      "Ġadip": 6173,
      "Ġneph": 6174,
      "Ġvillous": 6175,
      "Ġvermiform": 6176,
      "Ġverruc": 6177,
      "Ġperifocal": 6178,
      "ially": 6179,
      "odermal": 6180,
      "Ġleuk": 6181,
      "nea": 6182,
      "Ġcontex": 6183,
      "ĠLess": 6184,
      "istinct": 6185,
      "ended": 6186,
      "filament": 6187,
      "ques": 6188,
      "ologies": 6189,
      "Ġrev": 6190,
      "ĠSinus": 6191,
      "Ġhighest": 6192,
      "romuscular": 6193,
      "aginous": 6194,
      "agulation": 6195,
      "ainder": 6196,
      "Ġextrascleral": 6197,
      "Ġinfection": 6198,
      "Ġacid": 6199,
      "Ġactin": 6200,
      "Ġacidic": 6201,
      "Ġvascularized": 6202,
      "Ġknown": 6203,
      "ĠGran": 6204,
      "Ġatypias": 6205,
      "Ġsubin": 6206,
      "Ġsubepithelial": 6207,
      "Ġmyel": 6208,
      "emia": 6209,
      "ĠEl": 6210,
      "Ġepiglottic": 6211,
      "Ġepiploic": 6212,
      "Ġependym": 6213,
      "Ġperiintestinal": 6214,
      "Ġcornea": 6215,
      "ĠHer": 6216,
      "ĠHemorrh": 6217,
      "ĠDet": 6218,
[...]
